{
  "eos": 0, 
  "UNK": 1, 
  ",": 2, 
  ".": 3, 
  "את": 4, 
  "של": 5, 
  "&quot;": 6, 
  "זה": 7, 
  "לא": 8, 
  "על": 9, 
  "אני": 10, 
  "הוא": 11, 
  "מה": 12, 
  "ו@@": 13, 
  "?": 14, 
  "אבל": 15, 
  "אז": 16, 
  "הם": 17, 
  "כל": 18, 
  "ש@@": 19, 
  "עם": 20, 
  "יותר": 21, 
  ":": 22, 
  "היא": 23, 
  "יש": 24, 
  "--": 25, 
  "או": 26, 
  "אם": 27, 
  "היה": 28, 
  "&apos;": 29, 
  "אנחנו": 30, 
  "/": 31, 
  "ב@@": 32, 
  "_": 33, 
  "לי": 34, 
  "הזה": 35, 
  "כך": 36, 
  "אתם": 37, 
  "מ@@": 38, 
  "אחד": 39, 
  "לנו": 40, 
  "רק": 41, 
  "כמו": 42, 
  "ל@@": 43, 
  "נ@@": 44, 
  "שלי": 45, 
  "כדי": 46, 
  "כ@@": 47, 
  "שלנו": 48, 
  "להיות": 49, 
  "יכולים": 50, 
  "אנשים": 51, 
  "אנו": 52, 
  "המ@@": 53, 
  "גם": 54, 
  "-": 55, 
  "י@@": 56, 
  "לעשות": 57, 
  "זו": 58, 
  "לכם": 59, 
  "ול@@": 60, 
  "ס@@": 61, 
  "זאת": 62, 
  "ת@@": 63, 
  "כמה": 64, 
  "ג": 65, 
  "אותו": 66, 
  "הרבה": 67, 
  "מאוד": 68, 
  "וזה": 69, 
  "ר@@": 70, 
  "כי": 71, 
  "ק@@": 72, 
  "א@@": 73, 
  "ה@@": 74, 
  "כאן": 75, 
  "שזה": 76, 
  "ואני": 77, 
  "עכשיו": 78, 
  "יכול": 79, 
  "שאני": 80, 
  "אתה": 81, 
  "ד@@": 82, 
  "משהו": 83, 
  "ט@@": 84, 
  "היו": 85, 
  "איך": 86, 
  "האלה": 87, 
  "שם": 88, 
  "שמ@@": 89, 
  "מו@@": 90, 
  "ח@@": 91, 
  "שי@@": 92, 
  "שהם": 93, 
  "וב@@": 94, 
  "טוב": 95, 
  "אותם": 96, 
  "פ@@": 97, 
  "ב": 98, 
  "דבר": 99, 
  "לו": 100, 
  "בו": 101, 
  "בכל": 102, 
  "ע@@": 103, 
  "יודעים": 104, 
  "מי@@": 105, 
  "שהוא": 106, 
  "ואז": 107, 
  "ביותר": 108, 
  "בה": 109, 
  "צ@@": 110, 
  "הא@@": 111, 
  "למ@@": 112, 
  "ס": 113, 
  "ל": 114, 
  "לי@@": 115, 
  "שיש": 116, 
  "לה": 117, 
  "שב@@": 118, 
  "עד": 119, 
  "מת@@": 120, 
  "לראות": 121, 
  "נו@@": 122, 
  "באמת": 123, 
  "ג@@": 124, 
  "רוצה": 125, 
  "בי@@": 126, 
  "הת@@": 127, 
  "כש@@": 128, 
  "דברים": 129, 
  "למעשה": 130, 
  "להם": 131, 
  "הו@@": 132, 
  "נה": 133, 
  "הזו": 134, 
  "רה": 135, 
  "לפני": 136, 
  "רות": 137, 
  "או@@": 138, 
  "הי@@": 139, 
  "שלהם": 140, 
  "רו@@": 141, 
  "די": 142, 
  "שאנחנו": 143, 
  "הן": 144, 
  "וה@@": 145, 
  "אך": 146, 
  "י": 147, 
  "במ@@": 148, 
  "כן": 149, 
  "רים": 150, 
  "ממש": 151, 
  "אלה": 152, 
  "קו@@": 153, 
  "העולם": 154, 
  "אחת": 155, 
  "פה": 156, 
  "האם": 157, 
  "אין": 158, 
  "מי": 159, 
  "נו": 160, 
  "שנ@@": 161, 
  "-@@": 162, 
  "בין": 163, 
  "שנים": 164, 
  "שה@@": 165, 
  "תי": 166, 
  "ו": 167, 
  "נים": 168, 
  "ז@@": 169, 
  "רי@@": 170, 
  "ק": 171, 
  "היתה": 172, 
  "שלא": 173, 
  "אל": 174, 
  "דרך": 175, 
  "שלו": 176, 
  "זהו": 177, 
  "וי@@": 178, 
  "היום": 179, 
  "מים": 180, 
  "צריכים": 181, 
  "סי@@": 182, 
  "פשוט": 183, 
  "מה@@": 184, 
  "ר": 185, 
  "אותה": 186, 
  "הייתי": 187, 
  "הנ@@": 188, 
  "ומ@@": 189, 
  "הש@@": 190, 
  "ני": 191, 
  "עוד": 192, 
  "חושב": 193, 
  "ט": 194, 
  "מאד": 195, 
  "אי@@": 196, 
  "הע@@": 197, 
  "רואים": 198, 
  "ה": 199, 
  "בו@@": 200, 
  "ע": 201, 
  "שאנו": 202, 
  "פי@@": 203, 
  "כאשר": 204, 
  "ני@@": 205, 
  "אחר": 206, 
  "אולי": 207, 
  "לה@@": 208, 
  "רת": 209, 
  "שנה": 210, 
  "נות": 211, 
  "בעולם": 212, 
  "תודה": 213, 
  "חו@@": 214, 
  "יו@@": 215, 
  "והוא": 216, 
  "זמן": 217, 
  "ן": 218, 
  "מש@@": 219, 
  "אומר": 220, 
  "הפ@@": 221, 
  "בגלל": 222, 
  "לו@@": 223, 
  "סו@@": 224, 
  "הס@@": 225, 
  "שו@@": 226, 
  "צריך": 227, 
  "ף": 228, 
  "פו@@": 229, 
  "ד": 230, 
  "חיים": 231, 
  "עושים": 232, 
  "רי": 233, 
  "באופן": 234, 
  "ש": 235, 
  "אותי": 236, 
  "של@@": 237, 
  "עבור": 238, 
  "טים": 239, 
  "אפילו": 240, 
  "והם": 241, 
  "אפשר": 242, 
  "יום": 243, 
  "קים": 244, 
  "למה": 245, 
  "שאתם": 246, 
  "מח@@": 247, 
  "בים": 248, 
  "דו@@": 249, 
  "כה": 250, 
  "הח@@": 251, 
  "הק@@": 252, 
  "תו@@": 253, 
  "פעם": 254, 
  "לך": 255, 
  "שים": 256, 
  "די@@": 257, 
  "המו@@": 258, 
  "אדם": 259, 
  "מות": 260, 
  "הדבר": 261, 
  "לח@@": 262, 
  "שלכם": 263, 
  "שת@@": 264, 
  "רוצים": 265, 
  "טו@@": 266, 
  "הג@@": 267, 
  "אלא": 268, 
  "הדברים": 269, 
  "כבר": 270, 
  "נראה": 271, 
  "חלק": 272, 
  "א": 273, 
  "קה": 274, 
  "ות": 275, 
  "יי@@": 276, 
  "ונ@@": 277, 
  "לים": 278, 
  "פר@@": 279, 
  "הר@@": 280, 
  "דים": 281, 
  "הד@@": 282, 
  "טי@@": 283, 
  "נית": 284, 
  "נכון": 285, 
  "הצ@@": 286, 
  "שני": 287, 
  "דה": 288, 
  "אמר": 289, 
  "לש@@": 290, 
  "חי@@": 291, 
  "לת@@": 292, 
  "שהיא": 293, 
  "מן": 294, 
  "קצת": 295, 
  "הללו": 296, 
  "ידי": 297, 
  "אחרי": 298, 
  "יהיה": 299, 
  "שוב": 300, 
  "הנה": 301, 
  "גו@@": 302, 
  "תי@@": 303, 
  "אחרים": 304, 
  "בת": 305, 
  "אלו": 306, 
  "לק@@": 307, 
  "ץ": 308, 
  "בי": 309, 
  "הכ@@": 310, 
  "לכל": 311, 
  "הב@@": 312, 
  "עו@@": 313, 
  "חה": 314, 
  "קי@@": 315, 
  "מע@@": 316, 
  "פים": 317, 
  "להת@@": 318, 
  "מספר": 319, 
  "פי": 320, 
  "הכי": 321, 
  "ממ@@": 322, 
  "מפ@@": 323, 
  "ח": 324, 
  "לות": 325, 
  "גדול": 326, 
  "מק@@": 327, 
  "ב-@@": 328, 
  "ת": 329, 
  "מס@@": 330, 
  "האנשים": 331, 
  "עים": 332, 
  "יודע": 333, 
  "בר@@": 334, 
  "החיים": 335, 
  "ובכן": 336, 
  "גי@@": 337, 
  "בדיוק": 338, 
  "שלך": 339, 
  "ך": 340, 
  "צי@@": 341, 
  "רבה": 342, 
  "עושה": 343, 
  "מא@@": 344, 
  "ם": 345, 
  "בת@@": 346, 
  "ולא": 347, 
  "בא@@": 348, 
  "עדיין": 349, 
  "ים": 350, 
  "סים": 351, 
  "עי@@": 352, 
  "אה": 353, 
  "לפ@@": 354, 
  "כו@@": 355, 
  "חושבים": 356, 
  "ליצור": 357, 
  "לא@@": 358, 
  "הזמן": 359, 
  "תם": 360, 
  "מת": 361, 
  "מקום": 362, 
  "פות": 363, 
  "שה": 364, 
  "ניתן": 365, 
  "סוג": 366, 
  "בע@@": 367, 
  "הכל": 368, 
  "בעצם": 369, 
  "הראשון": 370, 
  "מנ@@": 371, 
  "בערך": 372, 
  "טי": 373, 
  "לזה": 374, 
  "בות": 375, 
  "מר@@": 376, 
  "כי@@": 377, 
  "תה": 378, 
  "הזאת": 379, 
  "קשה": 380, 
  "חשוב": 381, 
  "לנ@@": 382, 
  "בן": 383, 
  "ניים": 384, 
  "ז": 385, 
  "talks": 386, 
  "he": 387, 
  "http": 388, 
  "הייתה": 389, 
  "lang": 390, 
  "www.ted.com": 391, 
  "עה": 392, 
  "לכ@@": 393, 
  "לחשוב": 394, 
  "לב@@": 395, 
  "אי": 396, 
  "פחות": 397, 
  "כיצד": 398, 
  "רו": 399, 
  "צו@@": 400, 
  "לדבר": 401, 
  "בצורה": 402, 
  "בית": 403, 
  "ומה": 404, 
  "אשר": 405, 
  "מישהו": 406, 
  "שבו": 407, 
  "!": 408, 
  "בר": 409, 
  "בתוך": 410, 
  "שום": 411, 
  "זוהי": 412, 
  "לע@@": 413, 
  "צה": 414, 
  "מערכת": 415, 
  "אותנו": 416, 
  "שלה": 417, 
  "מפני": 418, 
  "בח@@": 419, 
  "להבין": 420, 
  "תו": 421, 
  "חות": 422, 
  "לס@@": 423, 
  "הולך": 424, 
  "אנ@@": 425, 
  "עות": 426, 
  "טה": 427, 
  "להשתמש": 428, 
  "דות": 429, 
  ";": 430, 
  "ואם": 431, 
  "נת": 432, 
  "כעת": 433, 
  "מד@@": 434, 
  "מהם": 435, 
  "בד@@": 436, 
  "לב": 437, 
  "רבים": 438, 
  "בק@@": 439, 
  "ה-@@": 440, 
  "בס@@": 441, 
  "אף": 442, 
  "ריות": 443, 
  "מצ@@": 444, 
  "הדרך": 445, 
  "זו@@": 446, 
  "לגבי": 447, 
  "יכולה": 448, 
  "ניות": 449, 
  "במקום": 450, 
  "תמיד": 451, 
  "ות@@": 452, 
  "אר@@": 453, 
  "כזה": 454, 
  "תית": 455, 
  "וא@@": 456, 
  "ספר": 457, 
  "במשך": 458, 
  "כמובן": 459, 
  "האלו": 460, 
  "בש@@": 461, 
  "10": 462, 
  "חים": 463, 
  "בהם": 464, 
  "כולם": 465, 
  "שא@@": 466, 
  "ללא": 467, 
  "והיא": 468, 
  "ילדים": 469, 
  "עת": 470, 
  "דו": 471, 
  "וכך": 472, 
  "לכך": 473, 
  "יה": 474, 
  "שתי": 475, 
  "המוח": 476, 
  "מג@@": 477, 
  "ת-@@": 478, 
  "קורה": 479, 
  "שבה": 480, 
  "הט@@": 481, 
  "עליו": 482, 
  "פת": 483, 
  "לומר": 484, 
  "השני": 485, 
  "ואנחנו": 486, 
  "בזמן": 487, 
  "כפי": 488, 
  "בסדר": 489, 
  "קות": 490, 
  "מב@@": 491, 
  "ויש": 492, 
  "הז@@": 493, 
  "לצ@@": 494, 
  "קר@@": 495, 
  "לת": 496, 
  "מיליון": 497, 
  "קו": 498, 
  "שות": 499, 
  "...": 500, 
  "מו": 501, 
  "דולר": 502, 
  "למצוא": 503, 
  "מידע": 504, 
  "היינו": 505, 
  "ין": 506, 
  "שונים": 507, 
  "שהיה": 508, 
  "בדרך": 509, 
  "נג@@": 510, 
  "אחוז": 511, 
  "לג@@": 512, 
  "צ": 513, 
  "לאנשים": 514, 
  "סה": 515, 
  "רית": 516, 
  "להי@@": 517, 
  "הראשונה": 518, 
  "האו@@": 519, 
  "מאשר": 520, 
  "טר@@": 521, 
  ".@@": 522, 
  "כים": 523, 
  "מעט": 524, 
  "הרעיון": 525, 
  "דת": 526, 
  "שע@@": 527, 
  "לקחת": 528, 
  "נוכל": 529, 
  "מכ@@": 530, 
  "לאחר": 531, 
  "בפ@@": 532, 
  "בזה": 533, 
  "חת": 534, 
  "מדי": 535, 
  "אותן": 536, 
  "שאתה": 537, 
  "קטן": 538, 
  "ואתם": 539, 
  "תנו": 540, 
  "לתוך": 541, 
  "מכיוון": 542, 
  "מדוע": 543, 
  "בואו": 544, 
  "בני": 545, 
  "ספ@@": 546, 
  "עלינו": 547, 
  "מכל": 548, 
  "מ": 549, 
  "20": 550, 
  "גר@@": 551, 
  "לקבל": 552, 
  "שח@@": 553, 
  "שכ@@": 554, 
  "רבות": 555, 
  "כמעט": 556, 
  "שונה": 557, 
  "וכל": 558, 
  "האי@@": 559, 
  "שאם": 560, 
  "החו@@": 561, 
  "תוך": 562, 
  "כאלה": 563, 
  "אות": 564, 
  "בנ@@": 565, 
  "מהמ@@": 566, 
  "וגם": 567, 
  "זי@@": 568, 
  "מחדש": 569, 
  "ל-@@": 570, 
  "טובה": 571, 
  "והמ@@": 572, 
  "לד@@": 573, 
  "הספר": 574, 
  "דר": 575, 
  "לעולם": 576, 
  "קרה": 577, 
  "רוב": 578, 
  "צים": 579, 
  "מספיק": 580, 
  "מין": 581, 
  "מט@@": 582, 
  "כ": 583, 
  "רב": 584, 
  "סיפור": 585, 
  "להגיע": 586, 
  "אתכם": 587, 
  "עבודה": 588, 
  "אמ@@": 589, 
  "חדש": 590, 
  "אים": 591, 
  "שהת@@": 592, 
  "לכן": 593, 
  "המי@@": 594, 
  "האדם": 595, 
  "בג@@": 596, 
  "הקו@@": 597, 
  "לר@@": 598, 
  "מזה": 599, 
  "שת": 600, 
  "כאילו": 601, 
  "משתמשים": 602, 
  "ברי@@": 603, 
  "וכ@@": 604, 
  "עובד": 605, 
  "לגמרי": 606, 
  "בלתי": 607, 
  "לבנות": 608, 
  "לתת": 609, 
  "כנ@@": 610, 
  "הפי@@": 611, 
  "השי@@": 612, 
  "הארץ": 613, 
  "רא@@": 614, 
  "שכל": 615, 
  "מית": 616, 
  "קת": 617, 
  "אומרים": 618, 
  "לית": 619, 
  "אחרת": 620, 
  "בצ@@": 621, 
  "בכ@@": 622, 
  "לשנות": 623, 
  "טית": 624, 
  "כם": 625, 
  "להראות": 626, 
  "קר": 627, 
  "יון": 628, 
  "3": 629, 
  "נשים": 630, 
  "רג@@": 631, 
  "העבודה": 632, 
  ".html": 633, 
  "קי": 634, 
  "קל": 635, 
  "בעיה": 636, 
  "המון": 637, 
  "בעלי": 638, 
  "וח@@": 639, 
  "במו@@": 640, 
  "מתוך": 641, 
  "כסף": 642, 
  "סט@@": 643, 
  "באותו": 644, 
  "הולכים": 645, 
  "שינוי": 646, 
  "לעבוד": 647, 
  "אמרתי": 648, 
  "השנים": 649, 
  "בט@@": 650, 
  "צות": 651, 
  "גים": 652, 
  "בשביל": 653, 
  "באמצעות": 654, 
  "אלי": 655, 
  "ללמוד": 656, 
  "יות": 657, 
  "גדולה": 658, 
  "שמת@@": 659, 
  "ואת": 660, 
  "חשבתי": 661, 
  "מכם": 662, 
  "תיים": 663, 
  "נפ@@": 664, 
  "נט@@": 665, 
  "שאנשים": 666, 
  "רגע": 667, 
  "שו": 668, 
  "כולנו": 669, 
  "סי": 670, 
  "הנו@@": 671, 
  "שלוש": 672, 
  "אב@@": 673, 
  "שלושה": 674, 
  "30": 675, 
  "כיום": 676, 
  "%": 677, 
  "באו@@": 678, 
  "ללכת": 679, 
  "בעיות": 680, 
  "דם": 681, 
  "יחד": 682, 
  "כות": 683, 
  "אנרגיה": 684, 
  "הגדול": 685, 
  "הבעיה": 686, 
  "חיות": 687, 
  "טכנולוגיה": 688, 
  "מקו@@": 689, 
  "בל": 690, 
  "נמצא": 691, 
  "בעזרת": 692, 
  "בכך": 693, 
  "שמו@@": 694, 
  "עליהם": 695, 
  "שהו@@": 696, 
  "גה": 697, 
  "אר": 698, 
  "שר": 699, 
  "בבית": 700, 
  "ראה": 701, 
  "נד@@": 702, 
  "טובים": 703, 
  "אמרו": 704, 
  "משו@@": 705, 
  "הסיפור": 706, 
  "פני": 707, 
  "נעשה": 708, 
  "אור": 709, 
  "לדעת": 710, 
  "תח@@": 711, 
  "ריים": 712, 
  "נס@@": 713, 
  "תק@@": 714, 
  "שהמ@@": 715, 
  "50": 716, 
  "השאלה": 717, 
  "מיליארד": 718, 
  "מעניין": 719, 
  "מנת": 720, 
  "מעל": 721, 
  "חו": 722, 
  "וע@@": 723, 
  "המת@@": 724, 
  "כלל": 725, 
  "אן": 726, 
  "ברו@@": 727, 
  "והת@@": 728, 
  "פור@@": 729, 
  "מז@@": 730, 
  "מהר": 731, 
  "הבי@@": 732, 
  "הילדים": 733, 
  "וה": 734, 
  "בלי": 735, 
  "חושבת": 736, 
  "קודם": 737, 
  "ולכן": 738, 
  "מאו@@": 739, 
  "רון": 740, 
  "רעיון": 741, 
  "בנו": 742, 
  "למו@@": 743, 
  "צר": 744, 
  "תהיה": 745, 
  "לאו@@": 746, 
  "לפי": 747, 
  "כוח": 748, 
  "הבא": 749, 
  "ריה": 750, 
  "להתחיל": 751, 
  "עצמו": 752, 
  "עומד": 753, 
  "פת@@": 754, 
  "פו": 755, 
  "בתי": 756, 
  "המידע": 757, 
  "שונות": 758, 
  "ככה": 759, 
  "איש": 760, 
  "להפוך": 761, 
  "התחלתי": 762, 
  "מתו@@": 763, 
  "איזה": 764, 
  "אוקיי": 765, 
  "לספר": 766, 
  "תמונה": 767, 
  "נס": 768, 
  "מדהים": 769, 
  "2": 770, 
  "עו": 771, 
  "מקבלים": 772, 
  "ממה": 773, 
  "לאי@@": 774, 
  "דומה": 775, 
  "למעלה": 776, 
  "וש@@": 777, 
  "חדשה": 778, 
  "לחלוטין": 779, 
  "ברור": 780, 
  "עצמי": 781, 
  "4": 782, 
  "הפר@@": 783, 
  "אפ@@": 784, 
  "חייב": 785, 
  "חי": 786, 
  "ן-@@": 787, 
  "שאלה": 788, 
  "טר": 789, 
  "חדשות": 790, 
  "תר@@": 791, 
  "שי": 792, 
  "נג": 793, 
  "ככל": 794, 
  "אח@@": 795, 
  "נע@@": 796, 
  "במהלך": 797, 
  "חדשים": 798, 
  "דקות": 799, 
  "מידה": 800, 
  "ור@@": 801, 
  "טות": 802, 
  "אחרות": 803, 
  "רואה": 804, 
  "מסו@@": 805, 
  "קט@@": 806, 
  "איפה": 807, 
  "נק@@": 808, 
  "עובדים": 809, 
  "היו@@": 810, 
  "גן": 811, 
  "הסו@@": 812, 
  "וזו": 813, 
  "במיוחד": 814, 
  "האחרונות": 815, 
  "רתי": 816, 
  "דר@@": 817, 
  "שאין": 818, 
  "נח@@": 819, 
  "ציה": 820, 
  "אוכל": 821, 
  "מדברים": 822, 
  "מאות": 823, 
  "משנה": 824, 
  "סות": 825, 
  "מתי": 826, 
  "יהיו": 827, 
  "יים": 828, 
  "ילד": 829, 
  "הרו@@": 830, 
  "לט@@": 831, 
  "גישה": 832, 
  "חייבים": 833, 
  "שנות": 834, 
  "הסיבה": 835, 
  "מגיע": 836, 
  "100": 837, 
  "היכן": 838, 
  "ולי@@": 839, 
  "פ": 840, 
  "מר": 841, 
  "עלי": 842, 
  "כדור": 843, 
  "צריכה": 844, 
  "באי@@": 845, 
  "שימוש": 846, 
  "בחו@@": 847, 
  "החי@@": 848, 
  "מתחילים": 849, 
  "לנסות": 850, 
  "הים": 851, 
  "דור": 852, 
  "5": 853, 
  "פרו@@": 854, 
  "מנו@@": 855, 
  "מעבר": 856, 
  "לשם": 857, 
  "לגרום": 858, 
  "מחו@@": 859, 
  "ביחד": 860, 
  "מרו@@": 861, 
  "15": 862, 
  "אוהב": 863, 
  "המש@@": 864, 
  "הסי@@": 865, 
  "ברים": 866, 
  "מעו@@": 867, 
  "בשנה": 868, 
  "סוף": 869, 
  "ואנו": 870, 
  "רכ@@": 871, 
  "קטנה": 872, 
  "תן": 873, 
  "הצי@@": 874, 
  "בתור": 875, 
  "כלי": 876, 
  "בע": 877, 
  "מיני": 878, 
  "חודשים": 879, 
  "עשה": 880, 
  "שר@@": 881, 
  "הייתם": 882, 
  "במי@@": 883, 
  "שניתן": 884, 
  "שעות": 885, 
  "מאיתנו": 886, 
  "TED": 887, 
  "מ-@@": 888, 
  "אינו": 889, 
  "ליות": 890, 
  "וכש@@": 891, 
  "בשם": 892, 
  "שהיו": 893, 
  "מיים": 894, 
  "כלומר": 895, 
  "מראה": 896, 
  "בד": 897, 
  "בא": 898, 
  "דן": 899, 
  "קיים": 900, 
  "תר": 901, 
  "האחרון": 902, 
  "עשו": 903, 
  "המים": 904, 
  "תיות": 905, 
  "במקרה": 906, 
  "סביב": 907, 
  "תים": 908, 
  "&#91;": 909, 
  "אפריקה": 910, 
  "המח@@": 911, 
  "קטנים": 912, 
  "&#93;": 913, 
  "המע@@": 914, 
  "אמרה": 915, 
  "בשי@@": 916, 
  "אפשרי": 917, 
  "השו@@": 918, 
  "שאי@@": 919, 
  "שק@@": 920, 
  "חיי": 921, 
  "שנו@@": 922, 
  "זר": 923, 
  "למשל": 924, 
  "להגיד": 925, 
  "עליה": 926, 
  "התק@@": 927, 
  "מיי@@": 928, 
  "בעי@@": 929, 
  "מבינים": 930, 
  "נמצאים": 931, 
  "למרות": 932, 
  "טיים": 933, 
  "העו@@": 934, 
  "תמונות": 935, 
  "האמת": 936, 
  "מיד": 937, 
  "שנקרא": 938, 
  "שאפשר": 939, 
  "העיר": 940, 
  "מדובר": 941, 
  "פל": 942, 
  "רעיונות": 943, 
  "נוסף": 944, 
  "משום": 945, 
  "מחקר": 946, 
  "אותך": 947, 
  "מכן": 948, 
  "מתחת": 949, 
  "טיות": 950, 
  "פרי@@": 951, 
  "בכלל": 952, 
  "מנסים": 953, 
  "משת@@": 954, 
  "הטכנולוגיה": 955, 
  "מול": 956, 
  "שקורה": 957, 
  "להשיג": 958, 
  "ויותר": 959, 
  "מון": 960, 
  "מאז": 961, 
  "כנראה": 962, 
  "מיות": 963, 
  "לבצע": 964, 
  "מיו@@": 965, 
  "ם-@@": 966, 
  "אומרת": 967, 
  "מצי@@": 968, 
  "החברה": 969, 
  "הגי@@": 970, 
  "טו": 971, 
  "יד": 972, 
  "משחק": 973, 
  "מדבר": 974, 
  "גדולים": 975, 
  "גו": 976, 
  "נתי": 977, 
  "מתחיל": 978, 
  "רציתי": 979, 
  "יוצרים": 980, 
  "מאי@@": 981, 
  "מעולם": 982, 
  "התמונה": 983, 
  "טון": 984, 
  "הדי@@": 985, 
  "עצמם": 986, 
  "קס": 987, 
  "אחוזים": 988, 
  "מתכוון": 989, 
  "תפ@@": 990, 
  "נגד": 991, 
  "קלי@@": 992, 
  "ומת@@": 993, 
  "ביום": 994, 
  "בז@@": 995, 
  "כת": 996, 
  "בעו@@": 997, 
  "קוראים": 998, 
  "ניה": 999, 
  "6": 1000, 
  "ימים": 1001, 
  "ברת": 1002, 
  "מחשב": 1003, 
  "באותה": 1004, 
  "סון": 1005, 
  "גות": 1006, 
  "לחו@@": 1007, 
  "כיוון": 1008, 
  "עיצוב": 1009, 
  "לאורך": 1010, 
  "שזו": 1011, 
  "מד": 1012, 
  "אוהבים": 1013, 
  "היכולת": 1014, 
  "תוכלו": 1015, 
  "רד": 1016, 
  "הני@@": 1017, 
  "מסוגלים": 1018, 
  "לעזור": 1019, 
  "בטוח": 1020, 
  "הדו@@": 1021, 
  "בעוד": 1022, 
  "השנה": 1023, 
  "לפחות": 1024, 
  "ושוב": 1025, 
  "צת": 1026, 
  "דרכים": 1027, 
  "תע@@": 1028, 
  "קרי@@": 1029, 
  "נתונים": 1030, 
  "סת": 1031, 
  "אינם": 1032, 
  "פר": 1033, 
  "אליו": 1034, 
  "בקו@@": 1035, 
  "ועל": 1036, 
  "ון": 1037, 
  "השת@@": 1038, 
  "מבו@@": 1039, 
  "ממנו": 1040, 
  "ית@@": 1041, 
  "קרים": 1042, 
  "עולם": 1043, 
  "שהן": 1044, 
  "קשר": 1045, 
  "שבי@@": 1046, 
  "ביי@@": 1047, 
  "מדינות": 1048, 
  "לחיות": 1049, 
  "גנ@@": 1050, 
  "בכדי": 1051, 
  "בחיים": 1052, 
  "איננו": 1053, 
  "המערכת": 1054, 
  "רך": 1055, 
  "למי@@": 1056, 
  "גל": 1057, 
  "ית": 1058, 
  "שמה": 1059, 
  "למען": 1060, 
  "דית": 1061, 
  "לז@@": 1062, 
  "לשי@@": 1063, 
  "רום": 1064, 
  "זים": 1065, 
  "בעל": 1066, 
  "שב": 1067, 
  "גת": 1068, 
  "מערכות": 1069, 
  "פית": 1070, 
  "פעולה": 1071, 
  "40": 1072, 
  "אמא": 1073, 
  "שעו@@": 1074, 
  "התח@@": 1075, 
  "הרי@@": 1076, 
  "מנסה": 1077, 
  "את@@": 1078, 
  "יכולות": 1079, 
  "איי@@": 1080, 
  "יודעת": 1081, 
  "ישנם": 1082, 
  "התו@@": 1083, 
  "ערך": 1084, 
  "סיפורים": 1085, 
  "ועוד": 1086, 
  "רע": 1087, 
  "ולה": 1088, 
  "בהן": 1089, 
  "ההו@@": 1090, 
  "המדינה": 1091, 
  "מאמין": 1092, 
  "פיים": 1093, 
  "ולי": 1094, 
  "מם": 1095, 
  "רשת": 1096, 
  "מנו": 1097, 
  "עשיתי": 1098, 
  "השמש": 1099, 
  "פיות": 1100, 
  "הלאה": 1101, 
  "אלפי": 1102, 
  "כמות": 1103, 
  "הפך": 1104, 
  "קוד": 1105, 
  "סו": 1106, 
  "לדעתי": 1107, 
  "לפעמים": 1108, 
  "תראו": 1109, 
  "אינ@@": 1110, 
  "החלק": 1111, 
  "סט": 1112, 
  "החוצה": 1113, 
  "טת": 1114, 
  "ראו": 1115, 
  "חברה": 1116, 
  "לייצר": 1117, 
  "הגדולה": 1118, 
  "the": 1119, 
  "ער": 1120, 
  "מכירים": 1121, 
  "זור": 1122, 
  "העתיד": 1123, 
  "שמים": 1124, 
  "בעיקר": 1125, 
  "לעבור": 1126, 
  "ההת@@": 1127, 
  "שלי@@": 1128, 
  "לם": 1129, 
  "לקרוא": 1130, 
  "עי": 1131, 
  "הכי@@": 1132, 
  "זקוקים": 1133, 
  "להביא": 1134, 
  "סרטן": 1135, 
  "ארבע": 1136, 
  "technology": 1137, 
  "ואתה": 1138, 
  "למטה": 1139, 
  "חנו": 1140, 
  "האנושי": 1141, 
  "מטר": 1142, 
  "חזרה": 1143, 
  "בלו@@": 1144, 
  "חמש": 1145, 
  "שאלות": 1146, 
  "קול@@": 1147, 
  "8": 1148, 
  "חוק": 1149, 
  "ברות": 1150, 
  "עצ@@": 1151, 
  "גר": 1152, 
  "1": 1153, 
  "זרים": 1154, 
  "הגוף": 1155, 
  "פור": 1156, 
  "ארה": 1157, 
  "חולים": 1158, 
  "הטבע": 1159, 
  "מור": 1160, 
  "כ-@@": 1161, 
  "נכ@@": 1162, 
  "רנו": 1163, 
  "כשאני": 1164, 
  "יוצר": 1165, 
  "שפ@@": 1166, 
  "חיי@@": 1167, 
  "מסביב": 1168, 
  "כל-כך": 1169, 
  "ניי@@": 1170, 
  "יפה": 1171, 
  "עומדים": 1172, 
  "וו@@": 1173, 
  "מגיעים": 1174, 
  "ברגע": 1175, 
  "במהירות": 1176, 
  "מסתכלים": 1177, 
  "אלי@@": 1178, 
  "פע@@": 1179, 
  "על-ידי": 1180, 
  "פעמים": 1181, 
  "שיהיה": 1182, 
  "לתי": 1183, 
  "חיה": 1184, 
  "ועכשיו": 1185, 
  "קט": 1186, 
  "חומר": 1187, 
  "12": 1188, 
  "כר": 1189, 
  "עצמנו": 1190, 
  "קדימה": 1191, 
  "ספק": 1192, 
  "אמיתי": 1193, 
  "ביל": 1194, 
  "העי@@": 1195, 
  "פנים": 1196, 
  "בב@@": 1197, 
  "מאוחר": 1198, 
  "עולה": 1199, 
  "בסי@@": 1200, 
  "מכו@@": 1201, 
  "נצ@@": 1202, 
  "בסוף": 1203, 
  "סר": 1204, 
  "בריאות": 1205, 
  "אופ@@": 1206, 
  "כת@@": 1207, 
  "עניין": 1208, 
  "גורם": 1209, 
  "סין": 1210, 
  "העובדה": 1211, 
  "הופך": 1212, 
  "גברים": 1213, 
  "אלוהים": 1214, 
  "גבוהה": 1215, 
  "מחוץ": 1216, 
  "דע": 1217, 
  "תחת": 1218, 
  "מוח": 1219, 
  "הבה": 1220, 
  "לאחרונה": 1221, 
  "להסתכל": 1222, 
  "הפו@@": 1223, 
  "תהליך": 1224, 
  "במש@@": 1225, 
  "ההי@@": 1226, 
  "הגיע": 1227, 
  "הו": 1228, 
  "בנוגע": 1229, 
  "הנתונים": 1230, 
  "מושג": 1231, 
  "תיהם": 1232, 
  "לון": 1233, 
  "בעבר": 1234, 
  "הל@@": 1235, 
  "החל": 1236, 
  "ראיתי": 1237, 
  "הרי": 1238, 
  "למע@@": 1239, 
  "המס@@": 1240, 
  "ליים": 1241, 
  "ועד": 1242, 
  "זר@@": 1243, 
  "ספרים": 1244, 
  "צורה": 1245, 
  "נש@@": 1246, 
  "והנה": 1247, 
  "לשים": 1248, 
  "סיבה": 1249, 
  "העניין": 1250, 
  "האינטרנט": 1251, 
  "ליד": 1252, 
  "דוגמה": 1253, 
  "מבי@@": 1254, 
  "אינה": 1255, 
  "המקום": 1256, 
  "לשאול": 1257, 
  "המצ@@": 1258, 
  "צוות": 1259, 
  "ולו@@": 1260, 
  "שלם": 1261, 
  "קרוב": 1262, 
  "אצל": 1263, 
  "צב": 1264, 
  "התחלנו": 1265, 
  "הר": 1266, 
  "בצד": 1267, 
  "שהייתי": 1268, 
  "לצאת": 1269, 
  "אמריקה": 1270, 
  "הסביבה": 1271, 
  "הבו@@": 1272, 
  "וד@@": 1273, 
  "ולים": 1274, 
  "צורך": 1275, 
  "חצי": 1276, 
  "נט": 1277, 
  "לדמיין": 1278, 
  "בלי@@": 1279, 
  "נת@@": 1280, 
  "במח@@": 1281, 
  "יכולת": 1282, 
  "לגלות": 1283, 
  "בשנות": 1284, 
  "מוצ@@": 1285, 
  "למים": 1286, 
  "חברות": 1287, 
  "סיי@@": 1288, 
  "רח@@": 1289, 
  "שאולי": 1290, 
  "רחב": 1291, 
  "נושא": 1292, 
  "להו@@": 1293, 
  "בעת": 1294, 
  "מקווה": 1295, 
  "ניו": 1296, 
  "לקח": 1297, 
  "7": 1298, 
  "במה": 1299, 
  "לחזור": 1300, 
  "נקרא": 1301, 
  "קבוצה": 1302, 
  "נפלא": 1303, 
  "בארה": 1304, 
  "מוצאים": 1305, 
  "בחזרה": 1306, 
  "הברית": 1307, 
  "חזק": 1308, 
  "אילו": 1309, 
  "יוצא": 1310, 
  "שלהן": 1311, 
  "חד": 1312, 
  "שית": 1313, 
  "יוכלו": 1314, 
  "כולל": 1315, 
  "המחקר": 1316, 
  "ליי@@": 1317, 
  "בהרבה": 1318, 
  "תיו": 1319, 
  "בסופו": 1320, 
  "רח": 1321, 
  "ומו@@": 1322, 
  "ישנה": 1323, 
  "אל@@": 1324, 
  "טרי@@": 1325, 
  "ראשית": 1326, 
  "חשבו": 1327, 
  "כתב": 1328, 
  "לוקחים": 1329, 
  "סבי@@": 1330, 
  "אישה": 1331, 
  "ביות": 1332, 
  "ואולי": 1333, 
  "הלב": 1334, 
  "זם": 1335, 
  "ערים": 1336, 
  "היקום": 1337, 
  "60": 1338, 
  "שקו@@": 1339, 
  "שווה": 1340, 
  "הכסף": 1341, 
  "יכולתי": 1342, 
  "קום": 1343, 
  "במע@@": 1344, 
  "אית": 1345, 
  "גי": 1346, 
  "היי@@": 1347, 
  "מכך": 1348, 
  "נותן": 1349, 
  "להתמודד": 1350, 
  "מצא": 1351, 
  "מסוים": 1352, 
  "חוץ": 1353, 
  "מחלות": 1354, 
  "מלא": 1355, 
  "צו": 1356, 
  "הודו": 1357, 
  "חוסר": 1358, 
  "אופן": 1359, 
  "הקי@@": 1360, 
  "רגל": 1361, 
  "בתחום": 1362, 
  "שש": 1363, 
  "2@@": 1364, 
  "מאמינים": 1365, 
  "אכן": 1366, 
  "ברי": 1367, 
  "מזון": 1368, 
  "25": 1369, 
  "אג@@": 1370, 
  "קיי@@": 1371, 
  "שליטה": 1372, 
  "קול": 1373, 
  "נא@@": 1374, 
  "מצב": 1375, 
  "הביתה": 1376, 
  "לבית": 1377, 
  "והן": 1378, 
  "הבריאות": 1379, 
  "לדוגמה": 1380, 
  "חבר": 1381, 
  "פון": 1382, 
  "שנוכל": 1383, 
  "חתי": 1384, 
  "ראש": 1385, 
  "אבי": 1386, 
  "הפס@@": 1387, 
  "בפי@@": 1388, 
  "מני@@": 1389, 
  "פן": 1390, 
  "כפ@@": 1391, 
  "הבאה": 1392, 
  "אי-@@": 1393, 
  "ולות": 1394, 
  "השראה": 1395, 
  "השניה": 1396, 
  "מפו@@": 1397, 
  "האחרונה": 1398, 
  "וכמובן": 1399, 
  "צי": 1400, 
  "science": 1401, 
  "אמנות": 1402, 
  "דל": 1403, 
  "תינו": 1404, 
  "בלבד": 1405, 
  "קרובות": 1406, 
  "כלים": 1407, 
  "מקומות": 1408, 
  "משתמש": 1409, 
  "איתם": 1410, 
  "לקו@@": 1411, 
  "באפריקה": 1412, 
  "כזו": 1413, 
  "מוס@@": 1414, 
  "אנשי": 1415, 
  "דוגמאות": 1416, 
  "ווי@@": 1417, 
  "ולמעשה": 1418, 
  "משמעות": 1419, 
  "קח": 1420, 
  "קד@@": 1421, 
  "קור@@": 1422, 
  "ארבעה": 1423, 
  "כרגע": 1424, 
  "culture": 1425, 
  "המחשב": 1426, 
  "יוו@@": 1427, 
  "שקרה": 1428, 
  "תות": 1429, 
  "שלו@@": 1430, 
  "עשינו": 1431, 
  "בעים": 1432, 
  "פול@@": 1433, 
  "במוח": 1434, 
  "מהת@@": 1435, 
  "שנו": 1436, 
  "רור": 1437, 
  "הבנתי": 1438, 
  "בנים": 1439, 
  "כשהם": 1440, 
  "דיו": 1441, 
  "מהן": 1442, 
  "מצו@@": 1443, 
  "גבוה": 1444, 
  "ברחבי": 1445, 
  "חם": 1446, 
  "אמת": 1447, 
  "שפה": 1448, 
  "להמשיך": 1449, 
  "יח@@": 1450, 
  "היחידה": 1451, 
  "חס@@": 1452, 
  "שצריך": 1453, 
  "הבית": 1454, 
  "הול@@": 1455, 
  "היחיד": 1456, 
  "בהחלט": 1457, 
  "9": 1458, 
  "רוח": 1459, 
  "כוכב": 1460, 
  "יקרה": 1461, 
  "המאה": 1462, 
  "טן": 1463, 
  "מדו@@": 1464, 
  "קן": 1465, 
  "מרגיש": 1466, 
  "שניים": 1467, 
  "נוספת": 1468, 
  "להפ@@": 1469, 
  "מק": 1470, 
  "בנו@@": 1471, 
  "ולם": 1472, 
  "ממו@@": 1473, 
  "הטי@@": 1474, 
  "להן": 1475, 
  "80": 1476, 
  "בל@@": 1477, 
  "רכה": 1478, 
  "בחדר": 1479, 
  "ברשת": 1480, 
  "global": 1481, 
  "כלום": 1482, 
  "סטי@@": 1483, 
  "עשוי": 1484, 
  "טיפול": 1485, 
  "שאר": 1486, 
  "תאי": 1487, 
  "לנד": 1488, 
  "המסו@@": 1489, 
  "ברה": 1490, 
  "חר@@": 1491, 
  "הלו@@": 1492, 
  "ואפילו": 1493, 
  "בני@@": 1494, 
  "התי@@": 1495, 
  "דמיינו": 1496, 
  "התע@@": 1497, 
  "מבחינה": 1498, 
  "זון": 1499, 
  "בור": 1500, 
  "שלום": 1501, 
  "גור@@": 1502, 
  "האנ@@": 1503, 
  "דיו@@": 1504, 
  "שט@@": 1505, 
  "וק@@": 1506, 
  "שבאמת": 1507, 
  "לוקח": 1508, 
  "והפ@@": 1509, 
  "נר@@": 1510, 
  "שרים": 1511, 
  "a": 1512, 
  "תור": 1513, 
  "לפתור": 1514, 
  "שיי@@": 1515, 
  "דתי": 1516, 
  "מס": 1517, 
  "מקבל": 1518, 
  "פש@@": 1519, 
  "ציות": 1520, 
  "שור": 1521, 
  "תאים": 1522, 
  "שמע@@": 1523, 
  "הבחור": 1524, 
  "עץ": 1525, 
  "האנרגיה": 1526, 
  "סית": 1527, 
  "גנים": 1528, 
  "בשנת": 1529, 
  "גע": 1530, 
  "איות": 1531, 
  "גדל": 1532, 
  "עצמה": 1533, 
  "שבו@@": 1534, 
  "טובות": 1535, 
  "ב-": 1536, 
  "רן": 1537, 
  "שנתיים": 1538, 
  "התשובה": 1539, 
  "כרי@@": 1540, 
  "קיימת": 1541, 
  "חל@@": 1542, 
  "מבט": 1543, 
  "אצ@@": 1544, 
  "הנקודה": 1545, 
  "חיל": 1546, 
  "תיי@@": 1547, 
  "קס@@": 1548, 
  "חשמל": 1549, 
  "דנו": 1550, 
  "אגב": 1551, 
  "הקטן": 1552, 
  "גרם": 1553, 
  "שרי@@": 1554, 
  "ועם": 1555, 
  "מיה": 1556, 
  "שמש@@": 1557, 
  "לקרות": 1558, 
  "איתו": 1559, 
  "קור": 1560, 
  "מדינה": 1561, 
  "ולת": 1562, 
  "בחי@@": 1563, 
  "issues": 1564, 
  "הלכתי": 1565, 
  "בנה": 1566, 
  "עבר": 1567, 
  "הזדמנות": 1568, 
  "18": 1569, 
  "מרים": 1570, 
  "סתם": 1571, 
  "להע@@": 1572, 
  "מורה": 1573, 
  "סטו@@": 1574, 
  "ביים": 1575, 
  "וחצי": 1576, 
  "ביו@@": 1577, 
  "תוכנית": 1578, 
  "הנשים": 1579, 
  "ידע": 1580, 
  "בשבילי": 1581, 
  "החלל": 1582, 
  "שחו@@": 1583, 
  "ושי@@": 1584, 
  "כלשהו": 1585, 
  "פול": 1586, 
  "הכוח": 1587, 
  "design": 1588, 
  "שני@@": 1589, 
  "היטב": 1590, 
  "הגדולים": 1591, 
  "פיי@@": 1592, 
  "מבין": 1593, 
  "כשמ@@": 1594, 
  "לומדים": 1595, 
  "יר@@": 1596, 
  "לחי@@": 1597, 
  "האנושית": 1598, 
  "סף": 1599, 
  "גדולות": 1600, 
  "טנ@@": 1601, 
  "בנושא": 1602, 
  "בפני": 1603, 
  "פיה": 1604, 
  "עלה": 1605, 
  "אור@@": 1606, 
  "מחשבים": 1607, 
  "מקרה": 1608, 
  "משי@@": 1609, 
  "תת": 1610, 
  "ארו@@": 1611, 
  "בלה": 1612, 
  "11": 1613, 
  "בתו@@": 1614, 
  "כון": 1615, 
  "לעצמי": 1616, 
  "אודות": 1617, 
  "בפעם": 1618, 
  "פלי@@": 1619, 
  "בגיל": 1620, 
  "עתי@@": 1621, 
  "החדש": 1622, 
  "מבנה": 1623, 
  "למדי": 1624, 
  "ובכל": 1625, 
  "מגי@@": 1626, 
  "טרו@@": 1627, 
  "ורק": 1628, 
  "אבא": 1629, 
  "תת@@": 1630, 
  "מזל": 1631, 
  "ענ@@": 1632, 
  "תוצאות": 1633, 
  "וידאו": 1634, 
  "הנושא": 1635, 
  "ואיך": 1636, 
  "באמצע": 1637, 
  "וכאשר": 1638, 
  "מרגישים": 1639, 
  "חברים": 1640, 
  "הולכת": 1641, 
  "בקשר": 1642, 
  "הטוב": 1643, 
  "סביר": 1644, 
  "בש": 1645, 
  "כו": 1646, 
  "רצה": 1647, 
  "חול@@": 1648, 
  "והא@@": 1649, 
  "טיקה": 1650, 
  "גיה": 1651, 
  "גיל": 1652, 
  "בבקשה": 1653, 
  "ר-@@": 1654, 
  "שיים": 1655, 
  "מסי@@": 1656, 
  "קרן": 1657, 
  "השל@@": 1658, 
  "שניות": 1659, 
  "לקנות": 1660, 
  "קיימים": 1661, 
  "פל@@": 1662, 
  "צעירים": 1663, 
  "המט@@": 1664, 
  "כשהוא": 1665, 
  "למות": 1666, 
  "לכתוב": 1667, 
  "מצד": 1668, 
  "צורות": 1669, 
  "ארד": 1670, 
  "חלו@@": 1671, 
  "ואי@@": 1672, 
  "חשב": 1673, 
  "במצב": 1674, 
  "חד@@": 1675, 
  "מהו": 1676, 
  "זי": 1677, 
  "פשוטה": 1678, 
  "שהיתה": 1679, 
  "1@@": 1680, 
  "בהי@@": 1681, 
  "האמיתי": 1682, 
  "גודל": 1683, 
  "תכם": 1684, 
  "3@@": 1685, 
  "בונים": 1686, 
  "לעיתים": 1687, 
  "מודל": 1688, 
  "הרשת": 1689, 
  "נייר": 1690, 
  "לדוגמא": 1691, 
  "מבחינת": 1692, 
  "רע@@": 1693, 
  "כונות": 1694, 
  "חומרים": 1695, 
  "הראשונים": 1696, 
  "בעתיד": 1697, 
  "קנ@@": 1698, 
  "דומים": 1699, 
  "להעביר": 1700, 
  "חינוך": 1701, 
  "בוד@@": 1702, 
  "נון": 1703, 
  "נהדר": 1704, 
  "סיבות": 1705, 
  "מדע": 1706, 
  "לשמור": 1707, 
  "התחיל": 1708, 
  "להציג": 1709, 
  "בוא": 1710, 
  "עיר": 1711, 
  "תכ@@": 1712, 
  "מילים": 1713, 
  "בחוץ": 1714, 
  "דיים": 1715, 
  "וכן": 1716, 
  "דש": 1717, 
  "פתח": 1718, 
  "יורק": 1719, 
  "למקום": 1720, 
  "לפי@@": 1721, 
  "הילד": 1722, 
  "תנועה": 1723, 
  "עבורי": 1724, 
  "מטו@@": 1725, 
  "ובי@@": 1726, 
  "כמו@@": 1727, 
  "ומש@@": 1728, 
  "מזו@@": 1729, 
  "ביר": 1730, 
  "קטנות": 1731, 
  "נוספים": 1732, 
  "עור": 1733, 
  "on": 1734, 
  "מאה": 1735, 
  "קתי": 1736, 
  "לשחק": 1737, 
  "טכנולוגיות": 1738, 
  "פס@@": 1739, 
  "לבי@@": 1740, 
  "דיות": 1741, 
  "נכנס": 1742, 
  "סול@@": 1743, 
  "נשמע": 1744, 
  "גלו@@": 1745, 
  "גוף": 1746, 
  "פני@@": 1747, 
  "מידי": 1748, 
  "לט": 1749, 
  "מסוגל": 1750, 
  "אמן": 1751, 
  "שעשיתי": 1752, 
  "להרגיש": 1753, 
  "השטח": 1754, 
  "הה": 1755, 
  "מוזר": 1756, 
  "תצ@@": 1757, 
  "שיר": 1758, 
  "הרעיונות": 1759, 
  "במקומות": 1760, 
  "ניסוי": 1761, 
  "רף": 1762, 
  "אלית": 1763, 
  "ולק@@": 1764, 
  "ראינו": 1765, 
  "חית": 1766, 
  "מנים": 1767, 
  "דון": 1768, 
  "בנות": 1769, 
  "מוט@@": 1770, 
  "מאחורי": 1771, 
  "מסויים": 1772, 
  "לא-@@": 1773, 
  "הבעיות": 1774, 
  "השפעה": 1775, 
  "תך": 1776, 
  "והו@@": 1777, 
  "המשחק": 1778, 
  "גרוע": 1779, 
  "קבוצות": 1780, 
  "החולים": 1781, 
  "מגו@@": 1782, 
  "יע@@": 1783, 
  "מהא@@": 1784, 
  "ידעתי": 1785, 
  "יוני": 1786, 
  "דיה": 1787, 
  "חלקים": 1788, 
  "200": 1789, 
  "נותנים": 1790, 
  "הופכים": 1791, 
  "כריס": 1792, 
  "מינים": 1793, 
  "לאן": 1794, 
  "כשהייתי": 1795, 
  "אלף": 1796, 
  "דוגמא": 1797, 
  "כונה": 1798, 
  "חברת": 1799, 
  "בעלות": 1800, 
  "תרופות": 1801, 
  "לשמוע": 1802, 
  "תחשבו": 1803, 
  "יר": 1804, 
  "סוגים": 1805, 
  "יש@@": 1806, 
  "שמח": 1807, 
  "רפ@@": 1808, 
  "המצב": 1809, 
  "כשאתם": 1810, 
  "ולוגיה": 1811, 
  "המדע": 1812, 
  "נורא": 1813, 
  "6@@": 1814, 
  "בכי@@": 1815, 
  "שמו": 1816, 
  "כא@@": 1817, 
  "גורמים": 1818, 
  "אליהם": 1819, 
  "איים": 1820, 
  "חברתית": 1821, 
  "להסביר": 1822, 
  "צור": 1823, 
  "בלים": 1824, 
  "רכי@@": 1825, 
  "מעלה": 1826, 
  "נן": 1827, 
  "ה-": 1828, 
  "המשמעות": 1829, 
  "קרו": 1830, 
  "שעשינו": 1831, 
  "לדי@@": 1832, 
  "אחורה": 1833, 
  "מבלי": 1834, 
  "הרגע": 1835, 
  "מיליוני": 1836, 
  "מוכנים": 1837, 
  "אתן": 1838, 
  "ולח@@": 1839, 
  "היית": 1840, 
  "חשובה": 1841, 
  "שכאשר": 1842, 
  "נראים": 1843, 
  "והייתי": 1844, 
  "שלב": 1845, 
  "טיי@@": 1846, 
  "כנות": 1847, 
  "ריי@@": 1848, 
  "שינה": 1849, 
  "חייה": 1850, 
  "יתר": 1851, 
  "בגודל": 1852, 
  "פועל": 1853, 
  "מתח@@": 1854, 
  "שינויים": 1855, 
  "למש@@": 1856, 
  "יצ@@": 1857, 
  "בעיר": 1858, 
  "החדשות": 1859, 
  "היד": 1860, 
  "שבועות": 1861, 
  "החומר": 1862, 
  "סר@@": 1863, 
  "במערכת": 1864, 
  "שבהם": 1865, 
  "אט@@": 1866, 
  "התר@@": 1867, 
  "סק": 1868, 
  "קיבלתי": 1869, 
  "והע@@": 1870, 
  "משחקים": 1871, 
  "קנה": 1872, 
  "מתק@@": 1873, 
  "וכו": 1874, 
  "לילה": 1875, 
  "המדינות": 1876, 
  "לכאן": 1877, 
  "עסקים": 1878, 
  "ברצוני": 1879, 
  "70": 1880, 
  "האור": 1881, 
  "פרוייקט": 1882, 
  "בול": 1883, 
  "בעה": 1884, 
  "גיות": 1885, 
  "חייהם": 1886, 
  "עס@@": 1887, 
  "ראות": 1888, 
  "סרט": 1889, 
  "אתי": 1890, 
  "רגיל": 1891, 
  "אהבה": 1892, 
  "זות": 1893, 
  "החלטתי": 1894, 
  "איתי": 1895, 
  "צבע": 1896, 
  "לראשונה": 1897, 
  "מדי@@": 1898, 
  "לעומת": 1899, 
  "הספ@@": 1900, 
  "יכלו": 1901, 
  "18@@": 1902, 
  "למשהו": 1903, 
  "בוע": 1904, 
  "מהי@@": 1905, 
  "חק": 1906, 
  "המשפחה": 1907, 
  "גידול": 1908, 
  "מדהימה": 1909, 
  "שבע": 1910, 
  "קרו@@": 1911, 
  "מטרים": 1912, 
  "קורא": 1913, 
  "תחושה": 1914, 
  "לחץ": 1915, 
  "מתים": 1916, 
  "עוברים": 1917, 
  "עצום": 1918, 
  "בשלב": 1919, 
  "במרכז": 1920, 
  "ישנו": 1921, 
  "הפכה": 1922, 
  "שאל": 1923, 
  "מל@@": 1924, 
  "מעין": 1925, 
  "בטח": 1926, 
  "אק@@": 1927, 
  "ברמה": 1928, 
  "פוס": 1929, 
  "תרבות": 1930, 
  "שיכול": 1931, 
  "הגיעו": 1932, 
  "אב": 1933, 
  "קצר": 1934, 
  "לחקור": 1935, 
  "המק@@": 1936, 
  "טום": 1937, 
  "פא@@": 1938, 
  "התקשורת": 1939, 
  "הפכו": 1940, 
  "המילה": 1941, 
  "זן": 1942, 
  "ענק": 1943, 
  "DNA": 1944, 
  "ריך": 1945, 
  "ואין": 1946, 
  "ם--": 1947, 
  "מונה": 1948, 
  "הגר@@": 1949, 
  "מצאו": 1950, 
  "נקודה": 1951, 
  "וזהו": 1952, 
  "7@@": 1953, 
  "נהיה": 1954, 
  "ארגון": 1955, 
  "דף": 1956, 
  "התחילו": 1957, 
  "ראשון": 1958, 
  "התהליך": 1959, 
  "להס@@": 1960, 
  "ארוך": 1961, 
  "טרה": 1962, 
  "רם": 1963, 
  "במאה": 1964, 
  "סוגי": 1965, 
  "דופן": 1966, 
  "לבחור": 1967, 
  "שגם": 1968, 
  "הלי@@": 1969, 
  "המקו@@": 1970, 
  "ולבסוף": 1971, 
  "נתן": 1972, 
  "הגו@@": 1973, 
  "מוע@@": 1974, 
  "במובן": 1975, 
  "אפס": 1976, 
  "אמי@@": 1977, 
  "קף": 1978, 
  "רכים": 1979, 
  "בהת@@": 1980, 
  "כולו": 1981, 
  "המוס@@": 1982, 
  "אוהבת": 1983, 
  "לווי@@": 1984, 
  "בהודו": 1985, 
  "לעמוד": 1986, 
  "רמת": 1987, 
  "רט": 1988, 
  "תק": 1989, 
  "מרכז": 1990, 
  "התנהגות": 1991, 
  "מדים": 1992, 
  "נקודת": 1993, 
  "עצים": 1994, 
  "האר@@": 1995, 
  "מוקדם": 1996, 
  "במידה": 1997, 
  "חור": 1998, 
  "קית": 1999, 
  "ודאי": 2000, 
  "טבע": 2001, 
  "חיינו": 2002, 
  "שיות": 2003, 
  "הנכון": 2004, 
  "אנה": 2005, 
  "90": 2006, 
  "עשויים": 2007, 
  "גיליתי": 2008, 
  "דמה": 2009, 
  "קנים": 2010, 
  "לבין": 2011, 
  "שאלו": 2012, 
  "שימה": 2013, 
  "הגדולות": 2014, 
  "פיל": 2015, 
  "לילדים": 2016, 
  "זית": 2017, 
  "רגשות": 2018, 
  "שאלתי": 2019, 
  "בחור": 2020, 
  "פתוח": 2021, 
  "אראה": 2022, 
  "גרי@@": 2023, 
  "חייבת": 2024, 
  "ו-@@": 2025, 
  "וכאן": 2026, 
  "הסרט": 2027, 
  "בלת": 2028, 
  "המזון": 2029, 
  "לול": 2030, 
  "מתי@@": 2031, 
  "שמש": 2032, 
  "המטרה": 2033, 
  "לפתח": 2034, 
  "ענו": 2035, 
  "תס@@": 2036, 
  "בטו@@": 2037, 
  "למי": 2038, 
  "שאי": 2039, 
  "ליה": 2040, 
  "שן": 2041, 
  "טבעי": 2042, 
  "והי@@": 2043, 
  "הרג@@": 2044, 
  "נושאים": 2045, 
  "אומ@@": 2046, 
  "שכולנו": 2047, 
  "מוצרים": 2048, 
  "פס": 2049, 
  "שמע": 2050, 
  "הכלכלה": 2051, 
  "לצפות": 2052, 
  "בדי@@": 2053, 
  "התיכון": 2054, 
  "נק": 2055, 
  "שואלים": 2056, 
  "גיע": 2057, 
  "נקודות": 2058, 
  "לכולם": 2059, 
  "וחו@@": 2060, 
  "גרים": 2061, 
  "רחבי": 2062, 
  "עובדת": 2063, 
  "לבוא": 2064, 
  "באים": 2065, 
  "לספק": 2066, 
  "מתע@@": 2067, 
  "מונ@@": 2068, 
  "סא": 2069, 
  "שעברה": 2070, 
  "מול@@": 2071, 
  "קבוצת": 2072, 
  "הקהילה": 2073, 
  "ספי@@": 2074, 
  "האדמה": 2075, 
  "יונות": 2076, 
  "קאי": 2077, 
  "נייה": 2078, 
  "הגענו": 2079, 
  "אפשרות": 2080, 
  "יוכל": 2081, 
  "רחוק": 2082, 
  "צפו@@": 2083, 
  "נור@@": 2084, 
  "500": 2085, 
  "ראים": 2086, 
  "אושר": 2087, 
  "גול@@": 2088, 
  "סיים": 2089, 
  "למדתי": 2090, 
  "קשור": 2091, 
  "וס@@": 2092, 
  "לחיים": 2093, 
  "צעיר": 2094, 
  "באר@@": 2095, 
  "שעלינו": 2096, 
  "רוק": 2097, 
  "מסתבר": 2098, 
  "עמוק": 2099, 
  "ועדיין": 2100, 
  "פעילות": 2101, 
  "קטים": 2102, 
  "להיכנס": 2103, 
  "שלמעשה": 2104, 
  "מוצא": 2105, 
  "נמצאת": 2106, 
  "והש@@": 2107, 
  "מספרים": 2108, 
  "לתו@@": 2109, 
  "ממני": 2110, 
  "19@@": 2111, 
  "האחרים": 2112, 
  "ואנשים": 2113, 
  "5@@": 2114, 
  "להר@@": 2115, 
  "איזו": 2116, 
  "ציי@@": 2117, 
  "ארי@@": 2118, 
  "מובן": 2119, 
  "משפחה": 2120, 
  "בארצות": 2121, 
  "השלישי": 2122, 
  "נינו": 2123, 
  "נויות": 2124, 
  "בסו@@": 2125, 
  "והח@@": 2126, 
  "גד@@": 2127, 
  "הפעם": 2128, 
  "טור": 2129, 
  "בוב": 2130, 
  "הטובים": 2131, 
  "רכב": 2132, 
  "דולרים": 2133, 
  "ידי@@": 2134, 
  "מצאתי": 2135, 
  "אתגר": 2136, 
  "תג@@": 2137, 
  "מעצ@@": 2138, 
  "ואחד": 2139, 
  "לעצור": 2140, 
  "אמור": 2141, 
  "פג@@": 2142, 
  "כל@@": 2143, 
  "להוציא": 2144, 
  "הרוח": 2145, 
  "הממשלה": 2146, 
  "עתי": 2147, 
  "באזור": 2148, 
  "סנ@@": 2149, 
  "ניתוח": 2150, 
  "מהי": 2151, 
  "בכמה": 2152, 
  "יור": 2153, 
  "זוכר": 2154, 
  "תקופה": 2155, 
  "שמונה": 2156, 
  "העצ@@": 2157, 
  "לחפש": 2158, 
  "דלק": 2159, 
  "אישית": 2160, 
  "וצ@@": 2161, 
  "ומח@@": 2162, 
  "לס": 2163, 
  "וכעת": 2164, 
  "אנג": 2165, 
  "אתר": 2166, 
  "חשובים": 2167, 
  "תסתכלו": 2168, 
  "הבניין": 2169, 
  "בסיס": 2170, 
  "מלו@@": 2171, 
  "מכוניות": 2172, 
  "נסי@@": 2173, 
  "שתי@@": 2174, 
  "לטפל": 2175, 
  "נז@@": 2176, 
  "שכולם": 2177, 
  "והדבר": 2178, 
  "לבן": 2179, 
  "הקהל": 2180, 
  "16": 2181, 
  "הנפט": 2182, 
  "בבוקר": 2183, 
  "ההיסטוריה": 2184, 
  "מהיר": 2185, 
  "מל": 2186, 
  "כשאנחנו": 2187, 
  "התג@@": 2188, 
  "חמישה": 2189, 
  "הגעתי": 2190, 
  "מרי@@": 2191, 
  "4@@": 2192, 
  "והיה": 2193, 
  "מסוג": 2194, 
  "בנוסף": 2195, 
  "למשך": 2196, 
  "תקשורת": 2197, 
  "לאכול": 2198, 
  "פחמן": 2199, 
  "לכת": 2200, 
  "הקר@@": 2201, 
  "שנראה": 2202, 
  "זוג": 2203, 
  "כוחות": 2204, 
  "אינטרנט": 2205, 
  "ואמרתי": 2206, 
  "of": 2207, 
  "הראש": 2208, 
  "נם": 2209, 
  "להשת@@": 2210, 
  "קונ@@": 2211, 
  "שוק": 2212, 
  "ראי": 2213, 
  "בחיי": 2214, 
  "תקווה": 2215, 
  "כשאתה": 2216, 
  "העיצוב": 2217, 
  "בדרכים": 2218, 
  "האקלים": 2219, 
  "יצא": 2220, 
  "מהו@@": 2221, 
  "כול@@": 2222, 
  "והב@@": 2223, 
  "ואמר": 2224, 
  "מילה": 2225, 
  "לאי": 2226, 
  "יפ@@": 2227, 
  "עשרות": 2228, 
  "שרה": 2229, 
  "העולמי": 2230, 
  "רגש": 2231, 
  "שצ@@": 2232, 
  "14": 2233, 
  "לשני": 2234, 
  "ש-@@": 2235, 
  "וחשבתי": 2236, 
  "רס": 2237, 
  "לכיוון": 2238, 
  "רוץ": 2239, 
  "מהפ@@": 2240, 
  "שוו@@": 2241, 
  "תוכנה": 2242, 
  "שלמה": 2243, 
  "רובוטים": 2244, 
  "השימוש": 2245, 
  "עצומה": 2246, 
  "ארצות": 2247, 
  "חייו": 2248, 
  "החדשה": 2249, 
  "היי": 2250, 
  "מאחר": 2251, 
  "עסק": 2252, 
  "ריקה": 2253, 
  "תא": 2254, 
  "פתרון": 2255, 
  "דרו@@": 2256, 
  "לעתים": 2257, 
  "לבדוק": 2258, 
  "מוק@@": 2259, 
  "החלטות": 2260, 
  "עתה": 2261, 
  "פנימה": 2262, 
  "רג": 2263, 
  "זכויות": 2264, 
  "טין": 2265, 
  "כח": 2266, 
  "מליון": 2267, 
  "לחלק": 2268, 
  "מסוימת": 2269, 
  "צרים": 2270, 
  "דיי@@": 2271, 
  "הפרו@@": 2272, 
  "סל": 2273, 
  "חסר": 2274, 
  "ניסויים": 2275, 
  "יוצ@@": 2276, 
  "בבי@@": 2277, 
  "אז@@": 2278, 
  "עק@@": 2279, 
  "הרה": 2280, 
  "לעו@@": 2281, 
  "כור": 2282, 
  "משך": 2283, 
  "נתנו": 2284, 
  "משתנה": 2285, 
  "הרים": 2286, 
  "המד@@": 2287, 
  "התאים": 2288, 
  "סן": 2289, 
  "ללמד": 2290, 
  "הירות": 2291, 
  "בצי@@": 2292, 
  "תאו@@": 2293, 
  "כנה": 2294, 
  "גור": 2295, 
  "קלי": 2296, 
  "הצורה": 2297, 
  "הקשר": 2298, 
  "גית": 2299, 
  "חול": 2300, 
  "התמונות": 2301, 
  "סיכוי": 2302, 
  "רצו": 2303, 
  "טב": 2304, 
  "נראית": 2305, 
  "לפעול": 2306, 
  "בונה": 2307, 
  "לזהות": 2308, 
  "חוקים": 2309, 
  "המוות": 2310, 
  "וכמה": 2311, 
  "פט@@": 2312, 
  "בעבודה": 2313, 
  "זיות": 2314, 
  "השינוי": 2315, 
  "A@@": 2316, 
  "הקרקע": 2317, 
  "מאפשר": 2318, 
  "דוד": 2319, 
  "מהאנשים": 2320, 
  "מפי@@": 2321, 
  "הבאות": 2322, 
  "שיהיו": 2323, 
  "שהא@@": 2324, 
  "להכניס": 2325, 
  "מך": 2326, 
  "רכי": 2327, 
  "להצ@@": 2328, 
  "פש": 2329, 
  "יוצאים": 2330, 
  "מני": 2331, 
  "ישר": 2332, 
  "צורת": 2333, 
  "מכנים": 2334, 
  "בסביבה": 2335, 
  "עומדת": 2336, 
  "להש@@": 2337, 
  "הות": 2338, 
  "כאלו": 2339, 
  "הגיוני": 2340, 
  "דין": 2341, 
  "חזקה": 2342, 
  "גלים": 2343, 
  "יו-@@": 2344, 
  "דד": 2345, 
  "בעיקרון": 2346, 
  "business": 2347, 
  "אינני": 2348, 
  "הצלחנו": 2349, 
  "לל": 2350, 
  "בהיסטוריה": 2351, 
  "מיקרו@@": 2352, 
  "סיק": 2353, 
  "הפרוייקט": 2354, 
  "הקטנים": 2355, 
  "entertainment": 2356, 
  "ביה": 2357, 
  "עיל": 2358, 
  "רכו": 2359, 
  "שעה": 2360, 
  "שאף": 2361, 
  "שכבר": 2362, 
  "חדר": 2363, 
  "קע": 2364, 
  "אמיתית": 2365, 
  "סמים": 2366, 
  "זורים": 2367, 
  "מלחמה": 2368, 
  "סיה": 2369, 
  "שהח@@": 2370, 
  "יונים": 2371, 
  "כוכבים": 2372, 
  "מורים": 2373, 
  "כלפי": 2374, 
  "בוד": 2375, 
  "במדינה": 2376, 
  "מלים": 2377, 
  "תרצו": 2378, 
  "בחלק": 2379, 
  "מציג": 2380, 
  "שהכ@@": 2381, 
  "למד": 2382, 
  "ההוא": 2383, 
  "שלושת": 2384, 
  "בהתחלה": 2385, 
  "מצאנו": 2386, 
  "יחסים": 2387, 
  "ריד": 2388, 
  "ילדה": 2389, 
  "בגי@@": 2390, 
  "הצו@@": 2391, 
  "ערות": 2392, 
  "מוד": 2393, 
  "בני-אדם": 2394, 
  "מיל@@": 2395, 
  "בורה": 2396, 
  "מונים": 2397, 
  "באמריקה": 2398, 
  "מכי@@": 2399, 
  "הסיפורים": 2400, 
  "ממנה": 2401, 
  "רופאים": 2402, 
  "נדי@@": 2403, 
  "והכ@@": 2404, 
  "החינוך": 2405, 
  "מסויימת": 2406, 
  "עליך": 2407, 
  "רצינו": 2408, 
  "הלא": 2409, 
  "מורכב": 2410, 
  "סום": 2411, 
  "בראש": 2412, 
  "עדים": 2413, 
  "האופ@@": 2414, 
  "החל@@": 2415, 
  "נכנסים": 2416, 
  "מיוחד": 2417, 
  "ניצ@@": 2418, 
  "נפט": 2419, 
  "עליכם": 2420, 
  "לצד": 2421, 
  "באינטרנט": 2422, 
  "קאים": 2423, 
  "גרפיה": 2424, 
  "שיבה": 2425, 
  "לק": 2426, 
  "שאמרתי": 2427, 
  "בלתי-@@": 2428, 
  "עובר": 2429, 
  "על-@@": 2430, 
  "שומעים": 2431, 
  "לעצמכם": 2432, 
  "שיתוף": 2433, 
  "מעולה": 2434, 
  "סרטים": 2435, 
  "נחמד": 2436, 
  "ניינים": 2437, 
  "והנ@@": 2438, 
  "לבחון": 2439, 
  "מפר@@": 2440, 
  "ניס@@": 2441, 
  "זוכרים": 2442, 
  "טל@@": 2443, 
  "ניהם": 2444, 
  "לד": 2445, 
  "שאת": 2446, 
  "שג": 2447, 
  "לסיים": 2448, 
  "זיקה": 2449, 
  "דרי@@": 2450, 
  "שרת": 2451, 
  "שאומר": 2452, 
  "מוד@@": 2453, 
  "הזדמנויות": 2454, 
  "חשבנו": 2455, 
  "שבים": 2456, 
  "המלחמה": 2457, 
  "התוצאות": 2458, 
  "טור@@": 2459, 
  "זול": 2460, 
  "אס@@": 2461, 
  "בעות": 2462, 
  "לן": 2463, 
  "8@@": 2464, 
  "עלי@@": 2465, 
  "בדים": 2466, 
  "ולאחר": 2467, 
  "עית": 2468, 
  "נתחיל": 2469, 
  "האוויר": 2470, 
  "דמות": 2471, 
  "אזור": 2472, 
  "כשאנו": 2473, 
  "בגו@@": 2474, 
  "הפנים": 2475, 
  "ומע@@": 2476, 
  "נוע": 2477, 
  "תוכל": 2478, 
  "חום": 2479, 
  "17": 2480, 
  "עתיד": 2481, 
  "און": 2482, 
  "חולה": 2483, 
  "תשומת": 2484, 
  "בפר@@": 2485, 
  "בוי": 2486, 
  "שזהו": 2487, 
  "מחים": 2488, 
  "ירו@@": 2489, 
  "הרגשתי": 2490, 
  "האוקיינוס": 2491, 
  "לבסוף": 2492, 
  "מוזיקה": 2493, 
  "בילה": 2494, 
  "האינ@@": 2495, 
  "המציאות": 2496, 
  "פיתוח": 2497, 
  "ברו": 2498, 
  "ולראות": 2499, 
  "24": 2500, 
  "מוג@@": 2501, 
  "ביא": 2502, 
  "חר": 2503, 
  "אליה": 2504, 
  "לשלוט": 2505, 
  "למישהו": 2506, 
  "לשתף": 2507, 
  "חמלה": 2508, 
  "אדמה": 2509, 
  "שמישהו": 2510, 
  "כולכם": 2511, 
  "שמעתי": 2512, 
  "יד@@": 2513, 
  "שבוע": 2514, 
  "חיידקים": 2515, 
  "אחריות": 2516, 
  "בחברה": 2517, 
  "הרכב": 2518, 
  "לרגע": 2519, 
  "קנו": 2520, 
  "ההבדל": 2521, 
  "לקי@@": 2522, 
  "מגיעה": 2523, 
  "לשלוח": 2524, 
  "דול@@": 2525, 
  "המר@@": 2526, 
  "לשפר": 2527, 
  "הג": 2528, 
  "בשל@@": 2529, 
  "איכות": 2530, 
  "חז@@": 2531, 
  "בפנים": 2532, 
  "יצירת": 2533, 
  "מגוון": 2534, 
  "שימו": 2535, 
  "לכמה": 2536, 
  "לחבר": 2537, 
  "דינ@@": 2538, 
  "בניין": 2539, 
  "בשני": 2540, 
  "במונחים": 2541, 
  "רוו@@": 2542, 
  "הטובה": 2543, 
  "לחלוק": 2544, 
  "פגשתי": 2545, 
  "חכם": 2546, 
  "וים": 2547, 
  "פרים": 2548, 
  "k@@": 2549, 
  "ובמ@@": 2550, 
  "ניק": 2551, 
  "מהח@@": 2552, 
  "והצ@@": 2553, 
  "שרו@@": 2554, 
  "שהש@@": 2555, 
  "נמוכה": 2556, 
  "כשי@@": 2557, 
  "צע": 2558, 
  "רובוט": 2559, 
  "מדה": 2560, 
  "פט": 2561, 
  "פץ": 2562, 
  "כול": 2563, 
  "קפ@@": 2564, 
  "רצו@@": 2565, 
  "בול@@": 2566, 
  "תום": 2567, 
  "חכמים": 2568, 
  "סטודנטים": 2569, 
  "שנית": 2570, 
  "קיבלו": 2571, 
  "M@@": 2572, 
  "למח@@": 2573, 
  "האיש": 2574, 
  "מוכן": 2575, 
  "במדינות": 2576, 
  "בלילה": 2577, 
  "מלה": 2578, 
  "אמצעי": 2579, 
  "הבמה": 2580, 
  "אלינו": 2581, 
  "בקלות": 2582, 
  "במעבדה": 2583, 
  "רגילים": 2584, 
  "300": 2585, 
  "עילות": 2586, 
  "קטו@@": 2587, 
  "להציל": 2588, 
  "-א@@": 2589, 
  "13": 2590, 
  "ריית": 2591, 
  "כלכלית": 2592, 
  "אוכלים": 2593, 
  "הור@@": 2594, 
  "האחרונים": 2595, 
  "הלך": 2596, 
  "יס@@": 2597, 
  "S@@": 2598, 
  "נהל": 2599, 
  "שישה": 2600, 
  "נוח": 2601, 
  "גבי": 2602, 
  "דק": 2603, 
  "פועלים": 2604, 
  "שתו@@": 2605, 
  "איתכם": 2606, 
  "שול": 2607, 
  "רידה": 2608, 
  "לעי@@": 2609, 
  "לאפשר": 2610, 
  "אבק": 2611, 
  "כלשהי": 2612, 
  "כדו@@": 2613, 
  "חוקי": 2614, 
  "עבד": 2615, 
  "בתמונה": 2616, 
  "": 2617, 
  "בעיני": 2618, 
  "המג@@": 2619, 
  "צאות": 2620, 
  "לבד": 2621, 
  "חזרתי": 2622, 
  "פנ@@": 2623, 
  "מהדברים": 2624, 
  "להמ@@": 2625, 
  "שמי@@": 2626, 
  "התיי@@": 2627, 
  "ייתכן": 2628, 
  "אומנות": 2629, 
  "עוצמה": 2630, 
  "הכלל": 2631, 
  "בדות": 2632, 
  "יצי@@": 2633, 
  "פתאום": 2634, 
  "שמי": 2635, 
  "חקים": 2636, 
  "בורים": 2637, 
  "סטר": 2638, 
  "גזע": 2639, 
  "מות@@": 2640, 
  "בט": 2641, 
  "קחו": 2642, 
  "רופ@@": 2643, 
  "אולם": 2644, 
  "אני@@": 2645, 
  "חוש@@": 2646, 
  "סל@@": 2647, 
  "שנת": 2648, 
  "להאמין": 2649, 
  "פיק": 2650, 
  "רונות": 2651, 
  "לין": 2652, 
  "הברי@@": 2653, 
  "צד": 2654, 
  "מוכ@@": 2655, 
  "החלו": 2656, 
  "נוטים": 2657, 
  "הקטנה": 2658, 
  "זק": 2659, 
  "מקור": 2660, 
  "שור@@": 2661, 
  "I@@": 2662, 
  "השפה": 2663, 
  "עבדתי": 2664, 
  "כנס": 2665, 
  "אכפת": 2666, 
  "מכונית": 2667, 
  "בטי@@": 2668, 
  "הסת@@": 2669, 
  "והר@@": 2670, 
  "תונים": 2671, 
  "ששי@@": 2672, 
  "לבו@@": 2673, 
  "הבנה": 2674, 
  "טלפון": 2675, 
  "אנושי": 2676, 
  "מחלה": 2677, 
  "לנצח": 2678, 
  "בם": 2679, 
  "זל": 2680, 
  "מדעי": 2681, 
  "מדענים": 2682, 
  "ה--": 2683, 
  "0@@": 2684, 
  "התוצאה": 2685, 
  "רק@@": 2686, 
  "לעבודה": 2687, 
  "דג": 2688, 
  "שהפ@@": 2689, 
  "אפשרויות": 2690, 
  "שמח@@": 2691, 
  "לוי": 2692, 
  "למנוע": 2693, 
  "קא@@": 2694, 
  "C@@": 2695, 
  "לחם": 2696, 
  "ואחרי": 2697, 
  "שמתי": 2698, 
  "משמעותי": 2699, 
  "חברי": 2700, 
  "קם": 2701, 
  "שאינם": 2702, 
  "מש": 2703, 
  "כללי": 2704, 
  "לדברים": 2705, 
  "קבו@@": 2706, 
  "המזל": 2707, 
  "מדהימים": 2708, 
  "גול": 2709, 
  "חישבו": 2710, 
  "שנמצא": 2711, 
  "נד": 2712, 
  "רכות": 2713, 
  "המבו@@": 2714, 
  "עצמכם": 2715, 
  "שיו@@": 2716, 
  "שהי@@": 2717, 
  "חברתי": 2718, 
  "פיע": 2719, 
  "גש": 2720, 
  "בסין": 2721, 
  "חדים": 2722, 
  "כדאי": 2723, 
  "עש@@": 2724, 
  "לשלב": 2725, 
  "שתהיה": 2726, 
  "מעלות": 2727, 
  "סיכון": 2728, 
  "לגי@@": 2729, 
  "ערב": 2730, 
  "אנו@@": 2731, 
  "משפ@@": 2732, 
  "ידוע": 2733, 
  "לרוב": 2734, 
  "לצי@@": 2735, 
  "לשימוש": 2736, 
  "לשלם": 2737, 
  "חשיבה": 2738, 
  "וזאת": 2739, 
  "פוי": 2740, 
  "הל": 2741, 
  "מפה": 2742, 
  "לעצב": 2743, 
  "דרים": 2744, 
  "במס@@": 2745, 
  "תוכניות": 2746, 
  "מהע@@": 2747, 
  "עצם": 2748, 
  "בב": 2749, 
  "סטים": 2750, 
  "בון": 2751, 
  "לאדם": 2752, 
  "תקו@@": 2753, 
  "סם": 2754, 
  "9@@": 2755, 
  "כנת": 2756, 
  "מונות": 2757, 
  "צעד": 2758, 
  "הוצ@@": 2759, 
  "תלוי": 2760, 
  "הקול": 2761, 
  "גוגל": 2762, 
  "תח": 2763, 
  "סקו@@": 2764, 
  "השק@@": 2765, 
  "תא@@": 2766, 
  "כיף": 2767, 
  "אג": 2768, 
  "חון": 2769, 
  "הכלים": 2770, 
  "טוס": 2771, 
  "אמנים": 2772, 
  "A": 2773, 
  "וכמו": 2774, 
  "רכת": 2775, 
  "זיכרון": 2776, 
  "בירה": 2777, 
  "אירופה": 2778, 
  "דיר": 2779, 
  "צופים": 2780, 
  "גבר": 2781, 
  "R@@": 2782, 
  "לכי@@": 2783, 
  "היסטוריה": 2784, 
  "עשתה": 2785, 
  "חלל": 2786, 
  "ראיתם": 2787, 
  "מעור@@": 2788, 
  "טל": 2789, 
  "גיי@@": 2790, 
  "מסתכל": 2791, 
  "לאים": 2792, 
  "שרואים": 2793, 
  "וול@@": 2794, 
  "חוזר": 2795, 
  "תוצאה": 2796, 
  "פלו@@": 2797, 
  "שתיים": 2798, 
  "לשינוי": 2799, 
  "קומות": 2800, 
  "תפקיד": 2801, 
  "health": 2802, 
  "סאות": 2803, 
  "מחקרים": 2804, 
  "עברו": 2805, 
  "חדשנות": 2806, 
  "שרק": 2807, 
  "למס@@": 2808, 
  "ישנן": 2809, 
  "בתהליך": 2810, 
  "ניסיתי": 2811, 
  "יוצרת": 2812, 
  "בקי@@": 2813, 
  "..": 2814, 
  "עדה": 2815, 
  "המין": 2816, 
  "לטיפול": 2817, 
  "קרא": 2818, 
  "בספ@@": 2819, 
  "בכם": 2820, 
  "מלאה": 2821, 
  "אלו@@": 2822, 
  "ראשי": 2823, 
  "למערכת": 2824, 
  "נדה": 2825, 
  "במים": 2826, 
  "שלים": 2827, 
  "שהצ@@": 2828, 
  "מטי@@": 2829, 
  "חורים": 2830, 
  "השתמשו": 2831, 
  "ריצ": 2832, 
  "ריי": 2833, 
  "לתקן": 2834, 
  "המבנה": 2835, 
  "להכיר": 2836, 
  "פצ@@": 2837, 
  "זרות": 2838, 
  "המילים": 2839, 
  "השנייה": 2840, 
  "להד@@": 2841, 
  "הקו": 2842, 
  "ליותר": 2843, 
  "פק@@": 2844, 
  "10@@": 2845, 
  "העיניים": 2846, 
  "בדברים": 2847, 
  "ּ@@": 2848, 
  "שיכולים": 2849, 
  "עד@@": 2850, 
  "לדו@@": 2851, 
  "הלאומי": 2852, 
  "שהיינו": 2853, 
  "יכולנו": 2854, 
  "ייצור": 2855, 
  "ריק@@": 2856, 
  "רש": 2857, 
  "חוויה": 2858, 
  "מנות": 2859, 
  "להגן": 2860, 
  "פולי@@": 2861, 
  "הדם": 2862, 
  "ער@@": 2863, 
  "ניסו": 2864, 
  "הקבוצה": 2865, 
  "שמעתם": 2866, 
  "שהע@@": 2867, 
  "המכונה": 2868, 
  "תינוקות": 2869, 
  "קרח": 2870, 
  "סקי": 2871, 
  "ההרצאה": 2872, 
  "ואלה": 2873, 
  "השאלות": 2874, 
  "הטובות": 2875, 
  "T@@": 2876, 
  "למרבה": 2877, 
  "טיבית": 2878, 
  "ני-@@": 2879, 
  "דקה": 2880, 
  "הטיפול": 2881, 
  "חזר": 2882, 
  "מדת": 2883, 
  "בצע": 2884, 
  "ושו@@": 2885, 
  "תפו@@": 2886, 
  "האחד": 2887, 
  "עליי": 2888, 
  "בתי@@": 2889, 
  "הממוצע": 2890, 
  "דדים": 2891, 
  "סטון": 2892, 
  "האתגר": 2893, 
  "לסי@@": 2894, 
  "מסע": 2895, 
  "פעל": 2896, 
  "מושלם": 2897, 
  "לג": 2898, 
  "זהה": 2899, 
  "איני": 2900, 
  "תיי": 2901, 
  "קיות": 2902, 
  "מייל": 2903, 
  "הגיעה": 2904, 
  "הגברים": 2905, 
  "הי": 2906, 
  "אוויר": 2907, 
  "שע": 2908, 
  "כאב": 2909, 
  "התפ@@": 2910, 
  "אנגלית": 2911, 
  "מעצבים": 2912, 
  "וין": 2913, 
  "הלכת": 2914, 
  "בשימוש": 2915, 
  "נעים": 2916, 
  "בוקר": 2917, 
  "עז@@": 2918, 
  "ושם": 2919, 
  "הקרח": 2920, 
  "הנד@@": 2921, 
  "to": 2922, 
  "נסות": 2923, 
  "לימוד": 2924, 
  "בדרום": 2925, 
  "הקרי@@": 2926, 
  "שול@@": 2927, 
  "מדות": 2928, 
  "שות@@": 2929, 
  "האופן": 2930, 
  "רי-@@": 2931, 
  "דגים": 2932, 
  "בפועל": 2933, 
  "יין": 2934, 
  "האפשרות": 2935, 
  "מסוימים": 2936, 
  "לזכור": 2937, 
  "איכשהו": 2938, 
  "עליהן": 2939, 
  "השוק": 2940, 
  "עילים": 2941, 
  "באנשים": 2942, 
  "s.html": 2943, 
  "אבים": 2944, 
  "תחום": 2945, 
  "וט@@": 2946, 
  "חן": 2947, 
  "פשוטים": 2948, 
  "בוש": 2949, 
  "רופא": 2950, 
  "הסרטן": 2951, 
  "נתק@@": 2952, 
  "ציו@@": 2953, 
  "יי": 2954, 
  "ענה": 2955, 
  "ניקה": 2956, 
  "העצמי": 2957, 
  "ביב": 2958, 
  "מוח@@": 2959, 
  "לתאר": 2960, 
  "הלילה": 2961, 
  "המודל": 2962, 
  "אורך": 2963, 
  "בך": 2964, 
  "הצד": 2965, 
  "מתחילה": 2966, 
  "להתח@@": 2967, 
  "אנדרסון": 2968, 
  "להביט": 2969, 
  "המאו@@": 2970, 
  "קלים": 2971, 
  "גלובלית": 2972, 
  "הורים": 2973, 
  "פשט": 2974, 
  "מכשיר": 2975, 
  "טיבי": 2976, 
  "האבולוציה": 2977, 
  "אסי@@": 2978, 
  "המכונית": 2979, 
  "אישי": 2980, 
  "ממש@@": 2981, 
  "ף-@@": 2982, 
  "ריו": 2983, 
  "צל": 2984, 
  "ויי@@": 2985, 
  "איתנו": 2986, 
  "באו": 2987, 
  "לבנים": 2988, 
  "שמאל": 2989, 
  "נגי@@": 2990, 
  "ראית": 2991, 
  "שורה": 2992, 
  "ונו@@": 2993, 
  "המוזיקה": 2994, 
  "מניח": 2995, 
  "בהרצאה": 2996, 
  "משקל": 2997, 
  "גדלים": 2998, 
  "גנו": 2999, 
  "ספרי": 3000, 
  "לום": 3001, 
  "יחסית": 3002, 
  "אמריקאים": 3003, 
  "גון": 3004, 
  "להניח": 3005, 
  "ולש@@": 3006, 
  "דום": 3007, 
  "עזרה": 3008, 
  "בשבוע": 3009, 
  "רווח": 3010, 
  "ירוק": 3011, 
  "מח": 3012, 
  "כלכ@@": 3013, 
  "ניס": 3014, 
  "היחסים": 3015, 
  "עשר": 3016, 
  "תכנון": 3017, 
  "מדיניות": 3018, 
  "זרת": 3019, 
  "גיעה": 3020, 
  "רוח@@": 3021, 
  "חוקרים": 3022, 
  "מחפשים": 3023, 
  "הצלחתי": 3024, 
  "לעלות": 3025, 
  "מתו": 3026, 
  "דרות": 3027, 
  "קיבלנו": 3028, 
  "סטר@@": 3029, 
  "הסטודנטים": 3030, 
  "פח@@": 3031, 
  "ושל": 3032, 
  "אינן": 3033, 
  "למדוד": 3034, 
  "להוסיף": 3035, 
  "הצלחה": 3036, 
  "למצב": 3037, 
  "מעורבים": 3038, 
  "אזורים": 3039, 
  "המפתח": 3040, 
  "בבתי": 3041, 
  "כתוצאה": 3042, 
  "יופי": 3043, 
  "סק@@": 3044, 
  "עדי@@": 3045, 
  "איתה": 3046, 
  "בהו@@": 3047, 
  "המסך": 3048, 
  "בדת": 3049, 
  "מנה": 3050, 
  "נאמר": 3051, 
  "שרות": 3052, 
  "נהדרת": 3053, 
  "קטע": 3054, 
  "בפניכם": 3055, 
  "שחור": 3056, 
  "החיות": 3057, 
  "אות@@": 3058, 
  "לאור": 3059, 
  "גיש": 3060, 
  "פתרונות": 3061, 
  "הראשונות": 3062, 
  "גדלה": 3063, 
  "קוף": 3064, 
  "קיו@@": 3065, 
  "ריק": 3066, 
  "ביקום": 3067, 
  "עיניים": 3068, 
  "יוס": 3069, 
  "תחושת": 3070, 
  "הידע": 3071, 
  "קהל": 3072, 
  "מכאן": 3073, 
  "דמו@@": 3074, 
  "פסיכולו@@": 3075, 
  "מייצרים": 3076, 
  "כר@@": 3077, 
  "מכונה": 3078, 
  "ההשפעה": 3079, 
  "הופכת": 3080, 
  "הציבור": 3081, 
  "בקרב": 3082, 
  "תש@@": 3083, 
  "ננים": 3084, 
  "הפולי@@": 3085, 
  "באה": 3086, 
  "מרחב": 3087, 
  "בעיית": 3088, 
  "j@@": 3089, 
  "עור@@": 3090, 
  "שמעולם": 3091, 
  "אוטו@@": 3092, 
  "התנועה": 3093, 
  "רוש": 3094, 
  "בעלת": 3095, 
  "הצליחו": 3096, 
  "ישירות": 3097, 
  "והד@@": 3098, 
  "מאושרים": 3099, 
  "דעה": 3100, 
  "מאחור": 3101, 
  "לקחתי": 3102, 
  "המטו@@": 3103, 
  "גז": 3104, 
  "מחלי@@": 3105, 
  "שחיים": 3106, 
  "והיו": 3107, 
  "ברתי": 3108, 
  "לפתוח": 3109, 
  "קפה": 3110, 
  "ואף": 3111, 
  "בדו": 3112, 
  "10,000": 3113, 
  "קיבל": 3114, 
  "ארי": 3115, 
  "משק@@": 3116, 
  "מכיר": 3117, 
  "שואל": 3118, 
  "המבט": 3119, 
  "כנן": 3120, 
  "במילים": 3121, 
  "זרה": 3122, 
  "צדק": 3123, 
  "צילום": 3124, 
  "פלים": 3125, 
  "דומות": 3126, 
  "ביניהם": 3127, 
  "כולה": 3128, 
  "הליך": 3129, 
  "ארוכה": 3130, 
  "דעתי": 3131, 
  "רעים": 3132, 
  "ולע@@": 3133, 
  "עצמך": 3134, 
  "אנושית": 3135, 
  "להודות": 3136, 
  "שאו@@": 3137, 
  "שבת": 3138, 
  "יפים": 3139, 
  "גילינו": 3140, 
  "בודד": 3141, 
  "ואומר": 3142, 
  "החשמל": 3143, 
  "שטח": 3144, 
  "עלות": 3145, 
  "לאסוף": 3146, 
  "אלקטרו@@": 3147, 
  "משאבים": 3148, 
  "d@@": 3149, 
  "הרגל": 3150, 
  "פע": 3151, 
  "אום": 3152, 
  "לאחד": 3153, 
  "ממשיך": 3154, 
  "הבאים": 3155, 
  "גרת": 3156, 
  "גדלתי": 3157, 
  "שיצ@@": 3158, 
  "רוכה": 3159, 
  "יצר": 3160, 
  "אופטי@@": 3161, 
  "כתוב": 3162, 
  "בתחילת": 3163, 
  "נוספות": 3164, 
  "דיבר": 3165, 
  "מכונת": 3166, 
  "לאתר": 3167, 
  "מלחמת": 3168, 
  "ומי@@": 3169, 
  "אלימות": 3170, 
  "s": 3171, 
  "לאות": 3172, 
  "היר": 3173, 
  "פחד": 3174, 
  "השונים": 3175, 
  "למידה": 3176, 
  "עון": 3177, 
  "17@@": 3178, 
  "דיברנו": 3179, 
  "תיה": 3180, 
  "רופה": 3181, 
  "בהכרח": 3182, 
  "גאו@@": 3183, 
  "טס": 3184, 
  "גל@@": 3185, 
  "טיס": 3186, 
  "שמחה": 3187, 
  "חף": 3188, 
  "מצליחים": 3189, 
  "ממים": 3190, 
  "התרבות": 3191, 
  "לתפוס": 3192, 
  "המיי@@": 3193, 
  "החשוב": 3194, 
  "שנקראת": 3195, 
  "יצורים": 3196, 
  "דרה": 3197, 
  "פיר@@": 3198, 
  "ורג": 3199, 
  "והסיבה": 3200, 
  "דרום": 3201, 
  "כבוד": 3202, 
  "טוען": 3203, 
  "לנו@@": 3204, 
  "נמוך": 3205, 
  "ההד@@": 3206, 
  "שמס@@": 3207, 
  "במק@@": 3208, 
  "בקצב": 3209, 
  "כולן": 3210, 
  "עצמית": 3211, 
  "תון": 3212, 
  "קשים": 3213, 
  "משם": 3214, 
  "הביטו": 3215, 
  "יוצאת": 3216, 
  "האנושות": 3217, 
  "מקי@@": 3218, 
  "מכונות": 3219, 
  "מחשבה": 3220, 
  "בטוחים": 3221, 
  "שמות": 3222, 
  "יצרו": 3223, 
  "גופ@@": 3224, 
  "פרט": 3225, 
  "אתמול": 3226, 
  "בחלל": 3227, 
  "עוני": 3228, 
  "יווי@@": 3229, 
  "דלה": 3230, 
  "חברתיות": 3231, 
  "בבו@@": 3232, 
  "כשל@@": 3233, 
  "רשתות": 3234, 
  "מכים": 3235, 
  "שיעור": 3236, 
  "צרי@@": 3237, 
  "שעושים": 3238, 
  "לנהל": 3239, 
  "נח": 3240, 
  "הקלי@@": 3241, 
  "מטרה": 3242, 
  "רמות": 3243, 
  "ממשיכים": 3244, 
  "שעל": 3245, 
  "החוק": 3246, 
  "שיתו@@": 3247, 
  "אבד": 3248, 
  "הערים": 3249, 
  "שמעו": 3250, 
  "סור": 3251, 
  "להעלות": 3252, 
  "L@@": 3253, 
  "עשרה": 3254, 
  "שבהן": 3255, 
  "נסו": 3256, 
  "העתי@@": 3257, 
  "מוציאים": 3258, 
  "רצי@@": 3259, 
  "שהב@@": 3260, 
  "עלולים": 3261, 
  "ולעשות": 3262, 
  "לכו": 3263, 
  "נפג@@": 3264, 
  "עמי@@": 3265, 
  "הזו@@": 3266, 
  "ניג@@": 3267, 
  "גב@@": 3268, 
  "רר": 3269, 
  "חיו@@": 3270, 
  "עורר": 3271, 
  "טיה": 3272, 
  "מודעים": 3273, 
  "הרשו": 3274, 
  "חלי@@": 3275, 
  "החלטנו": 3276, 
  "וז@@": 3277, 
  "להח@@": 3278, 
  "נשל@@": 3279, 
  "שהד@@": 3280, 
  "מא": 3281, 
  "לסו@@": 3282, 
  "שא": 3283, 
  "גשם": 3284, 
  "זיהום": 3285, 
  "תף": 3286, 
  "מוות": 3287, 
  "וכולם": 3288, 
  "לצלם": 3289, 
  "מפתיע": 3290, 
  "יוון": 3291, 
  "לשרוד": 3292, 
  "עילה": 3293, 
  "הסיבות": 3294, 
  "המספר": 3295, 
  "שרוב": 3296, 
  "אלים": 3297, 
  "סיות": 3298, 
  "השב@@": 3299, 
  "דע@@": 3300, 
  "arts": 3301, 
  "מגניב": 3302, 
  "פסי@@": 3303, 
  "הקד@@": 3304, 
  "משמאל": 3305, 
  "מורכבות": 3306, 
  "העוני": 3307, 
  "400": 3308, 
  "יצרנו": 3309, 
  "לף": 3310, 
  "פיזי@@": 3311, 
  "פורים": 3312, 
  "כמוני": 3313, 
  "קיימות": 3314, 
  "הימים": 3315, 
  "העולמית": 3316, 
  "וואו": 3317, 
  "צח": 3318, 
  "ונראה": 3319, 
  "כנים": 3320, 
  "נשאר": 3321, 
  "עובדות": 3322, 
  "מעניינת": 3323, 
  "גבולות": 3324, 
  "שבתי": 3325, 
  "המרכזי": 3326, 
  "חודש": 3327, 
  "אופניים": 3328, 
  "הופ@@": 3329, 
  "זיר": 3330, 
  "המשפט": 3331, 
  "בלות": 3332, 
  "במרחק": 3333, 
  "נין": 3334, 
  "שגי@@": 3335, 
  "לוח": 3336, 
  "נהג": 3337, 
  "שורים": 3338, 
  "רפואי": 3339, 
  "שכן": 3340, 
  "והס@@": 3341, 
  "קון": 3342, 
  "לאט": 3343, 
  "כגון": 3344, 
  "מאמינה": 3345, 
  "מביא": 3346, 
  "צית": 3347, 
  "כנגד": 3348, 
  "–": 3349, 
  "נע": 3350, 
  "שעבר": 3351, 
  "שירות": 3352, 
  "מדברת": 3353, 
  "נה@@": 3354, 
  "חשו@@": 3355, 
  "הצליח": 3356, 
  "בגוף": 3357, 
  "בטכנולוגיה": 3358, 
  "יורד": 3359, 
  "טיפוס": 3360, 
  "ההזדמנות": 3361, 
  "מקרים": 3362, 
  "מראש": 3363, 
  "כתבתי": 3364, 
  "שהייתה": 3365, 
  "מרה": 3366, 
  "ברמת": 3367, 
  "בתים": 3368, 
  "לאומי": 3369, 
  "שויות": 3370, 
  "בלו": 3371, 
  "לשו@@": 3372, 
  "חיבור": 3373, 
  "שחי@@": 3374, 
  "יק@@": 3375, 
  "P@@": 3376, 
  "במשהו": 3377, 
  "הנראה": 3378, 
  "להיראות": 3379, 
  "נור": 3380, 
  "סיקה": 3381, 
  "הנכונה": 3382, 
  "הבר@@": 3383, 
  "כני": 3384, 
  "16@@": 3385, 
  "חזרו": 3386, 
  "מצפים": 3387, 
  "מסוכן": 3388, 
  "משחקי": 3389, 
  "תופעה": 3390, 
  "בקר@@": 3391, 
  "משל@@": 3392, 
  "פותח": 3393, 
  "האמריקאי": 3394, 
  "היצי@@": 3395, 
  "לצייר": 3396, 
  "קצב": 3397, 
  "ד-@@": 3398, 
  "יז@@": 3399, 
  "14@@": 3400, 
  "ליום": 3401, 
  "דנ@@": 3402, 
  "רוף": 3403, 
  "ידיים": 3404, 
  "בנקודה": 3405, 
  "עבורנו": 3406, 
  "בגובה": 3407, 
  "בחן": 3408, 
  "הערכה": 3409, 
  "קונים": 3410, 
  "ניו@@": 3411, 
  "מאנשים": 3412, 
  "מפור@@": 3413, 
  "ימי": 3414, 
  "זיה": 3415, 
  "הליכה": 3416, 
  "ההצ@@": 3417, 
  "N@@": 3418, 
  "דיברתי": 3419, 
  "שתמש": 3420, 
  "זיק": 3421, 
  "סקים": 3422, 
  "רמה": 3423, 
  "תכנית": 3424, 
  "להכין": 3425, 
  "להשפיע": 3426, 
  "כיר": 3427, 
  "000": 3428, 
  "מבנים": 3429, 
  "רציני": 3430, 
  "העליון": 3431, 
  "בצפון": 3432, 
  "מדע@@": 3433, 
  "הכו@@": 3434, 
  "תמים": 3435, 
  "עובדה": 3436, 
  "גבי@@": 3437, 
  "המשת@@": 3438, 
  "לגדל": 3439, 
  "אנושיים": 3440, 
  "לעצמנו": 3441, 
  "שתוכלו": 3442, 
  "הנדסה": 3443, 
  "אורג@@": 3444, 
  "הניסוי": 3445, 
  "מרגש": 3446, 
  "ואפשר": 3447, 
  "כבד": 3448, 
  "B@@": 3449, 
  "D@@": 3450, 
  "בקצה": 3451, 
  "חופש": 3452, 
  "טיפ@@": 3453, 
  "שניהם": 3454, 
  "טעות": 3455, 
  "מהש@@": 3456, 
  "מוש@@": 3457, 
  "לשכנע": 3458, 
  "עוצ@@": 3459, 
  "אהבתי": 3460, 
  "ולוגים": 3461, 
  "אמורים": 3462, 
  "המורים": 3463, 
  "דיא@@": 3464, 
  "סביבה": 3465, 
  "טט": 3466, 
  "שגו@@": 3467, 
  "אחו@@": 3468, 
  "להציע": 3469, 
  "ממוק@@": 3470, 
  "החברות": 3471, 
  "נוצר": 3472, 
  "בהשוואה": 3473, 
  "כבי@@": 3474, 
  "כני@@": 3475, 
  "המוצר": 3476, 
  "פייה": 3477, 
  "קיימא": 3478, 
  "45": 3479, 
  "מטי": 3480, 
  "המחשבה": 3481, 
  "פרס": 3482, 
  "הבלתי": 3483, 
  "קטי@@": 3484, 
  "חסרי": 3485, 
  "הגישה": 3486, 
  "ששו@@": 3487, 
  "המשו@@": 3488, 
  "שלישי": 3489, 
  "אש": 3490, 
  "ברצינות": 3491, 
  "גובה": 3492, 
  "המפ@@": 3493, 
  "קרב": 3494, 
  "בידי": 3495, 
  "כלו@@": 3496, 
  "שד@@": 3497, 
  "כחול": 3498, 
  "סוק": 3499, 
  "שורות": 3500, 
  "להתחבר": 3501, 
  "והק@@": 3502, 
  "בסיסי": 3503, 
  "לוהים": 3504, 
  "לדאוג": 3505, 
  "צריכות": 3506, 
  "יושב": 3507, 
  "פייסבוק": 3508, 
  "אינך": 3509, 
  "ליצירת": 3510, 
  "מהסוג": 3511, 
  "וית": 3512, 
  "למו": 3513, 
  "יושבים": 3514, 
  "יצור": 3515, 
  "חוף": 3516, 
  "לקו": 3517, 
  "דיי": 3518, 
  "ה-20": 3519, 
  "מחיר": 3520, 
  "להפסיק": 3521, 
  "נפש": 3522, 
  "הרובוט": 3523, 
  "מרכזי": 3524, 
  "התנ@@": 3525, 
  "להתמקד": 3526, 
  "שג@@": 3527, 
  "לענות": 3528, 
  "ביולוגיה": 3529, 
  "מסת@@": 3530, 
  "תול": 3531, 
  "טרים": 3532, 
  "אוי": 3533, 
  "מאחו@@": 3534, 
  "שיותר": 3535, 
  "האח@@": 3536, 
  "קבוע": 3537, 
  "שהרבה": 3538, 
  "במשחק": 3539, 
  "צרו": 3540, 
  "לפר@@": 3541, 
  "השתנה": 3542, 
  "שראינו": 3543, 
  "והג@@": 3544, 
  "אינטר@@": 3545, 
  "בק": 3546, 
  "מיקה": 3547, 
  "תנו@@": 3548, 
  "שיחה": 3549, 
  "אול@@": 3550, 
  "ערה": 3551, 
  "ואו@@": 3552, 
  "הפוך": 3553, 
  "האזור": 3554, 
  "ההר@@": 3555, 
  "מבוגרים": 3556, 
  "בשת": 3557, 
  "הכפ@@": 3558, 
  "גלה": 3559, 
  "שטו@@": 3560, 
  "לכולנו": 3561, 
  "מכנה": 3562, 
  "בויות": 3563, 
  "התרח@@": 3564, 
  "דוש": 3565, 
  "להשקיע": 3566, 
  "מוכר": 3567, 
  "האמיתית": 3568, 
  "ויות": 3569, 
  "טרך": 3570, 
  "טתי": 3571, 
  "החבר": 3572, 
  "איידס": 3573, 
  "ניסינו": 3574, 
  "הרצ@@": 3575, 
  "אעשה": 3576, 
  "ליל": 3577, 
  "נוס": 3578, 
  "איי": 3579, 
  "הביא": 3580, 
  "שיחות": 3581, 
  "מאלה": 3582, 
  "קפי@@": 3583, 
  "להחליט": 3584, 
  "האוכל": 3585, 
  "חק@@": 3586, 
  "ואלו": 3587, 
  "וג": 3588, 
  "בבים": 3589, 
  "ופ@@": 3590, 
  "בכיתה": 3591, 
  "גורמת": 3592, 
  "ובסופו": 3593, 
  "סנו": 3594, 
  "ל-": 3595, 
  "נגו@@": 3596, 
  "מהירות": 3597, 
  "טח": 3598, 
  "קלו@@": 3599, 
  "שעושה": 3600, 
  "רבית": 3601, 
  "שק": 3602, 
  "אפריק@@": 3603, 
  "בימים": 3604, 
  "ננו": 3605, 
  "שמנו": 3606, 
  "פיסת": 3607, 
  "האוכלוסיה": 3608, 
  "המחיר": 3609, 
  "אבולוציה": 3610, 
  "משר@@": 3611, 
  "שפי@@": 3612, 
  "באחד": 3613, 
  "שאפילו": 3614, 
  "רצ@@": 3615, 
  "געים": 3616, 
  "צרת": 3617, 
  "מהנ@@": 3618, 
  "ספים": 3619, 
  "זמים": 3620, 
  "טלוויזיה": 3621, 
  "לאחור": 3622, 
  "מנקודת": 3623, 
  "צר@@": 3624, 
  "כרים": 3625, 
  "סיקו": 3626, 
  "הגנום": 3627, 
  "E@@": 3628, 
  "בניו": 3629, 
  "אפש@@": 3630, 
  "זהות": 3631, 
  "המחלה": 3632, 
  "מפחיד": 3633, 
  "בטבע": 3634, 
  "צוף": 3635, 
  "יקר": 3636, 
  "למדו": 3637, 
  "21": 3638, 
  "רקים": 3639, 
  "אמי": 3640, 
  "טווח": 3641, 
  "ריח": 3642, 
  "רכז": 3643, 
  "בטוחה": 3644, 
  "מצליח": 3645, 
  "להחליף": 3646, 
  "וככל": 3647, 
  "2000": 3648, 
  "גני@@": 3649, 
  "נניח": 3650, 
  "F@@": 3651, 
  "in": 3652, 
  "הצעירים": 3653, 
  "במחקר": 3654, 
  "אסטרו@@": 3655, 
  "חברתיים": 3656, 
  "מראים": 3657, 
  "להחזיק": 3658, 
  "בשים": 3659, 
  "שינויי": 3660, 
  "זמ@@": 3661, 
  "מדיה": 3662, 
  "5,000": 3663, 
  "מהד@@": 3664, 
  "באוניברסיטת": 3665, 
  "שניה": 3666, 
  "בשל": 3667, 
  "כנית": 3668, 
  "באתר": 3669, 
  "וכדי": 3670, 
  "שבעצם": 3671, 
  "עברתי": 3672, 
  "אחדים": 3673, 
  "תעשי@@": 3674, 
  "נתי@@": 3675, 
  "באי": 3676, 
  "תשובה": 3677, 
  "הכנסה": 3678, 
  "נוס@@": 3679, 
  "נשי@@": 3680, 
  "והרבה": 3681, 
  "פלא": 3682, 
  "אבי@@": 3683, 
  "אספ@@": 3684, 
  "טפ@@": 3685, 
  "בצורת": 3686, 
  "הצורך": 3687, 
  "להג@@": 3688, 
  "תרון": 3689, 
  "מתברר": 3690, 
  "צץ": 3691, 
  "עבורם": 3692, 
  "גינה": 3693, 
  "עמו@@": 3694, 
  "הול": 3695, 
  "נאי": 3696, 
  "דוע": 3697, 
  "בקנה": 3698, 
  "מתה": 3699, 
  "המחו@@": 3700, 
  "ריס": 3701, 
  "מעי@@": 3702, 
  "קהילה": 3703, 
  "הטלפון": 3704, 
  "בקהל": 3705, 
  "רין": 3706, 
  "הדמוקרטיה": 3707, 
  "דו-@@": 3708, 
  "מספ@@": 3709, 
  "מורכבים": 3710, 
  "קוח": 3711, 
  "בשטח": 3712, 
  "קשות": 3713, 
  "לשבת": 3714, 
  "נטי@@": 3715, 
  "צלי@@": 3716, 
  "תרופה": 3717, 
  "שנעשה": 3718, 
  "אינכם": 3719, 
  "וניתן": 3720, 
  "עבודות": 3721, 
  "C": 3722, 
  "עצב": 3723, 
  "ואח@@": 3724, 
  "יחסי": 3725, 
  "לתי@@": 3726, 
  "השיר": 3727, 
  "למכור": 3728, 
  "החשיבה": 3729, 
  "תקן": 3730, 
  "להישאר": 3731, 
  "לוב": 3732, 
  "לקחו": 3733, 
  "ובין": 3734, 
  "להשאיר": 3735, 
  "בחירה": 3736, 
  "אס": 3737, 
  "לנוע": 3738, 
  "נשק": 3739, 
  "בעקבות": 3740, 
  "גד": 3741, 
  "מעמד": 3742, 
  "וזוהי": 3743, 
  "ידענו": 3744, 
  "משימה": 3745, 
  "השכ@@": 3746, 
  "מתרחש": 3747, 
  "מודעות": 3748, 
  "גום": 3749, 
  "זירים": 3750, 
  "קד": 3751, 
  "שליש": 3752, 
  "השאר": 3753, 
  "המשאבים": 3754, 
  "ודברים": 3755, 
  "צרות": 3756, 
  "רוע": 3757, 
  "עידן": 3758, 
  "אמיתיים": 3759, 
  "ידעו": 3760, 
  "בהקשר": 3761, 
  "ציא": 3762, 
  "מחה": 3763, 
  "דעות": 3764, 
  "המספרים": 3765, 
  "ברא@@": 3766, 
  "מוצר": 3767, 
  "קורים": 3768, 
  "שווקים": 3769, 
  "O@@": 3770, 
  "שלמדתי": 3771, 
  "טחים": 3772, 
  "השלב": 3773, 
  "משלה": 3774, 
  "התרופות": 3775, 
  "הינו": 3776, 
  "ברר": 3777, 
  "מהכ@@": 3778, 
  "קטיבי": 3779, 
  "ציפורים": 3780, 
  "ארגונים": 3781, 
  "לגדול": 3782, 
  "ועו@@": 3783, 
  "לכה": 3784, 
  "סדר": 3785, 
  "רובו@@": 3786, 
  "ביחס": 3787, 
  "הבדל": 3788, 
  "קוס@@": 3789, 
  "להקים": 3790, 
  "אדבר": 3791, 
  "H@@": 3792, 
  "החוויה": 3793, 
  "חוזרים": 3794, 
  "התפו@@": 3795, 
  "ליון": 3796, 
  "נ": 3797, 
  "ההורים": 3798, 
  "הגנים": 3799, 
  "בכיוון": 3800, 
  "רוך": 3801, 
  "ויצ@@": 3802, 
  "חזקים": 3803, 
  "בוודאי": 3804, 
  "מוסיקה": 3805, 
  "עלול": 3806, 
  "לשוק": 3807, 
  "משבר": 3808, 
  "תחילה": 3809, 
  "המערכות": 3810, 
  "דוג@@": 3811, 
  "השם": 3812, 
  "כז@@": 3813, 
  "רשים": 3814, 
  "לחזות": 3815, 
  "סטי": 3816, 
  "לסייע": 3817, 
  "ראתי": 3818, 
  "המינים": 3819, 
  "G@@": 3820, 
  "פקי@@": 3821, 
  "שותפים": 3822, 
  "כעל": 3823, 
  "מודלים": 3824, 
  "12@@": 3825, 
  "גרעיני": 3826, 
  "התנהגו@@": 3827, 
  "כרת": 3828, 
  "יעיל": 3829, 
  "נעשים": 3830, 
  "ניידים": 3831, 
  "אל-@@": 3832, 
  "החברים": 3833, 
  "החז@@": 3834, 
  "דעים": 3835, 
  "נהר@@": 3836, 
  "שראיתי": 3837, 
  "35": 3838, 
  "מימין": 3839, 
  "רגות": 3840, 
  "אמרנו": 3841, 
  "מעניינים": 3842, 
  "שאוכל": 3843, 
  "ולמה": 3844, 
  "הבסיס": 3845, 
  "קרי": 3846, 
  "קלא@@": 3847, 
  "פצים": 3848, 
  "לעקוב": 3849, 
  "בחינם": 3850, 
  "יחיד": 3851, 
  "מנהל": 3852, 
  "הגידול": 3853, 
  "פלסטיק": 3854, 
  "החלו@@": 3855, 
  "מכות": 3856, 
  "תוח": 3857, 
  "מורכבת": 3858, 
  "197@@": 3859, 
  "זרם": 3860, 
  "במזרח": 3861, 
  "מרגישה": 3862, 
  "לקים": 3863, 
  "לעבר": 3864, 
  "המסע": 3865, 
  "הרגליים": 3866, 
  "וני@@": 3867, 
  "התקדמות": 3868, 
  "עדות": 3869, 
  "השולחן": 3870, 
  "זקוק": 3871, 
  "ברחוב": 3872, 
  "טיימס": 3873, 
  "שרציתי": 3874, 
  "15@@": 3875, 
  "הכלכ@@": 3876, 
  "אד@@": 3877, 
  "משול@@": 3878, 
  "עשית": 3879, 
  "תעשיית": 3880, 
  "נות@@": 3881, 
  "מגלים": 3882, 
  "סטרו@@": 3883, 
  "חלת": 3884, 
  "בינו": 3885, 
  "אדי@@": 3886, 
  "כלכלי": 3887, 
  "ואחת": 3888, 
  "מסויימים": 3889, 
  "אספר": 3890, 
  "art": 3891, 
  "האחר": 3892, 
  "ליח": 3893, 
  "בי-@@": 3894, 
  "החלקים": 3895, 
  "לעיר": 3896, 
  "נאים": 3897, 
  "ולוג": 3898, 
  "החברתית": 3899, 
  "ולוגית": 3900, 
  "נורות": 3901, 
  "אבן": 3902, 
  "לוח@@": 3903, 
  "קיר": 3904, 
  "בינ@@": 3905, 
  "בדה": 3906, 
  "ניסה": 3907, 
  "בוגרים": 3908, 
  "אפי@@": 3909, 
  "הטו@@": 3910, 
  "סתי": 3911, 
  "ולג@@": 3912, 
  "צאה": 3913, 
  "על@@": 3914, 
  "מוזי@@": 3915, 
  "ראן": 3916, 
  "והתחלתי": 3917, 
  "משמעותית": 3918, 
  "העמו@@": 3919, 
  "מסובך": 3920, 
  "מציע": 3921, 
  "איננה": 3922, 
  "בריא": 3923, 
  "תרים": 3924, 
  "דונ@@": 3925, 
  "מבצעים": 3926, 
  "החוקים": 3927, 
  "גילו": 3928, 
  "אסור": 3929, 
  "n@@": 3930, 
  "באירופה": 3931, 
  "מטריה": 3932, 
  "לתקשר": 3933, 
  "מסוגלת": 3934, 
  "שגים": 3935, 
  "עולמית": 3936, 
  "מדען": 3937, 
  "נהג@@": 3938, 
  "גלי@@": 3939, 
  "כזאת": 3940, 
  "שימור": 3941, 
  "מצט@@": 3942, 
  "בוחרים": 3943, 
  "קילומטרים": 3944, 
  "ובאמת": 3945, 
  "סיימתי": 3946, 
  "חרר": 3947, 
  "זכה": 3948, 
  "לחוש": 3949, 
  "שמן": 3950, 
  "הקט@@": 3951, 
  "חרי@@": 3952, 
  "עלים": 3953, 
  "הרחוב": 3954, 
  "נולד": 3955, 
  "והמו@@": 3956, 
  "פין": 3957, 
  "משותף": 3958, 
  "החוף": 3959, 
  "מום": 3960, 
  "צבים": 3961, 
  "אליים": 3962, 
  "ועי@@": 3963, 
  "הבחירות": 3964, 
  "עקב": 3965, 
  "כשהיא": 3966, 
  "אמריק@@": 3967, 
  "בספר": 3968, 
  "אפל": 3969, 
  "ם-": 3970, 
  "שאיננו": 3971, 
  "שדה": 3972, 
  "אוסף": 3973, 
  "בעצמם": 3974, 
  "שס@@": 3975, 
  "דמוקרטיה": 3976, 
  "משני": 3977, 
  "תינוק": 3978, 
  "הדרכים": 3979, 
  "להרוג": 3980, 
  "להוריד": 3981, 
  "בחרו": 3982, 
  "אדום": 3983, 
  "בשר": 3984, 
  "ואי": 3985, 
  "דרת": 3986, 
  "תרו@@": 3987, 
  "להפליא": 3988, 
  "חמצן": 3989, 
  "שמצ@@": 3990, 
  "תועלת": 3991, 
  "150": 3992, 
  "סבור": 3993, 
  "נטו@@": 3994, 
  "נגו": 3995, 
  "מקומי": 3996, 
  "לגו@@": 3997, 
  "מנויות": 3998, 
  "קלה": 3999, 
  "רץ": 4000, 
  "עין": 4001, 
  "מייקל": 4002, 
  "מייצג": 4003, 
  "מוכרים": 4004, 
  "לעתיד": 4005, 
  "תשו@@": 4006, 
  "מ-": 4007, 
  "איר": 4008, 
  "ולפעמים": 4009, 
  "חייך": 4010, 
  "נוי": 4011, 
  "להחזיר": 4012, 
  "ומס@@": 4013, 
  "מבצע": 4014, 
  "שיב": 4015, 
  "תיק": 4016, 
  "לכו@@": 4017, 
  "מרת": 4018, 
  "אליכם": 4019, 
  "פתי@@": 4020, 
  "רב-@@": 4021, 
  "מחי@@": 4022, 
  "המידה": 4023, 
  "צוץ": 4024, 
  "מטה": 4025, 
  "טרם": 4026, 
  "ההתנהגות": 4027, 
  "שמר@@": 4028, 
  "צופה": 4029, 
  "הרגי@@": 4030, 
  "מרי": 4031, 
  "כולת": 4032, 
  "99": 4033, 
  "תוכן": 4034, 
  "העיקרי": 4035, 
  "האמנות": 4036, 
  "תגובה": 4037, 
  "ורו@@": 4038, 
  "גוד": 4039, 
  "באזורים": 4040, 
  "הבוקר": 4041, 
  "מצחיק": 4042, 
  "בנית": 4043, 
  "סיפו@@": 4044, 
  "להפעיל": 4045, 
  "לתה": 4046, 
  "ולו": 4047, 
  "הון": 4048, 
  "לנהוג": 4049, 
  "שאמר": 4050, 
  "ולהת@@": 4051, 
  "אירו@@": 4052, 
  "ימין": 4053, 
  "נחזור": 4054, 
  "המסר": 4055, 
  "משנים": 4056, 
  "המיו@@": 4057, 
  "רגליים": 4058, 
  "הגנה": 4059, 
  "וקו@@": 4060, 
  "טרי": 4061, 
  "הפחמן": 4062, 
  "קסם": 4063, 
  "תעשו": 4064, 
  "למלא": 4065, 
  "קוי": 4066, 
  "הכרי@@": 4067, 
  "נקים": 4068, 
  "1,000": 4069, 
  "מתאים": 4070, 
  "פף": 4071, 
  "חיו": 4072, 
  "התעשי@@": 4073, 
  "שאינו": 4074, 
  "מנוע": 4075, 
  "פורד": 4076, 
  "רויות": 4077, 
  "כרו@@": 4078, 
  "סד": 4079, 
  "אינטראקציה": 4080, 
  "ללי@@": 4081, 
  "לחדר": 4082, 
  "האמי@@": 4083, 
  "חשיבות": 4084, 
  "התחלה": 4085, 
  "פסה": 4086, 
  "עושות": 4087, 
  "השכלה": 4088, 
  "רוס": 4089, 
  "להסת@@": 4090, 
  "and": 4091, 
  "העור": 4092, 
  "המערב": 4093, 
  "דמוקר@@": 4094, 
  "נסתכל": 4095, 
  "שכש@@": 4096, 
  "המחשבים": 4097, 
  "שממש": 4098, 
  "וי": 4099, 
  "אמונה": 4100, 
  "אינטואי@@": 4101, 
  "סימן": 4102, 
  "העבר": 4103, 
  "חשמלי": 4104, 
  "כב": 4105, 
  "הרצאה": 4106, 
  "להקשיב": 4107, 
  "י-@@": 4108, 
  "קרובים": 4109, 
  "תכונות": 4110, 
  "ישן": 4111, 
  "דעת": 4112, 
  "א-@@": 4113, 
  "שרבים": 4114, 
  "צמחים": 4115, 
  "הכוכבים": 4116, 
  "ומפ@@": 4117, 
  "טיפה": 4118, 
  "מצאים": 4119, 
  "זכר": 4120, 
  "קורות": 4121, 
  "עבדו": 4122, 
  "צף": 4123, 
  "בעצמי": 4124, 
  "להזיז": 4125, 
  "ובאופן": 4126, 
  "מביטים": 4127, 
  "נסה": 4128, 
  "המקומות": 4129, 
  "סרטון": 4130, 
  "תנים": 4131, 
  "להפיק": 4132, 
  "ההתחלה": 4133, 
  "זמה": 4134, 
  "להתאים": 4135, 
  "כשיר": 4136, 
  "קופ@@": 4137, 
  "19": 4138, 
  "בשתי": 4139, 
  "ודרך": 4140, 
  "רחק": 4141, 
  "לחברה": 4142, 
  "רוד": 4143, 
  "להרים": 4144, 
  "המעו@@": 4145, 
  "ביד": 4146, 
  "מתכוונת": 4147, 
  "הרכ@@": 4148, 
  "חרקים": 4149, 
  "טיב": 4150, 
  "עמוקה": 4151, 
  "אבו@@": 4152, 
  "ת--": 4153, 
  "צילמתי": 4154, 
  "שהס@@": 4155, 
  "דורש": 4156, 
  "התחושה": 4157, 
  "באיזה": 4158, 
  "מערי@@": 4159, 
  "מחצית": 4160, 
  "יעשו": 4161, 
  "חיובי": 4162, 
  "שעדיין": 4163, 
  "שחורים": 4164, 
  "והכל": 4165, 
  "גתי": 4166, 
  "לרו@@": 4167, 
  "למוות": 4168, 
  "מיין": 4169, 
  "לפים": 4170, 
  "משפט": 4171, 
  "הכוכב": 4172, 
  "פות@@": 4173, 
  "לנצל": 4174, 
  "שימו@@": 4175, 
  "הפעולה": 4176, 
  "אמון": 4177, 
  "וח": 4178, 
  "רותים": 4179, 
  "בשה": 4180, 
  "פוג@@": 4181, 
  "זיהוי": 4182, 
  "פיסה": 4183, 
  "קק": 4184, 
  "ציג": 4185, 
  "ריהם": 4186, 
  "למנט": 4187, 
  "לרשת": 4188, 
  "הכר@@": 4189, 
  "איר@@": 4190, 
  "פעיל": 4191, 
  "הערך": 4192, 
  "ולמרות": 4193, 
  "פוטנציאל": 4194, 
  "לנגן": 4195, 
  "מאדים": 4196, 
  "אותות": 4197, 
  "ְ@@": 4198, 
  "יעשה": 4199, 
  "ופשוט": 4200, 
  "מלבד": 4201, 
  "חוד": 4202, 
  "ך-@@": 4203, 
  "פעמיים": 4204, 
  "פקד": 4205, 
  "שבכל": 4206, 
  "הירו@@": 4207, 
  "המהפכה": 4208, 
  "רחוב": 4209, 
  "יצירתיות": 4210, 
  "ברג": 4211, 
  "מימדי": 4212, 
  "בעניין": 4213, 
  "הארו@@": 4214, 
  "קיה": 4215, 
  "משתנים": 4216, 
  "יל": 4217, 
  "פרס@@": 4218, 
  "הלה": 4219, 
  "רופות": 4220, 
  "שמחים": 4221, 
  "קראתי": 4222, 
  "הספרים": 4223, 
  "מרכ@@": 4224, 
  "מאת": 4225, 
  "חוש": 4226, 
  "וכיצד": 4227, 
  "החליטו": 4228, 
  "זין": 4229, 
  "ולהיות": 4230, 
  "ביטחון": 4231, 
  "מקצו@@": 4232, 
  "הנשיא": 4233, 
  "לתכנן": 4234, 
  "עולמי": 4235, 
  "בארץ": 4236, 
  "1.@@": 4237, 
  "חיד": 4238, 
  "דיון": 4239, 
  "שמשהו": 4240, 
  "חשים": 4241, 
  "המדהים": 4242, 
  "לצורך": 4243, 
  "בשנים": 4244, 
  "קירה": 4245, 
  "מזג": 4246, 
  "ניכם": 4247, 
  "חש@@": 4248, 
  "קודות": 4249, 
  "בניגוד": 4250, 
  "ההנ@@": 4251, 
  "בתקופה": 4252, 
  "המכשיר": 4253, 
  "במדע": 4254, 
  "מסך": 4255, 
  "עשי@@": 4256, 
  "אמצ@@": 4257, 
  "מהג@@": 4258, 
  "להצליח": 4259, 
  "לעצ@@": 4260, 
  "אש@@": 4261, 
  "מתמטיקה": 4262, 
  "מהב@@": 4263, 
  "פגש": 4264, 
  "חוקר": 4265, 
  "מינה": 4266, 
  "עמוד": 4267, 
  "198@@": 4268, 
  "מייצר": 4269, 
  "נפלאה": 4270, 
  "מבוס@@": 4271, 
  "שהג@@": 4272, 
  "בקט@@": 4273, 
  "גרמו": 4274, 
  "חלק@@": 4275, 
  "בתח@@": 4276, 
  "בנג": 4277, 
  "איו@@": 4278, 
  "הוביל": 4279, 
  "אנסה": 4280, 
  "כדור-הארץ": 4281, 
  "ספת": 4282, 
  "אליות": 4283, 
  "עצו@@": 4284, 
  "להרשות": 4285, 
  "שיניים": 4286, 
  "בדתי": 4287, 
  "החדשים": 4288, 
  "חידה": 4289, 
  "שיטה": 4290, 
  "קרון": 4291, 
  "מקורות": 4292, 
  "סובלים": 4293, 
  "להשתנות": 4294, 
  "לוודא": 4295, 
  "בשוק": 4296, 
  "אדרי@@": 4297, 
  "הקטנות": 4298, 
  "הדור": 4299, 
  "מוי": 4300, 
  "פיסות": 4301, 
  "ציר": 4302, 
  "שמענו": 4303, 
  "זרי@@": 4304, 
  "לנקודה": 4305, 
  "בסרט": 4306, 
  "נכנ@@": 4307, 
  "חזו@@": 4308, 
  "ודאות": 4309, 
  "שלישית": 4310, 
  "סטית": 4311, 
  "המתו@@": 4312, 
  "ערי@@": 4313, 
  "יתכן": 4314, 
  "נפר@@": 4315, 
  "להא@@": 4316, 
  "השתמשנו": 4317, 
  "תפקי@@": 4318, 
  "דמת": 4319, 
  "המכוניות": 4320, 
  "טוח": 4321, 
  "ראשונה": 4322, 
  "לבקש": 4323, 
  "להתייחס": 4324, 
  "כוון": 4325, 
  "יונית": 4326, 
  "שהאנשים": 4327, 
  "וחי@@": 4328, 
  "חוז": 4329, 
  "ניתי": 4330, 
  "תקת": 4331, 
  "האק@@": 4332, 
  "במדי@@": 4333, 
  "מולי@@": 4334, 
  "נטי": 4335, 
  "קב": 4336, 
  "לדה": 4337, 
  "עוסק": 4338, 
  "מקווים": 4339, 
  "דוו@@": 4340, 
  "גלי": 4341, 
  "ניברסיטה": 4342, 
  "קליפורניה": 4343, 
  "סיבי": 4344, 
  "נכונה": 4345, 
  "מזרח": 4346, 
  "עבו@@": 4347, 
  "D": 4348, 
  "g@@": 4349, 
  "שולחן": 4350, 
  "הנקודות": 4351, 
  "לעצמם": 4352, 
  "חייכם": 4353, 
  "האמריקאים": 4354, 
  "מושך": 4355, 
  "להמציא": 4356, 
  "שיכולה": 4357, 
  "מודר@@": 4358, 
  "אכ@@": 4359, 
  "כלות": 4360, 
  "לקבוע": 4361, 
  "צפוי": 4362, 
  "שירותים": 4363, 
  "כשיש": 4364, 
  "מהק@@": 4365, 
  "מטוס": 4366, 
  "האו": 4367, 
  "ארק": 4368, 
  "סיוע": 4369, 
  "מלי": 4370, 
  "לחוות": 4371, 
  "משים": 4372, 
  "ריץ": 4373, 
  "מביט": 4374, 
  "מינ@@": 4375, 
  "התעופה": 4376, 
  "עשויה": 4377, 
  "צמיחה": 4378, 
  "הסט@@": 4379, 
  "שחשבתי": 4380, 
  "מודע": 4381, 
  "politics": 4382, 
  "הדלת": 4383, 
  "כלכלה": 4384, 
  "מאליו": 4385, 
  "במעלה": 4386, 
  "עזרו": 4387, 
  "האישי": 4388, 
  "קילומטר": 4389, 
  "קנות": 4390, 
  "השלישית": 4391, 
  "דני": 4392, 
  "שהעולם": 4393, 
  "פתחות": 4394, 
  "פרטים": 4395, 
  "בתוכו": 4396, 
  "עונה": 4397, 
  "תקים": 4398, 
  "חס": 4399, 
  "המדיה": 4400, 
  "שתו": 4401, 
  "כאל": 4402, 
  "אסון": 4403, 
  "בח": 4404, 
  "לרדת": 4405, 
  "חשבים": 4406, 
  "שנק@@": 4407, 
  "לפגוש": 4408, 
  "לולים": 4409, 
  "חופשי": 4410, 
  "החיה": 4411, 
  "צוע": 4412, 
  "הצוות": 4413, 
  "במצ@@": 4414, 
  "מולקולות": 4415, 
  "האדום": 4416, 
  "פיעה": 4417, 
  "נעלם": 4418, 
  "זכות": 4419, 
  "משטח": 4420, 
  "מאמר": 4421, 
  "education": 4422, 
  "הסבר": 4423, 
  "שלח": 4424, 
  "לבני": 4425, 
  "פרת": 4426, 
  "75": 4427, 
  "הרוו@@": 4428, 
  "ניהול": 4429, 
  "אקד@@": 4430, 
  "מספרת": 4431, 
  "רחים": 4432, 
  "הצליל": 4433, 
  "ארוחת": 4434, 
  "הרגו": 4435, 
  "נוגע": 4436, 
  "בבריטניה": 4437, 
  "אטרון": 4438, 
  "להעריך": 4439, 
  "דפים": 4440, 
  "שמד@@": 4441, 
  "ניקח": 4442, 
  "כביש": 4443, 
  "ואמרו": 4444, 
  "רותי": 4445, 
  "אירוע": 4446, 
  "סופר": 4447, 
  "נוכ@@": 4448, 
  "מביאים": 4449, 
  "המא@@": 4450, 
  "תמיכה": 4451, 
  "מסביר": 4452, 
  "בניית": 4453, 
  "נטית": 4454, 
  "מאת@@": 4455, 
  "לקראת": 4456, 
  "במספר": 4457, 
  "שהק@@": 4458, 
  ",@@": 4459, 
  "להרבה": 4460, 
  "צרה": 4461, 
  "המשימה": 4462, 
  "תפים": 4463, 
  "וליי@@": 4464, 
  "מבית": 4465, 
  "ונים": 4466, 
  "מוסדות": 4467, 
  "HIV": 4468, 
  "השד": 4469, 
  "כאון": 4470, 
  "זורי": 4471, 
  "הקיר": 4472, 
  "הירח": 4473, 
  "קוס": 4474, 
  "אנים": 4475, 
  "אבות": 4476, 
  "לנסוע": 4477, 
  "לשמש": 4478, 
  "התאו@@": 4479, 
  "תת-@@": 4480, 
  "ציוד": 4481, 
  "שתמיד": 4482, 
  "ראתה": 4483, 
  "שירה": 4484, 
  "גרו@@": 4485, 
  "נוז@@": 4486, 
  "שכי@@": 4487, 
  "an": 4488, 
  "t@@": 4489, 
  "נגמר": 4490, 
  "לחשב": 4491, 
  "מוביל": 4492, 
  "האהבה": 4493, 
  "רגה": 4494, 
  "עוזר": 4495, 
  "מקד": 4496, 
  "המדו@@": 4497, 
  "האלקטרו@@": 4498, 
  "האישה": 4499, 
  "הגלובלית": 4500, 
  "בטים": 4501, 
  "עולות": 4502, 
  "רגי@@": 4503, 
  "הערב": 4504, 
  "פרופסור": 4505, 
  "ואומרים": 4506, 
  "how": 4507, 
  "אח": 4508, 
  "הקשה": 4509, 
  "הצמיחה": 4510, 
  "הרפואה": 4511, 
  "מלי@@": 4512, 
  "ארץ": 4513, 
  "ללו@@": 4514, 
  "שירותי": 4515, 
  "רש@@": 4516, 
  "עיים": 4517, 
  "נונים": 4518, 
  "מריצים": 4519, 
  "יצאו": 4520, 
  "הפתרון": 4521, 
  "פרוייקטים": 4522, 
  "סיפרתי": 4523, 
  "מעצב": 4524, 
  "קני": 4525, 
  "הבין": 4526, 
  "לתם": 4527, 
  "להבחין": 4528, 
  "לתמוך": 4529, 
  "פונים": 4530, 
  "בערים": 4531, 
  "החולה": 4532, 
  "בשבילנו": 4533, 
  "חווה": 4534, 
  "פוליטית": 4535, 
  "יחס": 4536, 
  "החדר": 4537, 
  "פשים": 4538, 
  "באנגלית": 4539, 
  "לאח@@": 4540, 
  "הממשל": 4541, 
  "ההיא": 4542, 
  "ב-199@@": 4543, 
  "מיון": 4544, 
  "צליל": 4545, 
  "לעזאזל": 4546, 
  "ניית": 4547, 
  "קיע": 4548, 
  "ובעצם": 4549, 
  "פח": 4550, 
  "אנדר@@": 4551, 
  "באוויר": 4552, 
  "חסי@@": 4553, 
  "סס": 4554, 
  "אהיה": 4555, 
  "קציה": 4556, 
  "שובה": 4557, 
  "כ.א.": 4558, 
  "פנו": 4559, 
  "למת": 4560, 
  "לגבי@@": 4561, 
  "פילים": 4562, 
  "ליו@@": 4563, 
  "סיף": 4564, 
  "הציבורי": 4565, 
  "פילוסו@@": 4566, 
  "פילה": 4567, 
  "עיוו@@": 4568, 
  "קשרים": 4569, 
  "ברורה": 4570, 
  "לפתע": 4571, 
  "להק@@": 4572, 
  "חיילים": 4573, 
  "חנות": 4574, 
  "בבירור": 4575, 
  "ס-@@": 4576, 
  "להכנס": 4577, 
  "תד@@": 4578, 
  "אורגניזמים": 4579, 
  "הב": 4580, 
  "ארו": 4581, 
  "מנהלים": 4582, 
  "ניזם": 4583, 
  "גבוהים": 4584, 
  "כותב": 4585, 
  "לרי@@": 4586, 
  "קטל@@": 4587, 
  "שבין": 4588, 
  "מסר": 4589, 
  "גישות": 4590, 
  "אצבע": 4591, 
  "מחר": 4592, 
  "מזמן": 4593, 
  "בשפה": 4594, 
  "ביטוי": 4595, 
  "גנטי": 4596, 
  "ולר": 4597, 
  "מעוניינים": 4598, 
  "תשובות": 4599, 
  "התנאים": 4600, 
  "אסיה": 4601, 
  "לקחנו": 4602, 
  "להתקדם": 4603, 
  "בסיפור": 4604, 
  "2008": 4605, 
  "משרד": 4606, 
  "עבורכם": 4607, 
  "חופ@@": 4608, 
  "הסיכון": 4609, 
  "אורה": 4610, 
  "צבעים": 4611, 
  "אלפים": 4612, 
  "ליק": 4613, 
  "נהי@@": 4614, 
  "רכבת": 4615, 
  "סיפר": 4616, 
  "באיזו": 4617, 
  "מהר@@": 4618, 
  "בניו-יורק": 4619, 
  "ציור": 4620, 
  "פסולת": 4621, 
  "המראה": 4622, 
  "לאומיים": 4623, 
  "בילים": 4624, 
  "יימס": 4625, 
  "החלה": 4626, 
  "עלו": 4627, 
  "music": 4628, 
  "מתא@@": 4629, 
  "לחת": 4630, 
  "עזר": 4631, 
  "בדו@@": 4632, 
  "זרח": 4633, 
  "לחכות": 4634, 
  "הקרו@@": 4635, 
  "ירד": 4636, 
  "בתחתית": 4637, 
  "להילחם": 4638, 
  "2010": 4639, 
  "מיליארדי": 4640, 
  "הארוך": 4641, 
  "נועה": 4642, 
  "המתמטיקה": 4643, 
  "ואמרה": 4644, 
  "חנה": 4645, 
  "בעידן": 4646, 
  "משפחות": 4647, 
  "נוף": 4648, 
  "במערב": 4649, 
  "סול": 4650, 
  "נותנת": 4651, 
  "בוט": 4652, 
  "מאפשרת": 4653, 
  "תופ@@": 4654, 
  "ראשו@@": 4655, 
  "מאר@@": 4656, 
  "מורות": 4657, 
  "הסתכלתי": 4658, 
  "חורה": 4659, 
  "קולה": 4660, 
  "מתרח@@": 4661, 
  "שלט": 4662, 
  "אקלים": 4663, 
  "שפשוט": 4664, 
  "חלקיקים": 4665, 
  "ובו@@": 4666, 
  "המשטרה": 4667, 
  "משיך": 4668, 
  "נום": 4669, 
  "רעות": 4670, 
  "אוקי": 4671, 
  "עירו@@": 4672, 
  "פסת": 4673, 
  "סדרה": 4674, 
  "אפקט": 4675, 
  "כף": 4676, 
  "החלטה": 4677, 
  "התא": 4678, 
  "לאר@@": 4679, 
  "רחבה": 4680, 
  "שיא": 4681, 
  "ולל": 4682, 
  "קינג": 4683, 
  "הקטע": 4684, 
  "אי-פעם": 4685, 
  "שבועיים": 4686, 
  "באולם": 4687, 
  "זת": 4688, 
  "עולים": 4689, 
  "מער@@": 4690, 
  "מחלת": 4691, 
  "מאמ@@": 4692, 
  "ch@@": 4693, 
  "טיפו@@": 4694, 
  "חש": 4695, 
  "הייצור": 4696, 
  "טומים": 4697, 
  "פלאים": 4698, 
  "פרק": 4699, 
  "רונים": 4700, 
  "שגורם": 4701, 
  "לשאלה": 4702, 
  "שתות": 4703, 
  "סטיב": 4704, 
  "האפשרויות": 4705, 
  "מרג@@": 4706, 
  "הפוטנציאל": 4707, 
  "להצטרף": 4708, 
  "סנט": 4709, 
  "13@@": 4710, 
  "משל": 4711, 
  "עבודת": 4712, 
  "תראה": 4713, 
  "הידיים": 4714, 
  "מבוסס": 4715, 
  "עברה": 4716, 
  "שמעו@@": 4717, 
  "סקר": 4718, 
  "מגע": 4719, 
  "רפו@@": 4720, 
  "לטו@@": 4721, 
  "הלבן": 4722, 
  "שיכולתי": 4723, 
  "העצים": 4724, 
  "תבנית": 4725, 
  "e@@": 4726, 
  "השונות": 4727, 
  "מאי": 4728, 
  "חת@@": 4729, 
  "כיח": 4730, 
  "חפצים": 4731, 
  "שפו@@": 4732, 
  "כתו@@": 4733, 
  "לקי": 4734, 
  "לפה": 4735, 
  "רגעים": 4736, 
  "הוב": 4737, 
  "כוו@@": 4738, 
  "רדיו": 4739, 
  "ההג@@": 4740, 
  "סיס": 4741, 
  "כמויות": 4742, 
  "ולומר": 4743, 
  "המרחב": 4744, 
  "תיבה": 4745, 
  "הכדור": 4746, 
  "חלקי": 4747, 
  "בהמשך": 4748, 
  "היופי": 4749, 
  "מהאו@@": 4750, 
  "TED@@": 4751, 
  "מהירה": 4752, 
  "מדו": 4753, 
  "ָ@@": 4754, 
  "התרופה": 4755, 
  "בהכ@@": 4756, 
  "האושר": 4757, 
  "בשום": 4758, 
  "מהס@@": 4759, 
  "הרגשות": 4760, 
  "למידים": 4761, 
  "מבקש": 4762, 
  "המוצ@@": 4763, 
  "אמה": 4764, 
  "התלמידים": 4765, 
  "מעגל": 4766, 
  "בדומה": 4767, 
  "ציונ@@": 4768, 
  "הבינו": 4769, 
  "יחדיו": 4770, 
  "סך": 4771, 
  "ביע": 4772, 
  "חברי@@": 4773, 
  "ריאה": 4774, 
  "תואר": 4775, 
  "יונ@@": 4776, 
  "צוני": 4777, 
  "הלכו": 4778, 
  "אזרחים": 4779, 
  "הכל@@": 4780, 
  "הבדלים": 4781, 
  "בפרו@@": 4782, 
  "ובנוסף": 4783, 
  "העם": 4784, 
  "שפעת": 4785, 
  "המצלמה": 4786, 
  "קטיביות": 4787, 
  "רבי": 4788, 
  "גדלו": 4789, 
  "לול@@": 4790, 
  "בכדור": 4791, 
  "החומרים": 4792, 
  "דמויות": 4793, 
  "ולא@@": 4794, 
  "בחשבון": 4795, 
  "צון": 4796, 
  "לנשים": 4797, 
  "מבחי@@": 4798, 
  "אמץ": 4799, 
  "ממי@@": 4800, 
  "הניתוח": 4801, 
  "שיח@@": 4802, 
  "ספו@@": 4803, 
  "בלונדון": 4804, 
  "אימי": 4805, 
  "כוונתי": 4806, 
  "בטחון": 4807, 
  "בדנו": 4808, 
  "סליחה": 4809, 
  "20@@": 4810, 
  "גנטית": 4811, 
  "לדרך": 4812, 
  "דענים": 4813, 
  "אנית": 4814, 
  "השפעות": 4815, 
  "מסה": 4816, 
  "הרפואי": 4817, 
  "דירות": 4818, 
  "התבונ@@": 4819, 
  "עברנו": 4820, 
  "התפתחות": 4821, 
  "ברט": 4822, 
  "ובגלל": 4823, 
  "נשא@@": 4824, 
  "100,000": 4825, 
  "בכו@@": 4826, 
  "הבלו@@": 4827, 
  "מוחלט": 4828, 
  "ניו-יורק": 4829, 
  "חורות": 4830, 
  "שירים": 4831, 
  "בטווח": 4832, 
  "שמעניין": 4833, 
  "לדע@@": 4834, 
  "התגובה": 4835, 
  "בוס": 4836, 
  "הצער": 4837, 
  "עש": 4838, 
  "באורך": 4839, 
  "גמור": 4840, 
  "ערכים": 4841, 
  "נף": 4842, 
  "הסתכלו": 4843, 
  "פרץ": 4844, 
  "דיוק": 4845, 
  "הלכנו": 4846, 
  "סביבנו": 4847, 
  "ו-": 4848, 
  "כוניות": 4849, 
  "מודים": 4850, 
  "זהים": 4851, 
  "שיעורי": 4852, 
  "דס": 4853, 
  "עכ@@": 4854, 
  "בסרטן": 4855, 
  "אשה": 4856, 
  "סקופ": 4857, 
  "והדרך": 4858, 
  "וליצור": 4859, 
  "בריאים": 4860, 
  "לציין": 4861, 
  "רכן": 4862, 
  "רגילה": 4863, 
  "הצבא": 4864, 
  "סוס": 4865, 
  "קולות": 4866, 
  "לדת": 4867, 
  "טרף": 4868, 
  "שהנ@@": 4869, 
  "באמ@@": 4870, 
  "בחודש": 4871, 
  "בחירות": 4872, 
  "נוני": 4873, 
  "טס@@": 4874, 
  "שחשוב": 4875, 
  "התוכנית": 4876, 
  "חיפוש": 4877, 
  "תלת-@@": 4878, 
  "בודדים": 4879, 
  "ניסיון": 4880, 
  "בחר": 4881, 
  "MIT": 4882, 
  "האמריקאית": 4883, 
  "העניים": 4884, 
  "המוסיקה": 4885, 
  "המשבר": 4886, 
  "פשטות": 4887, 
  "האתר": 4888, 
  "600": 4889, 
  "בלב": 4890, 
  "אוגר@@": 4891, 
  "סוד": 4892, 
  "מינו": 4893, 
  "בזכות": 4894, 
  "משתמשת": 4895, 
  "הפחד": 4896, 
  "עידה": 4897, 
  "הסטו@@": 4898, 
  "כית": 4899, 
  "כותבים": 4900, 
  "משפיע": 4901, 
  "אהב@@": 4902, 
  "רעב": 4903, 
  "אליי": 4904, 
  "ביולוגית": 4905, 
  "האתגרים": 4906, 
  "בזמנו": 4907, 
  "עשרים": 4908, 
  "זמנים": 4909, 
  "בונ@@": 4910, 
  "המתפתח": 4911, 
  "השיטה": 4912, 
  "הכלכלי": 4913, 
  "באיזור": 4914, 
  "הנוכחי": 4915, 
  "יעילה": 4916, 
  "גב": 4917, 
  "לעים": 4918, 
  "האחרות": 4919, 
  "הא": 4920, 
  "שעכשיו": 4921, 
  "ובמקום": 4922, 
  "שנמצאים": 4923, 
  "הבנו": 4924, 
  "בנינו": 4925, 
  "קין": 4926, 
  "ולוגי": 4927, 
  "דלו": 4928, 
  "בשו@@": 4929, 
  "רסה": 4930, 
  "ננ@@": 4931, 
  "אקו@@": 4932, 
  "בוק": 4933, 
  "היצורים": 4934, 
  "ולדעתי": 4935, 
  "הפרעות": 4936, 
  "להבטיח": 4937, 
  "המורה": 4938, 
  "השלכות": 4939, 
  "שומע": 4940, 
  "ילדי@@": 4941, 
  "קשורים": 4942, 
  "יכול@@": 4943, 
  "בעצמו": 4944, 
  "וור@@": 4945, 
  "חשובות": 4946, 
  "להז@@": 4947, 
  "דיברו": 4948, 
  "הסרטים": 4949, 
  "זונה": 4950, 
  "משותפת": 4951, 
  "מלריה": 4952, 
  "מתאר": 4953, 
  "הפעילות": 4954, 
  "מחוברים": 4955, 
  "המשך": 4956, 
  "המז@@": 4957, 
  "תלמידים": 4958, 
  "פרויקט": 4959, 
  "הדמוקר@@": 4960, 
  "אחראי": 4961, 
  "קיי": 4962, 
  "תחרות": 4963, 
  "שנת@@": 4964, 
  "צוו@@": 4965, 
  "וסו@@": 4966, 
  "מתקדמים": 4967, 
  "מרח@@": 4968, 
  "2007": 4969, 
  "מקומיים": 4970, 
  "לעצמו": 4971, 
  "שמדובר": 4972, 
  "זוהר": 4973, 
  "דינו": 4974, 
  "התינוק": 4975, 
  "למשוך": 4976, 
  "מטורף": 4977, 
  "האמ@@": 4978, 
  "ביו-@@": 4979, 
  "ארתי": 4980, 
  "בכפר": 4981, 
  "סכום": 4982, 
  "טונים": 4983, 
  "שהר@@": 4984, 
  "ברוב": 4985, 
  "יל@@": 4986, 
  "נדבר": 4987, 
  "ותו@@": 4988, 
  "תעשה": 4989, 
  "מפסי@@": 4990, 
  "הכפר": 4991, 
  "הדת": 4992, 
  "נייד": 4993, 
  "רעש": 4994, 
  "קשת": 4995, 
  "עשיית": 4996, 
  "שחלק": 4997, 
  "שלפני": 4998, 
  "באותם": 4999, 
  "שהכי": 5000, 
  "לומד": 5001, 
  "רינו": 5002, 
  "ִ@@": 5003, 
  "להכ@@": 5004, 
  "יחי@@": 5005, 
  "ישת@@": 5006, 
  "דיל": 5007, 
  "לע": 5008, 
  "אינטי@@": 5009, 
  "שמתרחש": 5010, 
  "חוצה": 5011, 
  "27": 5012, 
  "סיכו@@": 5013, 
  "יעבוד": 5014, 
  "שאומרים": 5015, 
  "נמצאות": 5016, 
  "במרחב": 5017, 
  "עול": 5018, 
  "גילה": 5019, 
  "הסוג": 5020, 
  "פינו": 5021, 
  "גלובלי": 5022, 
  "דיס@@": 5023, 
  "אמים": 5024, 
  "השיחה": 5025, 
  "חידות": 5026, 
  "מפתח": 5027, 
  "משלמים": 5028, 
  "אויר": 5029, 
  "השבוע": 5030, 
  "החד@@": 5031, 
  "תהיו": 5032, 
  "חיש": 5033, 
  "ברנו": 5034, 
  "חוב": 5035, 
  "צפון": 5036, 
  "שמת": 5037, 
  "כא": 5038, 
  "ולוגיות": 5039, 
  "שבעה": 5040, 
  "העץ": 5041, 
  "ממשלות": 5042, 
  "הכביש": 5043, 
  "מייד": 5044, 
  "קוב": 5045, 
  "האויר": 5046, 
  "חדות": 5047, 
  "מימדים": 5048, 
  "חקר": 5049, 
  "בתא": 5050, 
  "עיצ@@": 5051, 
  "שבי": 5052, 
  "ב-TED": 5053, 
  "שיפור": 5054, 
  "נסיון": 5055, 
  "להנ@@": 5056, 
  "אנס": 5057, 
  "מאיפה": 5058, 
  "סטטיס@@": 5059, 
  "ממות": 5060, 
  "שבנו": 5061, 
  "פיפות": 5062, 
  "שוויון": 5063, 
  "מציאות": 5064, 
  "העד@@": 5065, 
  "עשיר": 5066, 
  "תחו@@": 5067, 
  "בית-@@": 5068, 
  "שיטות": 5069, 
  "ולית": 5070, 
  "עמים": 5071, 
  "האפ@@": 5072, 
  "התחילה": 5073, 
  "בלנות": 5074, 
  "חלקם": 5075, 
  "המפה": 5076, 
  "סודות": 5077, 
  "תארו": 5078, 
  "B": 5079, 
  "הרות": 5080, 
  "להוביל": 5081, 
  "דלת": 5082, 
  "כשזה": 5083, 
  "מאפשרים": 5084, 
  "פועלת": 5085, 
  "רכיב": 5086, 
  "בסביבות": 5087, 
  "וכפי": 5088, 
  "האזרחים": 5089, 
  "בקהילה": 5090, 
  "טלפונים": 5091, 
  "האיידס": 5092, 
  "המוע@@": 5093, 
  "זכ@@": 5094, 
  "שחקן": 5095, 
  "הבחירה": 5096, 
  "עצמן": 5097, 
  "רכנים": 5098, 
  "יו": 5099, 
  "גילוי": 5100, 
  "לשעבר": 5101, 
  "להתגבר": 5102, 
  "סיכונים": 5103, 
  "למז@@": 5104, 
  "ענים": 5105, 
  "לשנה": 5106, 
  "מימון": 5107, 
  "פורט": 5108, 
  "זוכה": 5109, 
  "אינט@@": 5110, 
  "קיב@@": 5111, 
  "קצה": 5112, 
  "הפכתי": 5113, 
  "ספרות": 5114, 
  "חסים": 5115, 
  "זמין": 5116, 
  "ששם": 5117, 
  "ותי@@": 5118, 
  "לזוז": 5119, 
  "ארתור": 5120, 
  "מלמדים": 5121, 
  "דלים": 5122, 
  "פלת": 5123, 
  "הסוף": 5124, 
  "נגיד": 5125, 
  "שפות": 5126, 
  "ציבורי": 5127, 
  "שאחד": 5128, 
  "שמראה": 5129, 
  "נהגו": 5130, 
  "התפקיד": 5131, 
  "בכוח": 5132, 
  "ויו@@": 5133, 
  "מזי@@": 5134, 
  "וירטו@@": 5135, 
  "הפרי@@": 5136, 
  "פוך": 5137, 
  "לאותו": 5138, 
  "החברתי": 5139, 
  "שלון": 5140, 
  "לתח@@": 5141, 
  "שומים": 5142, 
  "דינות": 5143, 
  "כפול": 5144, 
  "קודת": 5145, 
  "השלי@@": 5146, 
  "יק": 5147, 
  "גלות": 5148, 
  "חפים": 5149, 
  "הזכ@@": 5150, 
  "האמיתיים": 5151, 
  "כמשמעו": 5152, 
  "האמריק@@": 5153, 
  "טיסה": 5154, 
  "חדת": 5155, 
  "אהבו": 5156, 
  "להוכיח": 5157, 
  "יצרתי": 5158, 
  "מערב": 5159, 
  "לאחרים": 5160, 
  "מדעית": 5161, 
  "הדבורים": 5162, 
  "זיים": 5163, 
  "המשפ@@": 5164, 
  "מסוימות": 5165, 
  "שון": 5166, 
  "לגיל": 5167, 
  "כנסו": 5168, 
  "זוכים": 5169, 
  "מתמודדים": 5170, 
  "ביליתי": 5171, 
  "לסוג": 5172, 
  "פרו": 5173, 
  "בדיקות": 5174, 
  "מחזור": 5175, 
  "קומה": 5176, 
  "התפר@@": 5177, 
  "לטוס": 5178, 
  "בקו": 5179, 
  "תיבת": 5180, 
  "בריטניה": 5181, 
  "ולצ@@": 5182, 
  "ולהפוך": 5183, 
  "האפש@@": 5184, 
  "ברחובות": 5185, 
  "המקור": 5186, 
  "יהו@@": 5187, 
  "לפנות": 5188, 
  "דורות": 5189, 
  "המקרה": 5190, 
  "לערוך": 5191, 
  "כנו": 5192, 
  "לטובת": 5193, 
  "ההק@@": 5194, 
  "שזוהי": 5195, 
  "הירוק": 5196, 
  "קטיבית": 5197, 
  "פונק@@": 5198, 
  "הטכנולוגיות": 5199, 
  "השקעות": 5200, 
  "סכ@@": 5201, 
  "נדר@@": 5202, 
  "i@@": 5203, 
  "שאלנו": 5204, 
  "יצירה": 5205, 
  "האל": 5206, 
  "בהנ@@": 5207, 
  "חיסון": 5208, 
  "בוחנים": 5209, 
  "יעילות": 5210, 
  "לבלות": 5211, 
  "שולחים": 5212, 
  "פרנסיסקו": 5213, 
  "יגיע": 5214, 
  "צבא": 5215, 
  "ההכ@@": 5216, 
  "היצירה": 5217, 
  "תביטו": 5218, 
  "תבניות": 5219, 
  "צריכת": 5220, 
  "הדלק": 5221, 
  "כונים": 5222, 
  "להתבונן": 5223, 
  "והרעיון": 5224, 
  "תז@@": 5225, 
  "פחם": 5226, 
  "סקס": 5227, 
  "יסוד": 5228, 
  "ספרו": 5229, 
  "גוש": 5230, 
  "גדים": 5231, 
  "ספצי@@": 5232, 
  "קצרה": 5233, 
  "מצלמה": 5234, 
  "ענקית": 5235, 
  "נקי": 5236, 
  "מאמץ": 5237, 
  "דדת": 5238, 
  "דמים": 5239, 
  "שזאת": 5240, 
  "אד": 5241, 
  "מפתי@@": 5242, 
  "נעבור": 5243, 
  "נך": 5244, 
  "עדיף": 5245, 
  "22": 5246, 
  "שית@@": 5247, 
  "פתחו": 5248, 
  "בכלכלה": 5249, 
  "לקה": 5250, 
  "שמאפשר": 5251, 
  "מסח@@": 5252, 
  "הגודל": 5253, 
  "ריר": 5254, 
  "הצפוני": 5255, 
  "תשוקה": 5256, 
  "לסביבה": 5257, 
  "החיו@@": 5258, 
  "טני": 5259, 
  "עצומות": 5260, 
  "מהפכה": 5261, 
  "ביצ@@": 5262, 
  "אפגניסטן": 5263, 
  "נבנה": 5264, 
  "הלכה": 5265, 
  "עניים": 5266, 
  "מנט@@": 5267, 
  "התרחש": 5268, 
  "מאב@@": 5269, 
  "הנוף": 5270, 
  "הרכבת": 5271, 
  "רצינית": 5272, 
  "לעוף": 5273, 
  "אנושיות": 5274, 
  "רכם": 5275, 
  "המשחקים": 5276, 
  "לייה": 5277, 
  "מאס": 5278, 
  "מלא@@": 5279, 
  "לעסוק": 5280, 
  "להזד@@": 5281, 
  "להצי@@": 5282, 
  "מהווה": 5283, 
  "רכיבים": 5284, 
  "נסים": 5285, 
  "וכי@@": 5286, 
  "דירה": 5287, 
  "לנושא": 5288, 
  "2,000": 5289, 
  "טוני": 5290, 
  "כיל": 5291, 
  "בהתאם": 5292, 
  "שטות": 5293, 
  "מקדי@@": 5294, 
  "איטי": 5295, 
  "הלת": 5296, 
  "נצח": 5297, 
  "פשוטו": 5298, 
  "שאותו": 5299, 
  "חלום": 5300, 
  "לטווח": 5301, 
  "השתמשתי": 5302, 
  "היסטו@@": 5303, 
  "למדנו": 5304, 
  "הטבעית": 5305, 
  "אלגורי@@": 5306, 
  "גזר": 5307, 
  "המעבר": 5308, 
  "רוי": 5309, 
  "שלחו": 5310, 
  "פיתחנו": 5311, 
  "שבע@@": 5312, 
  "תמי@@": 5313, 
  "בארי": 5314, 
  "גבוהות": 5315, 
  "יא@@": 5316, 
  "ידס": 5317, 
  "הקרוב": 5318, 
  "להרוויח": 5319, 
  "פוליטיקה": 5320, 
  "שכולכם": 5321, 
  "תכל": 5322, 
  "הגדרה": 5323, 
  "תלת": 5324, 
  "כחלק": 5325, 
  "ומי": 5326, 
  "רקע": 5327, 
  "מע": 5328, 
  "S": 5329, 
  "והיום": 5330, 
  "הבט@@": 5331, 
  "הטר@@": 5332, 
  "באנרגיה": 5333, 
  "הפרטים": 5334, 
  "גרות": 5335, 
  "ראו@@": 5336, 
  "עיונות": 5337, 
  "אוו@@": 5338, 
  "מכשירים": 5339, 
  "שהכל": 5340, 
  "מאבדים": 5341, 
  "דווקא": 5342, 
  "ובאותו": 5343, 
  "הכלכלית": 5344, 
  "בג": 5345, 
  "בעו": 5346, 
  "כרות": 5347, 
  "לאמ@@": 5348, 
  "נמש@@": 5349, 
  "לבקר": 5350, 
  "החיי@@": 5351, 
  "כתבו": 5352, 
  "הרג": 5353, 
  "השינה": 5354, 
  "תול@@": 5355, 
  "שבות": 5356, 
  "מסכימים": 5357, 
  "להזכיר": 5358, 
  "T": 5359, 
  "אי-אפשר": 5360, 
  "בס": 5361, 
  "אשל@@": 5362, 
  "מסתו@@": 5363, 
  "הביו@@": 5364, 
  "להתרחש": 5365, 
  "מפרי@@": 5366, 
  "חולקים": 5367, 
  "השקעה": 5368, 
  "אגו@@": 5369, 
  "במידע": 5370, 
  "כפיים": 5371, 
  "סטודנט": 5372, 
  "במסגרת": 5373, 
  "בדבר": 5374, 
  "קולו@@": 5375, 
  "הוו@@": 5376, 
  "המורכבות": 5377, 
  "הודות": 5378, 
  "ארבעת": 5379, 
  "הלא-@@": 5380, 
  "זכוכית": 5381, 
  "שנע@@": 5382, 
  "שעובדים": 5383, 
  "מסלול": 5384, 
  "העובדים": 5385, 
  "משקיעים": 5386, 
  "בילות": 5387, 
  "והיינו": 5388, 
  "וחלק": 5389, 
  "נטו": 5390, 
  "הכחול": 5391, 
  "ואכן": 5392, 
  "ראיות": 5393, 
  "לויות": 5394, 
  "לוותר": 5395, 
  "עונים": 5396, 
  "טוף": 5397, 
  "מודד": 5398, 
  "צוגה": 5399, 
  "לעזוב": 5400, 
  "הייה": 5401, 
  "ב-19@@": 5402, 
  "אתחיל": 5403, 
  "המשקל": 5404, 
  "זום": 5405, 
  "גיעים": 5406, 
  "אחרונה": 5407, 
  "הרא@@": 5408, 
  "למקומות": 5409, 
  "במורד": 5410, 
  "לטעון": 5411, 
  "ובכך": 5412, 
  "בכלא": 5413, 
  "מור@@": 5414, 
  "למצ@@": 5415, 
  "במד@@": 5416, 
  "כוכבי": 5417, 
  "הגלו@@": 5418, 
  "הארגון": 5419, 
  "ראק": 5420, 
  "טיוב": 5421, 
  "biology": 5422, 
  "הילדה": 5423, 
  "כילה": 5424, 
  "מהעולם": 5425, 
  "אינטלקטו@@": 5426, 
  "סופי": 5427, 
  "יומיים": 5428, 
  "לגה": 5429, 
  "הגבוה": 5430, 
  "מתפתחות": 5431, 
  "במשרד": 5432, 
  "בת-@@": 5433, 
  "דעו": 5434, 
  "כשל": 5435, 
  "ננסה": 5436, 
  "משפח@@": 5437, 
  "הלימוד": 5438, 
  "לעיצוב": 5439, 
  "ומדוע": 5440, 
  "לוק": 5441, 
  "הוידאו": 5442, 
  "להרחיב": 5443, 
  "איום": 5444, 
  "בנק": 5445, 
  "מרתק": 5446, 
  "בקצרה": 5447, 
  "שכח": 5448, 
  "בעד": 5449, 
  "עיצו@@": 5450, 
  "אטו@@": 5451, 
  "חסרת": 5452, 
  "קראו": 5453, 
  "מומחים": 5454, 
  "תמצאו": 5455, 
  "הביטוי": 5456, 
  "ניי": 5457, 
  "חזון": 5458, 
  "גיד": 5459, 
  "באוקיינוס": 5460, 
  "עס": 5461, 
  "גרי": 5462, 
  "מתייחסים": 5463, 
  "לעודד": 5464, 
  "המדענים": 5465, 
  "מקרי": 5466, 
  "לשאת": 5467, 
  "50,000": 5468, 
  "ספקטיבה": 5469, 
  "האת@@": 5470, 
  "נעשו": 5471, 
  "המיקרו@@": 5472, 
  "להשי@@": 5473, 
  "חזור": 5474, 
  "עשירים": 5475, 
  "נול@@": 5476, 
  "שרו": 5477, 
  "עיתו@@": 5478, 
  "00": 5479, 
  "העלות": 5480, 
  "הפלי@@": 5481, 
  "המקורי": 5482, 
  "לרוץ": 5483, 
  "הקוד": 5484, 
  "לזמן": 5485, 
  "דרק": 5486, 
  "יראה": 5487, 
  "בקיץ": 5488, 
  "סיום": 5489, 
  "על-פי": 5490, 
  "2009": 5491, 
  "טקסט": 5492, 
  "לרצות": 5493, 
  "הזהב": 5494, 
  "השינויים": 5495, 
  "שעים": 5496, 
  "שימושי": 5497, 
  "פרא@@": 5498, 
  "ואן": 5499, 
  "ערו@@": 5500, 
  "מודה": 5501, 
  "זכו@@": 5502, 
  "הלאומית": 5503, 
  "הופעה": 5504, 
  "השר@@": 5505, 
  "ניע": 5506, 
  "התחתונה": 5507, 
  "לבריאות": 5508, 
  "א.@@": 5509, 
  "שרשרת": 5510, 
  "גיים": 5511, 
  "p@@": 5512, 
  "אלכ@@": 5513, 
  "ההר": 5514, 
  "אצלנו": 5515, 
  "מוחות": 5516, 
  "זרו": 5517, 
  "מעורב": 5518, 
  "כיות": 5519, 
  "הצבע": 5520, 
  "h@@": 5521, 
  "לישון": 5522, 
  "ספירה": 5523, 
  "65": 5524, 
  "התוכנה": 5525, 
  "שרוצים": 5526, 
  "המקרים": 5527, 
  "זנים": 5528, 
  "TEDx@@": 5529, 
  "ואילו": 5530, 
  "ינים": 5531, 
  "וירוס": 5532, 
  "לחלל": 5533, 
  "וראיתי": 5534, 
  "הנושאים": 5535, 
  "ובע@@": 5536, 
  "מעשה": 5537, 
  "b@@": 5538, 
  "אשתי": 5539, 
  "פרטי": 5540, 
  "במשקל": 5541, 
  "נתון": 5542, 
  "מלאים": 5543, 
  "עקרונות": 5544, 
  "תיאו@@": 5545, 
  "פיס": 5546, 
  "מזכיר": 5547, 
  "החמלה": 5548, 
  "ץ-@@": 5549, 
  "economics": 5550, 
  "דא@@": 5551, 
  "עלת": 5552, 
  "סיפ@@": 5553, 
  "מפורסם": 5554, 
  "נלה@@": 5555, 
  "הכוחות": 5556, 
  "לימות": 5557, 
  "אנגליה": 5558, 
  "לביה": 5559, 
  "נזק": 5560, 
  "צד@@": 5561, 
  "נוירונים": 5562, 
  "הפרטי": 5563, 
  "התקופה": 5564, 
  "מקבלת": 5565, 
  "בבת": 5566, 
  "סקה": 5567, 
  "מביה": 5568, 
  "23": 5569, 
  "הטלוויזיה": 5570, 
  "חיוני": 5571, 
  "אתרים": 5572, 
  "מיליונים": 5573, 
  "קריאה": 5574, 
  "שמסו@@": 5575, 
  "המשכתי": 5576, 
  "מחפש": 5577, 
  "ומצ@@": 5578, 
  "הלחץ": 5579, 
  "למוח": 5580, 
  "תקופת": 5581, 
  "שתית": 5582, 
  "לנים": 5583, 
  "מצויין": 5584, 
  "ביולוגי": 5585, 
  "תוב": 5586, 
  "במחשב": 5587, 
  "וה-@@": 5588, 
  "טלים": 5589, 
  "בגדול": 5590, 
  "ניין": 5591, 
  "ארוכים": 5592, 
  "בקות": 5593, 
  "סמו@@": 5594, 
  "העיקרית": 5595, 
  "המודרנית": 5596, 
  "עבדנו": 5597, 
  "דייויד": 5598, 
  "רצון": 5599, 
  "קרונות": 5600, 
  "יעילים": 5601, 
  "זינים": 5602, 
  "ולנסות": 5603, 
  "ען": 5604, 
  "נכנסתי": 5605, 
  "מימד": 5606, 
  "בנסיון": 5607, 
  "אינדי@@": 5608, 
  "מותו": 5609, 
  "מימן": 5610, 
  "צעצו@@": 5611, 
  "2005": 5612, 
  "ציבורית": 5613, 
  "creativity": 5614, 
  "זמני": 5615, 
  "בינינו": 5616, 
  "לשחרר": 5617, 
  "מתקדם": 5618, 
  "הילה": 5619, 
  "פתי": 5620, 
  "מטית": 5621, 
  "סג@@": 5622, 
  "והז@@": 5623, 
  "עדין": 5624, 
  "קמה": 5625, 
  "השתמש": 5626, 
  "המשיך": 5627, 
  "קהילות": 5628, 
  "טריליון": 5629, 
  "מאושר": 5630, 
  "אדיר": 5631, 
  "החמי@@": 5632, 
  "נורמלי": 5633, 
  "בתחו@@": 5634, 
  "תבי@@": 5635, 
  "אציג": 5636, 
  "מוכנה": 5637, 
  "חסות": 5638, 
  "מבחן": 5639, 
  "באור": 5640, 
  "החקלאות": 5641, 
  "בקושי": 5642, 
  "העסק": 5643, 
  "מוסרית": 5644, 
  "מסיי@@": 5645, 
  "מפתחים": 5646, 
  "הרופא": 5647, 
  "זמנית": 5648, 
  "תוף": 5649, 
  "הנסי@@": 5650, 
  "אוניברס@@": 5651, 
  "נהלים": 5652, 
  "change": 5653, 
  "לי-@@": 5654, 
  "עוסקים": 5655, 
  "ברית": 5656, 
  "אחריו": 5657, 
  "שהדבר": 5658, 
  "מופיע": 5659, 
  "מפעל": 5660, 
  "ברירה": 5661, 
  "מספק": 5662, 
  "196@@": 5663, 
  "מגיבים": 5664, 
  "אנט@@": 5665, 
  "אינטליגנציה": 5666, 
  "נפלאים": 5667, 
  "נאה": 5668, 
  "הציור": 5669, 
  "ואל": 5670, 
  "הוי@@": 5671, 
  "קיצוני": 5672, 
  "ונת": 5673, 
  "חמצני": 5674, 
  "צורים": 5675, 
  "יורדים": 5676, 
  "לויזיה": 5677, 
  "טא": 5678, 
  "תוכ@@": 5679, 
  "מניחים": 5680, 
  "טבעית": 5681, 
  "נאל@@": 5682, 
  "עוז@@": 5683, 
  "הגלובלי": 5684, 
  "רפואה": 5685, 
  "אכז@@": 5686, 
  "er@@": 5687, 
  "בץ": 5688, 
  "טעם": 5689, 
  "נאלצ@@": 5690, 
  "להשתתף": 5691, 
  "המקומי": 5692, 
  "שובים": 5693, 
  "תלויים": 5694, 
  "טחון": 5695, 
  "המערבי": 5696, 
  "כ-": 5697, 
  "עצבים": 5698, 
  "והאם": 5699, 
  "לבעיות": 5700, 
  "שלושים": 5701, 
  "מייצ@@": 5702, 
  "לינו": 5703, 
  "שסו@@": 5704, 
  "לעומק": 5705, 
  "הנייד": 5706, 
  "צעירה": 5707, 
  "אמורה": 5708, 
  "E": 5709, 
  "שככל": 5710, 
  "שמגיע": 5711, 
  "ולמצוא": 5712, 
  "בועות": 5713, 
  "לייצור": 5714, 
  "ניינת": 5715, 
  "חל": 5716, 
  "ההכנסה": 5717, 
  "כניקה": 5718, 
  "אומה": 5719, 
  "מסבי@@": 5720, 
  "רכתי": 5721, 
  "מדויי@@": 5722, 
  "גורים": 5723, 
  "צירה": 5724, 
  "שראיתם": 5725, 
  "בריו": 5726, 
  "רוברט": 5727, 
  "השקט": 5728, 
  "גמי@@": 5729, 
  "העסקים": 5730, 
  "הכנס@@": 5731, 
  "ערת": 5732, 
  "שהגיע": 5733, 
  "בודקים": 5734, 
  "מפרטורה": 5735, 
  "האזורים": 5736, 
  "פיר": 5737, 
  "המדיניות": 5738, 
  "צצות": 5739, 
  "ירידה": 5740, 
  "s@@": 5741, 
  "פתוחה": 5742, 
  "שהי": 5743, 
  "לוקת": 5744, 
  "בין-@@": 5745, 
  "השפ@@": 5746, 
  "פרסו@@": 5747, 
  "כימיקלים": 5748, 
  "כשאנשים": 5749, 
  "פסיכו@@": 5750, 
  "שמצאנו": 5751, 
  "ולפני": 5752, 
  "brain": 5753, 
  "באמצ@@": 5754, 
  "המכונות": 5755, 
  "ראי@@": 5756, 
  "האוטו@@": 5757, 
  "רטו@@": 5758, 
  "בכנס": 5759, 
  "קרקע": 5760, 
  "בעיצוב": 5761, 
  "התחתון": 5762, 
  "מוגבל": 5763, 
  "בטלוויזיה": 5764, 
  "הצעיר": 5765, 
  "יצאתי": 5766, 
  "נדמה": 5767, 
  "טכנולוגית": 5768, 
  "כוללת": 5769, 
  "אליך": 5770, 
  "לכדי": 5771, 
  "פוט": 5772, 
  "הקשרים": 5773, 
  "ויה": 5774, 
  "תחנות": 5775, 
  "מיוחדת": 5776, 
  "בממוצע": 5777, 
  "בינתיים": 5778, 
  "חמי@@": 5779, 
  "כירה": 5780, 
  "O": 5781, 
  "יער": 5782, 
  "טיפולים": 5783, 
  "מכניסים": 5784, 
  "אותיות": 5785, 
  "תופעות": 5786, 
  "החשובים": 5787, 
  "פרות": 5788, 
  "מטיקה": 5789, 
  "והיתה": 5790, 
  "שפת": 5791, 
  "בקר": 5792, 
  "בקרוב": 5793, 
  "להט": 5794, 
  "החשמ@@": 5795, 
  "הרחק": 5796, 
  "כבישים": 5797, 
  "במקביל": 5798, 
  "לקת": 5799, 
  "הצילום": 5800, 
  "הביטחון": 5801, 
  "פויות": 5802, 
  "פארק": 5803, 
  "גרמה": 5804, 
  "משימות": 5805, 
  "המטוס": 5806, 
  "עורים": 5807, 
  "95": 5808, 
  "הביניים": 5809, 
  "פיזית": 5810, 
  "הסינית": 5811, 
  "מגיעות": 5812, 
  "הצדדים": 5813, 
  "גרף": 5814, 
  "הלוואי": 5815, 
  "בספטמבר": 5816, 
  "ואחר": 5817, 
  "למידע": 5818, 
  "התקן": 5819, 
  "בבית-@@": 5820, 
  "הדעת": 5821, 
  "כום": 5822, 
  "i": 5823, 
  "כלו": 5824, 
  "לבעיה": 5825, 
  "$": 5826, 
  "קיף": 5827, 
  "בניינים": 5828, 
  "העירו@@": 5829, 
  "זהב": 5830, 
  "שיוו@@": 5831, 
  "שהמוח": 5832, 
  "להסי@@": 5833, 
  "אסטרט@@": 5834, 
  "להגדיר": 5835, 
  "לרעיון": 5836, 
  "פסים": 5837, 
  "פינים": 5838, 
  "המוצרים": 5839, 
  "מטרות": 5840, 
  "התוכן": 5841, 
  "הבן": 5842, 
  "והאנשים": 5843, 
  "דיגיט@@": 5844, 
  "הדמיון": 5845, 
  "מוסי@@": 5846, 
  "בהר@@": 5847, 
  "תרבויות": 5848, 
  "בפו@@": 5849, 
  "תיר": 5850, 
  "נוג@@": 5851, 
  "אימה": 5852, 
  "אפשרית": 5853, 
  "ילדות": 5854, 
  "גמה": 5855, 
  "מצוין": 5856, 
  "וממש": 5857, 
  "עדן": 5858, 
  "הפה": 5859, 
  "מחשבות": 5860, 
  "סטיבן": 5861, 
  "מתקשרים": 5862, 
  "נר": 5863, 
  "מוסיפים": 5864, 
  "ריאות": 5865, 
  "זכרו": 5866, 
  "המדע@@": 5867, 
  "המודרני": 5868, 
  "social": 5869, 
  "מזהים": 5870, 
  "המשיכה": 5871, 
  "למספר": 5872, 
  "הגיון": 5873, 
  "המתנה": 5874, 
  "הגשם": 5875, 
  "העין": 5876, 
  "השליטה": 5877, 
  "מצטער": 5878, 
  "קיום": 5879, 
  "1,@@": 5880, 
  "דיקה": 5881, 
  "שתראו": 5882, 
  "נקראת": 5883, 
  "הנפש": 5884, 
  "יתרון": 5885, 
  "פיקה": 5886, 
  "יערות": 5887, 
  "אתו": 5888, 
  "משת": 5889, 
  "ההחלטות": 5890, 
  "מתכת": 5891, 
  "הפסיכולו@@": 5892, 
  "אלן": 5893, 
  "בחנות": 5894, 
  "במציאות": 5895, 
  "נסעתי": 5896, 
  "טנים": 5897, 
  "הקיץ": 5898, 
  "מושלמת": 5899, 
  "דינוזאורים": 5900, 
  "ענן": 5901, 
  "מיני@@": 5902, 
  "זניים": 5903, 
  "for": 5904, 
  "אתגרים": 5905, 
  "y@@": 5906, 
  "הכח": 5907, 
  "מנהיגים": 5908, 
  "הרצפה": 5909, 
  "בתקווה": 5910, 
  "רדי@@": 5911, 
  "לילד": 5912, 
  "האש": 5913, 
  "ההבנה": 5914, 
  "מטוסים": 5915, 
  "גרועים": 5916, 
  "בהצלחה": 5917, 
  "פוליטי": 5918, 
  "טעי@@": 5919, 
  "חתיכת": 5920, 
  "הפתוח": 5921, 
  "הוכ@@": 5922, 
  "נמשיך": 5923, 
  "מרק": 5924, 
  "המשרד": 5925, 
  "חומרי": 5926, 
  "וממ@@": 5927, 
  "32": 5928, 
  "לחות": 5929, 
  "3,000": 5930, 
  "בסגנון": 5931, 
  "פירה": 5932, 
  "....": 5933, 
  "יווד": 5934, 
  "להתפתח": 5935, 
  "תיכון": 5936, 
  "רתם": 5937, 
  "X": 5938, 
  "שבון": 5939, 
  "לריה": 5940, 
  "הופכות": 5941, 
  "רא": 5942, 
  "בחינוך": 5943, 
  "בשבילכם": 5944, 
  "והתשובה": 5945, 
  "ולהשתמש": 5946, 
  "תירה": 5947, 
  "שקט": 5948, 
  "ובזמן": 5949, 
  "מויות": 5950, 
  "מעוניין": 5951, 
  "ולתת": 5952, 
  "במלחמה": 5953, 
  "הדרו@@": 5954, 
  "רוג": 5955, 
  "כושר": 5956, 
  "חד-@@": 5957, 
  "הרכי@@": 5958, 
  "לוחות": 5959, 
  "כתבה": 5960, 
  "בריאה": 5961, 
  "כמונו": 5962, 
  "מנית": 5963, 
  "הטכנולו@@": 5964, 
  "רכנו": 5965, 
  "צודק": 5966, 
  "המהירות": 5967, 
  "מפת": 5968, 
  "שינו": 5969, 
  "כנע": 5970, 
  "ולד": 5971, 
  "ורי@@": 5972, 
  "הגורם": 5973, 
  "וככה": 5974, 
  "הגן": 5975, 
  "לסון": 5976, 
  "לתקו@@": 5977, 
  "כימו": 5978, 
  "פ.@@": 5979, 
  "להסתובב": 5980, 
  "חוות": 5981, 
  "קלות": 5982, 
  "החיידקים": 5983, 
  "קירות": 5984, 
  "עשור": 5985, 
  "סלי@@": 5986, 
  "חווי@@": 5987, 
  "הניסויים": 5988, 
  "נמנע": 5989, 
  "קילו@@": 5990, 
  "החום": 5991, 
  "איזור": 5992, 
  "אמריקאי": 5993, 
  "שייך": 5994, 
  "לקיים": 5995, 
  "אריק": 5996, 
  "מטיים": 5997, 
  "פשי": 5998, 
  "הביולוגי": 5999, 
  "26": 6000, 
  "הגנטי": 6001, 
  "קאר@@": 6002, 
  "נהר": 6003, 
  "עירה": 6004, 
  "ובסוף": 6005, 
  "הדיגיטלי": 6006, 
  "קבלת": 6007, 
  "החלי@@": 6008, 
  "ישנים": 6009, 
  "צפה": 6010, 
  "המגוון": 6011, 
  "פעלים": 6012, 
  "כס@@": 6013, 
  "שלכל": 6014, 
  "באתי": 6015, 
  "מיחה": 6016, 
  "המנ@@": 6017, 
  "פשר": 6018, 
  "זבל": 6019, 
  "זרחית": 6020, 
  "יוצרות": 6021, 
  "לקסיה": 6022, 
  "חילו": 6023, 
  "מעורר": 6024, 
  "המחקרים": 6025, 
  "תי-@@": 6026, 
  "שיח": 6027, 
  "המסלול": 6028, 
  "חיק": 6029, 
  "לאינטרנט": 6030, 
  "מפות": 6031, 
  "אנג@@": 6032, 
  "כמים": 6033, 
  "טרכו": 6034, 
  "נמשך": 6035, 
  "פי-@@": 6036, 
  "החלום": 6037, 
  "התנג@@": 6038, 
  "הורה": 6039, 
  "נועות": 6040, 
  "איתך": 6041, 
  "שימות": 6042, 
  "השוו@@": 6043, 
  "לאב@@": 6044, 
  "משפחתי": 6045, 
  "נוצרים": 6046, 
  "גרעינית": 6047, 
  "חשבון": 6048, 
  "ייה": 6049, 
  "התכונות": 6050, 
  "הקריירה": 6051, 
  "בסוג": 6052, 
  "דרש": 6053, 
  "איתן": 6054, 
  "אדו@@": 6055, 
  "זירה": 6056, 
  "לתרום": 6057, 
  "גז@@": 6058, 
  "היתי": 6059, 
  "הראה": 6060, 
  "שרדות": 6061, 
  "גמים": 6062, 
  "ה-19": 6063, 
  "העליונה": 6064, 
  "המעבדה": 6065, 
  "טליזם": 6066, 
  "ההצלחה": 6067, 
  "חילו@@": 6068, 
  "עצמאי": 6069, 
  "o": 6070, 
  "מודדות": 6071, 
  "ישיר": 6072, 
  "ולהי@@": 6073, 
  "משע@@": 6074, 
  "הפתי@@": 6075, 
  "נכם": 6076, 
  "עדו": 6077, 
  "הדמות": 6078, 
  "כרטיס": 6079, 
  "חוס": 6080, 
  "שדו@@": 6081, 
  "מקסיקו": 6082, 
  "יור@@": 6083, 
  "טורים": 6084, 
  "נב": 6085, 
  "פופול@@": 6086, 
  "מתחילות": 6087, 
  "תקבלו": 6088, 
  "ההש@@": 6089, 
  "נטיות": 6090, 
  "פירות": 6091, 
  "להצביע": 6092, 
  "קסס": 6093, 
  "ציפור": 6094, 
  "קריקטו@@": 6095, 
  "דבורים": 6096, 
  "משק": 6097, 
  "ואנ@@": 6098, 
  "הימנית": 6099, 
  "יב": 6100, 
  "לקדם": 6101, 
  "רימה": 6102, 
  "שהו": 6103, 
  "התנהגויות": 6104, 
  "שעשו": 6105, 
  "מבטיח": 6106, 
  "ט-@@": 6107, 
  "ספורט": 6108, 
  "הכבוד": 6109, 
  "טרור": 6110, 
  "מידת": 6111, 
  "מגלה": 6112, 
  "מחזיק": 6113, 
  "רשות": 6114, 
  "ועלינו": 6115, 
  "גוון": 6116, 
  "אפלי@@": 6117, 
  "ן@@": 6118, 
  "תנועות": 6119, 
  "לגורי@@": 6120, 
  "זרו@@": 6121, 
  "הנהר": 6122, 
  "מץ": 6123, 
  "ודו@@": 6124, 
  "תוכנות": 6125, 
  "מפרטו@@": 6126, 
  "האמצ@@": 6127, 
  "להימנע": 6128, 
  "שתם": 6129, 
  "בחנו": 6130, 
  "בירים": 6131, 
  "סא@@": 6132, 
  "הראו": 6133, 
  "מיזם": 6134, 
  "אקס@@": 6135, 
  "המצו@@": 6136, 
  "199@@": 6137, 
  "חדו": 6138, 
  "טונות": 6139, 
  "לסקופ": 6140, 
  "דמיון": 6141, 
  "פיו": 6142, 
  "קוראת": 6143, 
  "שלדעתי": 6144, 
  "בטיחות": 6145, 
  "התרג@@": 6146, 
  "מט": 6147, 
  "משיגים": 6148, 
  "נתח": 6149, 
  "וג@@": 6150, 
  "מיקס": 6151, 
  "בובים": 6152, 
  "הציבורית": 6153, 
  "שמתרח@@": 6154, 
  "מוס": 6155, 
  "החול@@": 6156, 
  "האות": 6157, 
  "לשמר": 6158, 
  "מוך": 6159, 
  "במערכות": 6160, 
  "בעי": 6161, 
  "מתקדמת": 6162, 
  "עובדי": 6163, 
  "לגשת": 6164, 
  "חשמליים": 6165, 
  "מבחוץ": 6166, 
  "ביקורת": 6167, 
  "טיס@@": 6168, 
  "0.@@": 6169, 
  "ביעה": 6170, 
  "כוונה": 6171, 
  "חוקרת": 6172, 
  "בשיחה": 6173, 
  "מדהימות": 6174, 
  "ובמיוחד": 6175, 
  "בלע@@": 6176, 
  "המתק@@": 6177, 
  "בתרבות": 6178, 
  "מינית": 6179, 
  "נית@@": 6180, 
  "שאיר": 6181, 
  "האחורי": 6182, 
  "ממוצע": 6183, 
  "אגו": 6184, 
  "m@@": 6185, 
  "דיגיטלי": 6186, 
  "הכלב": 6187, 
  "וליטיקה": 6188, 
  "רובם": 6189, 
  "נראות": 6190, 
  "ויכוח": 6191, 
  "הנוכחית": 6192, 
  "תיהן": 6193, 
  "מנגנון": 6194, 
  "העת": 6195, 
  "איברים": 6196, 
  "סוך": 6197, 
  "מספקים": 6198, 
  "זוי": 6199, 
  "איד": 6200, 
  "התשוקה": 6201, 
  "הישן": 6202, 
  "אוס": 6203, 
  "הכלי": 6204, 
  "הגבוהה": 6205, 
  "רגיש": 6206, 
  "שעברו": 6207, 
  "מתם": 6208, 
  "מיע": 6209, 
  "סייע": 6210, 
  "להופיע": 6211, 
  "יקבלו": 6212, 
  "ובר@@": 6213, 
  "היותר": 6214, 
  "שלמים": 6215, 
  "כויות": 6216, 
  "מתכנ@@": 6217, 
  "פנה": 6218, 
  "האיטי": 6219, 
  "המרו@@": 6220, 
  "התפיסה": 6221, 
  "רגשית": 6222, 
  "מוחלטת": 6223, 
  "אווה": 6224, 
  "ולקבל": 6225, 
  "אנוש": 6226, 
  "כירות": 6227, 
  "עצומים": 6228, 
  "העל": 6229, 
  "ופתאום": 6230, 
  "תשאלו": 6231, 
  "רתיים": 6232, 
  "חיר": 6233, 
  "הסתכלות": 6234, 
  "קריירה": 6235, 
  "הראשי": 6236, 
  "מוני@@": 6237, 
  "להגיב": 6238, 
  "מהות": 6239, 
  "מהמו@@": 6240, 
  "למסע": 6241, 
  "בקול": 6242, 
  "לאהוב": 6243, 
  "לביצוע": 6244, 
  "לשיר": 6245, 
  "רחו@@": 6246, 
  "עיני": 6247, 
  "החזון": 6248, 
  "היתר": 6249, 
  "שמצאתי": 6250, 
  "סגנון": 6251, 
  "שנוצר": 6252, 
  "והול@@": 6253, 
  "מינות": 6254, 
  "מצלמות": 6255, 
  "אומץ": 6256, 
  "האט@@": 6257, 
  "מחובר": 6258, 
  "להניע": 6259, 
  "שבא": 6260, 
  "גבול": 6261, 
  "מעמי@@": 6262, 
  "הפרדה": 6263, 
  "בימינו": 6264, 
  "הלב@@": 6265, 
  "התברר": 6266, 
  "לגייס": 6267, 
  "עיק@@": 6268, 
  "בנת": 6269, 
  "משוב": 6270, 
  "נצטרך": 6271, 
  "סטנדר@@": 6272, 
  "הקפי@@": 6273, 
  "הנכ@@": 6274, 
  "ריגמי": 6275, 
  "הבינ@@": 6276, 
  "הנוסף": 6277, 
  "בחברות": 6278, 
  "מהנדס": 6279, 
  "ה-21": 6280, 
  "medicine": 6281, 
  "לגות": 6282, 
  "שיוכלו": 6283, 
  "מצם": 6284, 
  "עבורה": 6285, 
  "זע@@": 6286, 
  "קרת": 6287, 
  "בעצ@@": 6288, 
  "בעצמנו": 6289, 
  "חווים": 6290, 
  "שנח@@": 6291, 
  "שוח@@": 6292, 
  "שעוד": 6293, 
  "אחי": 6294, 
  "תרי@@": 6295, 
  "פעילים": 6296, 
  "מלחמות": 6297, 
  "קריטי": 6298, 
  "הבסיסי": 6299, 
  "אוספים": 6300, 
  "גנדה": 6301, 
  "היל@@": 6302, 
  "נוטה": 6303, 
  "המצאות": 6304, 
  "הפרעה": 6305, 
  "היסוד": 6306, 
  "2006": 6307, 
  "ופחות": 6308, 
  "לאמץ": 6309, 
  "כלב": 6310, 
  "חינם": 6311, 
  "הכוונה": 6312, 
  "לת-@@": 6313, 
  "האישית": 6314, 
  "דלי": 6315, 
  "בדיקה": 6316, 
  "טריות": 6317, 
  "תב": 6318, 
  "בולות": 6319, 
  "תנועת": 6320, 
  "הצטר@@": 6321, 
  "פקיד": 6322, 
  "מאותם": 6323, 
  "או-@@": 6324, 
  "שפע": 6325, 
  "טעויות": 6326, 
  "השעון": 6327, 
  "וסי@@": 6328, 
  "המרכז": 6329, 
  "ולה@@": 6330, 
  "מקומית": 6331, 
  "ומר@@": 6332, 
  "עבוד": 6333, 
  "הוגן": 6334, 
  "ב.@@": 6335, 
  "כוז": 6336, 
  "בתר@@": 6337, 
  "הבנק": 6338, 
  "הקול@@": 6339, 
  "פיטר": 6340, 
  "תלויה": 6341, 
  "משמע@@": 6342, 
  "השמאלית": 6343, 
  "מדנו": 6344, 
  "מדתי": 6345, 
  "החליט": 6346, 
  "הפרוייקטים": 6347, 
  "למחקר": 6348, 
  "בשות": 6349, 
  "אול": 6350, 
  "במקרים": 6351, 
  "לאבד": 6352, 
  "הטמפרטורה": 6353, 
  "גיית": 6354, 
  "שיק@@": 6355, 
  "מבול@@": 6356, 
  "הרופאים": 6357, 
  "שלמות": 6358, 
  "מתח": 6359, 
  "מתג@@": 6360, 
  "ושאלתי": 6361, 
  "פורס@@": 6362, 
  "צלילים": 6363, 
  "תונה": 6364, 
  "תשתית": 6365, 
  "אחרון": 6366, 
  "הביאו": 6367, 
  "למציאות": 6368, 
  "מהילדים": 6369, 
  "ציאה": 6370, 
  "ומנ@@": 6371, 
  "בסיסיים": 6372, 
  "להתקיים": 6373, 
  "שלת": 6374, 
  "לומים": 6375, 
  "עלם": 6376, 
  "נצי@@": 6377, 
  "קרתי": 6378, 
  "לגוף": 6379, 
  "היות": 6380, 
  "קטרום": 6381, 
  "אנד": 6382, 
  "לוסו@@": 6383, 
  "רצף": 6384, 
  "טיל": 6385, 
  "למחרת": 6386, 
  "יכולתם": 6387, 
  "אוכלוסיה": 6388, 
  "צתי": 6389, 
  "החופש": 6390, 
  "כישורים": 6391, 
  "אנטי-@@": 6392, 
  "בקה": 6393, 
  "ונשים": 6394, 
  "חופשית": 6395, 
  "קטור": 6396, 
  "השפעת": 6397, 
  "ליישם": 6398, 
  "תחבורה": 6399, 
  "היכולות": 6400, 
  "ההשלכות": 6401, 
  "הינה": 6402, 
  "לחולל": 6403, 
  "לאפריקה": 6404, 
  "לחלו@@": 6405, 
  "ולהבין": 6406, 
  "האוקינוס": 6407, 
  "נייני": 6408, 
  "להפחית": 6409, 
  "ריט": 6410, 
  "2004": 6411, 
  "פניו": 6412, 
  "29": 6413, 
  "מכר": 6414, 
  "לאף": 6415, 
  "האמונה": 6416, 
  "שתוכל": 6417, 
  "הסטוריה": 6418, 
  "מחות": 6419, 
  "היער": 6420, 
  "קקים": 6421, 
  "ה-70": 6422, 
  "גזין": 6423, 
  "באפגניסטן": 6424, 
  "ישי@@": 6425, 
  "גלגלים": 6426, 
  "ה-90": 6427, 
  "דובר": 6428, 
  "עושר": 6429, 
  "מכיל": 6430, 
  "תכנ@@": 6431, 
  "התקווה": 6432, 
  "מבוססת": 6433, 
  "נאב@@": 6434, 
  "אלחו@@": 6435, 
  "ליין": 6436, 
  "צול@@": 6437, 
  "נגן": 6438, 
  "נוהגים": 6439, 
  "נו-@@": 6440, 
  "מהזמן": 6441, 
  "באחת": 6442, 
  "ללה": 6443, 
  "אונים": 6444, 
  "מיילים": 6445, 
  "בתם": 6446, 
  "התחתית": 6447, 
  "גבלות": 6448, 
  "טף": 6449, 
  "מוגבלת": 6450, 
  "re@@": 6451, 
  "פעולות": 6452, 
  "מפיין": 6453, 
  "זכרתי": 6454, 
  "מודרנית": 6455, 
  "בורי": 6456, 
  "הגבול": 6457, 
  "שווים": 6458, 
  "בורג": 6459, 
  "האיי@@": 6460, 
  "לוך": 6461, 
  "כילים": 6462, 
  "מאורג@@": 6463, 
  "הענ@@": 6464, 
  "תחנת": 6465, 
  "הפער": 6466, 
  "הפרויקט": 6467, 
  "שילוב": 6468, 
  "זמנ@@": 6469, 
  "בראון": 6470, 
  "הפסי@@": 6471, 
  "האקד@@": 6472, 
  "הדגים": 6473, 
  "מילי@@": 6474, 
  "החשיבות": 6475, 
  "חושת": 6476, 
  "רשימה": 6477, 
  "לוואי": 6478, 
  "הרצאות": 6479, 
  "פתו@@": 6480, 
  "חשי@@": 6481, 
  "ג-@@": 6482, 
  "תשע": 6483, 
  "ילדינו": 6484, 
  "לברי@@": 6485, 
  "התפת@@": 6486, 
  "תפיסה": 6487, 
  "נתפ@@": 6488, 
  "רייה": 6489, 
  "ס.@@": 6490, 
  "מקר@@": 6491, 
  "שבאופן": 6492, 
  "עלתה": 6493, 
  "רדים": 6494, 
  "חוצים": 6495, 
  "ח-@@": 6496, 
  "הירה": 6497, 
  "קיבלה": 6498, 
  "הבת": 6499, 
  "יפי@@": 6500, 
  "מגדלים": 6501, 
  "אקר@@": 6502, 
  "רחבים": 6503, 
  "עמדו": 6504, 
  "הצעד": 6505, 
  "ניברסיטאות": 6506, 
  "ול": 6507, 
  "המציא": 6508, 
  "ממך": 6509, 
  "בילו": 6510, 
  "שכו@@": 6511, 
  "לפעולה": 6512, 
  "נחשב": 6513, 
  "צונית": 6514, 
  "מבני": 6515, 
  "פשוטות": 6516, 
  "פוגע": 6517, 
  "יסו@@": 6518, 
  "הרצון": 6519, 
  "ולפ@@": 6520, 
  "למדע": 6521, 
  "מבר@@": 6522, 
  "במכונית": 6523, 
  "מבטי@@": 6524, 
  "קמ": 6525, 
  "פועלות": 6526, 
  "קרינה": 6527, 
  "רומנ@@": 6528, 
  "הדקות": 6529, 
  "אנדה": 6530, 
  "יצירתיים": 6531, 
  "הענק": 6532, 
  "תוחים": 6533, 
  "ראייה": 6534, 
  "ולרי": 6535, 
  "ביץ": 6536, 
  "שחיתות": 6537, 
  "בשאלה": 6538, 
  "בנתונים": 6539, 
  "השח@@": 6540, 
  "לקחה": 6541, 
  "פשע": 6542, 
  "אמהות": 6543, 
  "היצירתיות": 6544, 
  "האחריות": 6545, 
  "שאי-@@": 6546, 
  "חוזרת": 6547, 
  "מקרוב": 6548, 
  "החי": 6549, 
  "הנקרא": 6550, 
  "היחידים": 6551, 
  "בערב": 6552, 
  "מלאכותית": 6553, 
  "מלין": 6554, 
  "איינשטיין": 6555, 
  "מרכיב": 6556, 
  "ליתי": 6557, 
  "חלקי@@": 6558, 
  "הטבעי": 6559, 
  "מצפה": 6560, 
  "הערבי": 6561, 
  "להיפטר": 6562, 
  "הקור@@": 6563, 
  "לכוון": 6564, 
  "במחיר": 6565, 
  "פורמ@@": 6566, 
  "כפל": 6567, 
  "מבפנים": 6568, 
  "שאפ@@": 6569, 
  "המנו@@": 6570, 
  "נטים": 6571, 
  "שז@@": 6572, 
  "לטות": 6573, 
  "בצבע": 6574, 
  "טד": 6575, 
  "לגעת": 6576, 
  "מתנדבים": 6577, 
  "לצמצם": 6578, 
  "שילדים": 6579, 
  "בתקופת": 6580, 
  "אדירה": 6581, 
  "קורבנות": 6582, 
  "השלום": 6583, 
  "עוקבים": 6584, 
  "מאותו": 6585, 
  "שלעולם": 6586, 
  "רחש": 6587, 
  "אמריקאית": 6588, 
  "מתקן": 6589, 
  "העול@@": 6590, 
  "בלב@@": 6591, 
  "הצמחים": 6592, 
  "שקיים": 6593, 
  "מאובנים": 6594, 
  "סימנים": 6595, 
  "מסיבות": 6596, 
  "וכולנו": 6597, 
  "איכפת": 6598, 
  "יף": 6599, 
  "ואחרים": 6600, 
  "מכירה": 6601, 
  "דרי": 6602, 
  "נראו": 6603, 
  "מוספירה": 6604, 
  "תחומי": 6605, 
  "שיער": 6606, 
  "למסקנה": 6607, 
  "מוקרטיה": 6608, 
  "נתתי": 6609, 
  "לנפש": 6610, 
  "מכדי": 6611, 
  "ליזציה": 6612, 
  "נצל": 6613, 
  "שהילדים": 6614, 
  "בסך": 6615, 
  "פשת": 6616, 
  "גלגל": 6617, 
  "פתוחים": 6618, 
  "המערבית": 6619, 
  "מלמעלה": 6620, 
  "אפ": 6621, 
  "למרכז": 6622, 
  "תוהה": 6623, 
  "בחצי": 6624, 
  "האוקיינוסים": 6625, 
  "אורגני": 6626, 
  "קסו@@": 6627, 
  "צרפ@@": 6628, 
  "ארלס": 6629, 
  "בר-@@": 6630, 
  "לאס": 6631, 
  "שמק@@": 6632, 
  "יג@@": 6633, 
  "מרחוק": 6634, 
  "ראיה": 6635, 
  "ייחו@@": 6636, 
  "סי-@@": 6637, 
  "האפריק@@": 6638, 
  "עצמות": 6639, 
  "הדפוס": 6640, 
  "לפגוע": 6641, 
  "שקשה": 6642, 
  "קלין": 6643, 
  "גג": 6644, 
  "שבסופו": 6645, 
  "לצו@@": 6646, 
  "לבתי": 6647, 
  "הרגיש": 6648, 
  "ביעת": 6649, 
  "תחילת": 6650, 
  "כניות": 6651, 
  "דרו": 6652, 
  "באיכות": 6653, 
  "הממ@@": 6654, 
  "ממשלה": 6655, 
  "עוף": 6656, 
  "כלוסיות": 6657, 
  "באפ@@": 6658, 
  "טועים": 6659, 
  "סיני": 6660, 
  "הולדת": 6661, 
  "מבינה": 6662, 
  "וברגע": 6663, 
  "ברי-@@": 6664, 
  "הזכות": 6665, 
  "שביל": 6666, 
  "לדות": 6667, 
  "כמת": 6668, 
  "למחשב": 6669, 
  "מערך": 6670, 
  "עיבוד": 6671, 
  "נמו@@": 6672, 
  "ממקום": 6673, 
  "לזכות": 6674, 
  "התמק@@": 6675, 
  "הופיע": 6676, 
  "למדינה": 6677, 
  "והשאלה": 6678, 
  "תופס": 6679, 
  "בלוגים": 6680, 
  "זמות": 6681, 
  "פרחים": 6682, 
  "בוצת": 6683, 
  "המנוע": 6684, 
  "עדת": 6685, 
  "העצו@@": 6686, 
  "כספים": 6687, 
  "טציה": 6688, 
  "הספצי@@": 6689, 
  "ביקו@@": 6690, 
  "ההפ@@": 6691, 
  "תוצר": 6692, 
  "X@@": 6693, 
  "נולדתי": 6694, 
  "קיו": 6695, 
  "רתיות": 6696, 
  "מוצלח": 6697, 
  "רחי": 6698, 
  "והכי": 6699, 
  "עבודתו": 6700, 
  "בועים": 6701, 
  "בניות": 6702, 
  "חלקית": 6703, 
  "החק@@": 6704, 
  "28": 6705, 
  "מזד@@": 6706, 
  "בפינה": 6707, 
  "יכל": 6708, 
  "שכחו": 6709, 
  "המיזם": 6710, 
  "הגלג@@": 6711, 
  "המדהימה": 6712, 
  "שיטת": 6713, 
  "פיתחו": 6714, 
  "מעריכים": 6715, 
  "אווי@@": 6716, 
  "מיקום": 6717, 
  "לדחוף": 6718, 
  "עצות": 6719, 
  "מוכרת": 6720, 
  "דרכו": 6721, 
  "לסטי@@": 6722, 
  "מלפני": 6723, 
  "שותף": 6724, 
  "לגו": 6725, 
  "המרכיבים": 6726, 
  "דיבור": 6727, 
  "מבחינתי": 6728, 
  "נאות": 6729, 
  "קשורה": 6730, 
  "נדי": 6731, 
  "הקסם": 6732, 
  "הנאה": 6733, 
  "לונדון": 6734, 
  "להגדיל": 6735, 
  "שעולה": 6736, 
  "תלמיד": 6737, 
  "אקח": 6738, 
  "ישראל": 6739, 
  "הדין": 6740, 
  "המדעית": 6741, 
  "סוכר": 6742, 
  "גאה": 6743, 
  "שדברים": 6744, 
  "בונן": 6745, 
  "שכמעט": 6746, 
  "הפוליטית": 6747, 
  "85": 6748, 
  "מרבית": 6749, 
  "מכת": 6750, 
  "בשדה": 6751, 
  "מניות": 6752, 
  "שהחיים": 6753, 
  "האנו@@": 6754, 
  "לקהל": 6755, 
  "אפו@@": 6756, 
  "המודעות": 6757, 
  "לפנינו": 6758, 
  "תיאוריה": 6759, 
  "משונה": 6760, 
  "לינג": 6761, 
  "is": 6762, 
  "מומחה": 6763, 
  "תופסים": 6764, 
  "חוט": 6765, 
  "התחממות": 6766, 
  "הור": 6767, 
  "cities": 6768, 
  "וכדומה": 6769, 
  "ומכ@@": 6770, 
  "לרפואה": 6771, 
  "מלית": 6772, 
  "קוט@@": 6773, 
  "רגישים": 6774, 
  "בזמנים": 6775, 
  "ההבדלים": 6776, 
  "ווא@@": 6777, 
  "תרשים": 6778, 
  "לץ": 6779, 
  "מרחק": 6780, 
  "כלי-@@": 6781, 
  "לסיפור": 6782, 
  "המוסדות": 6783, 
  "התעור@@": 6784, 
  "במסלול": 6785, 
  "לונים": 6786, 
  "תחומים": 6787, 
  "מתבוננים": 6788, 
  "ופי@@": 6789, 
  "משוו@@": 6790, 
  "טק": 6791, 
  "קרנות": 6792, 
  "נגיע": 6793, 
  "תרבו@@": 6794, 
  "שיעו@@": 6795, 
  "המוני": 6796, 
  "זוכרת": 6797, 
  "להבות": 6798, 
  "שישנם": 6799, 
  "להאכיל": 6800, 
  "הדיגיט@@": 6801, 
  "שלבים": 6802, 
  "הגרף": 6803, 
  "טוויטר": 6804, 
  "סוצי@@": 6805, 
  "המוקד@@": 6806, 
  "החדשנות": 6807, 
  "קצרים": 6808, 
  "פרנק": 6809, 
  "48": 6810, 
  "ונס": 6811, 
  "יתי": 6812, 
  "ללים": 6813, 
  "גובות": 6814, 
  "רכבים": 6815, 
  "האירו@@": 6816, 
  "היפ@@": 6817, 
  "פיעות": 6818, 
  "לאיזה": 6819, 
  "פד@@": 6820, 
  "הוירו@@": 6821, 
  "שווי": 6822, 
  "בנוי": 6823, 
  "שהדרך": 6824, 
  "הצבעים": 6825, 
  "נולדים": 6826, 
  "עשורים": 6827, 
  "מטר@@": 6828, 
  "עשירה": 6829, 
  "מצבים": 6830, 
  "השחור": 6831, 
  "האי": 6832, 
  "גוע": 6833, 
  "ניתנים": 6834, 
  "עיתים": 6835, 
  "ביעות": 6836, 
  "חשבת": 6837, 
  "storytelling": 6838, 
  ".א": 6839, 
  "שהתחלתי": 6840, 
  "le@@": 6841, 
  "מוסרי": 6842, 
  "צהריים": 6843, 
  "לטה": 6844, 
  "האהו@@": 6845, 
  "למעבדה": 6846, 
  "הלווי@@": 6847, 
  "שומן": 6848, 
  "להפיץ": 6849, 
  "r@@": 6850, 
  "גרועה": 6851, 
  "הסיכוי": 6852, 
  "שהופך": 6853, 
  "בטיפול": 6854, 
  "מתמטי@@": 6855, 
  "שקי@@": 6856, 
  "וחי": 6857, 
  "צילומים": 6858, 
  "לאו": 6859, 
  "דיוו@@": 6860, 
  "מודאג": 6861, 
  "קלית": 6862, 
  "מרכיבים": 6863, 
  "שהייתם": 6864, 
  "ספציפי": 6865, 
  "אישיות": 6866, 
  "נוסעים": 6867, 
  "רכבות": 6868, 
  "נבו@@": 6869, 
  "זכי@@": 6870, 
  "נשיא": 6871, 
  "מרשים": 6872, 
  "כפר": 6873, 
  "שעשו@@": 6874, 
  "סת@@": 6875, 
  "ההרגשה": 6876, 
  "בתי-@@": 6877, 
  "נתוני": 6878, 
  "אוביי@@": 6879, 
  "צייר": 6880, 
  "ראלי": 6881, 
  "סטן": 6882, 
  "רועים": 6883, 
  "היר@@": 6884, 
  "לקות": 6885, 
  "שקיבלתי": 6886, 
  "ביצועים": 6887, 
  "ציטוט": 6888, 
  "הראיה": 6889, 
  "פוצץ": 6890, 
  "באב@@": 6891, 
  "המרכ@@": 6892, 
  "מדד": 6893, 
  "שמשת@@": 6894, 
  "מצאה": 6895, 
  "בחיינו": 6896, 
  "לוס": 6897, 
  "חוויות": 6898, 
  "ולת@@": 6899, 
  "החשובה": 6900, 
  "a@@": 6901, 
  "עקו@@": 6902, 
  "שישים": 6903, 
  "עצור": 6904, 
  "מעדיפים": 6905, 
  "לאזור": 6906, 
  "בסר@@": 6907, 
  "הקרובות": 6908, 
  "מעבירים": 6909, 
  "קרוי": 6910, 
  "שיר@@": 6911, 
  "ומשהו": 6912, 
  "לרכוש": 6913, 
  "47": 6914, 
  "אוטי@@": 6915, 
  "היחס": 6916, 
  "המח": 6917, 
  "לוג": 6918, 
  "עצמ@@": 6919, 
  "מקים": 6920, 
  "בצו@@": 6921, 
  "נפו@@": 6922, 
  "דיכאון": 6923, 
  "מודדים": 6924, 
  "עמדה": 6925, 
  "אחר-כך": 6926, 
  "שיט": 6927, 
  "לכלכלה": 6928, 
  "מתכוונים": 6929, 
  "עמד": 6930, 
  "ובמקרה": 6931, 
  "ולכל": 6932, 
  "תנאי": 6933, 
  "מונע": 6934, 
  "טיעון": 6935, 
  "שווי@@": 6936, 
  "רכיטקטורה": 6937, 
  "ממשל": 6938, 
  "תיכם": 6939, 
  "ומסתבר": 6940, 
  "נקו@@": 6941, 
  "בסיסית": 6942, 
  "קספורד": 6943, 
  "טייל": 6944, 
  "חמים": 6945, 
  "שיוכל": 6946, 
  "שובות": 6947, 
  "הווה": 6948, 
  "מראות": 6949, 
  "לדים": 6950, 
  "להקלי@@": 6951, 
  "שעליו": 6952, 
  "מישה": 6953, 
  "195@@": 6954, 
  "הפח@@": 6955, 
  "שומרים": 6956, 
  "לפרק": 6957, 
  "מרץ": 6958, 
  "לגברים": 6959, 
  "תודעה": 6960, 
  "ישבתי": 6961, 
  "ולט": 6962, 
  "המחלות": 6963, 
  "תרופ@@": 6964, 
  "לחסוך": 6965, 
  "עשייה": 6966, 
  "ודבר": 6967, 
  "ממשק": 6968, 
  "בשלוש": 6969, 
  "ציע": 6970, 
  "שיג@@": 6971, 
  "מחכים": 6972, 
  "הדדית": 6973, 
  "ממשלתיים": 6974, 
  "ממח@@": 6975, 
  "יכלה": 6976, 
  "הפנימי": 6977, 
  "t": 6978, 
  "נהנים": 6979, 
  "להדגיש": 6980, 
  "שכמה": 6981, 
  "מספקת": 6982, 
  "היתו@@": 6983, 
  "מכרי@@": 6984, 
  "מהנדסים": 6985, 
  "תמונת": 6986, 
  "כוס": 6987, 
  "רינה": 6988, 
  "כללה": 6989, 
  "זוגות": 6990, 
  "חכמות": 6991, 
  "זורם": 6992, 
  "ההתפתחות": 6993, 
  "יודע@@": 6994, 
  "מטבע": 6995, 
  "היחידי": 6996, 
  "במסע": 6997, 
  "ארית": 6998, 
  "אוטומטית": 6999, 
  "המדעי": 7000, 
  "ורציתי": 7001, 
  "הרגיל": 7002, 
  "לראש": 7003, 
  "אגי@@": 7004, 
  "האמינו": 7005, 
  "דרכי": 7006, 
  "למנטים": 7007, 
  "מטאפו@@": 7008, 
  "ביולו@@": 7009, 
  "ולחן": 7010, 
  "מגני@@": 7011, 
  "הסול@@": 7012, 
  "התמותה": 7013, 
  "גנת": 7014, 
  "מריץ": 7015, 
  "פק": 7016, 
  "אולי@@": 7017, 
  "תאמינו": 7018, 
  "מהעבודה": 7019, 
  "תאורה": 7020, 
  "הפוליטיקה": 7021, 
  "נשימה": 7022, 
  "היפה": 7023, 
  "משו": 7024, 
  "ניגריה": 7025, 
  "מבקשים": 7026, 
  "הקרן": 7027, 
  "נזי@@": 7028, 
  "קומים": 7029, 
  "שמל": 7030, 
  "בורות": 7031, 
  "כתיבה": 7032, 
  "לסרטן": 7033, 
  "שלג": 7034, 
  "תבינו": 7035, 
  "מיוחדים": 7036, 
  "ביעית": 7037, 
  "האקולוגית": 7038, 
  "שלמרות": 7039, 
  "רגת": 7040, 
  "רחן": 7041, 
  "הרגשה": 7042, 
  "צירתיות": 7043, 
  "ריקת": 7044, 
  "ותוך": 7045, 
  "קיינוס": 7046, 
  "כנו@@": 7047, 
  "העצבים": 7048, 
  "ה-80": 7049, 
  "מעשי": 7050, 
  "הלם": 7051, 
  "מייצגים": 7052, 
  "אובמה": 7053, 
  "לידי": 7054, 
  "וכשאני": 7055, 
  "קיצונית": 7056, 
  "צירת": 7057, 
  "0": 7058, 
  "20,000": 7059, 
  "מוסלמים": 7060, 
  "שמבי@@": 7061, 
  "סונות": 7062, 
  "לעין": 7063, 
  "נסו@@": 7064, 
  "חלים": 7065, 
  "לרפא": 7066, 
  "קילו": 7067, 
  "עמודים": 7068, 
  "היסטורית": 7069, 
  "לפת": 7070, 
  "מנצ@@": 7071, 
  "נדו@@": 7072, 
  "הזמנים": 7073, 
  "נאו@@": 7074, 
  "הצליחה": 7075, 
  "פותחים": 7076, 
  "חקי": 7077, 
  "בשכונה": 7078, 
  "כוכבי-לכת": 7079, 
  "הציג": 7080, 
  "טקס": 7081, 
  "חררים": 7082, 
  "care": 7083, 
  "לטו": 7084, 
  "שבני": 7085, 
  "האהוב": 7086, 
  "ליהם": 7087, 
  "המכ@@": 7088, 
  "לוש": 7089, 
  "משלהם": 7090, 
  "לגן": 7091, 
  "השדרה": 7092, 
  "ריקטו@@": 7093, 
  "זציה": 7094, 
  "פוץ": 7095, 
  "לרמה": 7096, 
  "ולהע@@": 7097, 
  "והתחלנו": 7098, 
  "לשום": 7099, 
  "הד": 7100, 
  "לחים": 7101, 
  "שנשים": 7102, 
  "רוק@@": 7103, 
  "סטרליה": 7104, 
  "וט": 7105, 
  "טליה": 7106, 
  "חישובים": 7107, 
  "אימו": 7108, 
  "בן-@@": 7109, 
  "ובמשך": 7110, 
  "פעי@@": 7111, 
  "פרי": 7112, 
  "הכאב": 7113, 
  "האלימות": 7114, 
  "הרת": 7115, 
  "ולהגיד": 7116, 
  "למלחמה": 7117, 
  "הטרו@@": 7118, 
  "יעלה": 7119, 
  "ברזיל": 7120, 
  "בפנינו": 7121, 
  "לחצות": 7122, 
  "מתרג@@": 7123, 
  "קורס": 7124, 
  "למא@@": 7125, 
  "וכתוצאה": 7126, 
  "עצמאית": 7127, 
  "יפן": 7128, 
  "ראוי": 7129, 
  "זקן": 7130, 
  "משמש": 7131, 
  "גרפי": 7132, 
  "פורמציה": 7133, 
  "דבק": 7134, 
  "מהצד": 7135, 
  "ַ@@": 7136, 
  "המושג": 7137, 
  "שגילינו": 7138, 
  "המוחות": 7139, 
  "שבר@@": 7140, 
  "לקט@@": 7141, 
  "מנהיגות": 7142, 
  "חיישנים": 7143, 
  "השקפה": 7144, 
  "המזו@@": 7145, 
  "טכנולוגיית": 7146, 
  "יהפוך": 7147, 
  "גיעות": 7148, 
  "רידים": 7149, 
  "דכם": 7150, 
  "יפהפה": 7151, 
  "מוצרי": 7152, 
  "עוברת": 7153, 
  "מדינת": 7154, 
  "דיפלו@@": 7155, 
  "הלוו@@": 7156, 
  "קמ@@": 7157, 
  "מוזרה": 7158, 
  "מופיעים": 7159, 
  "נמלים": 7160, 
  "סטאן": 7161, 
  "רתו": 7162, 
  "איימי": 7163, 
  "בתו": 7164, 
  "המרכזית": 7165, 
  "הרעש": 7166, 
  "מכה": 7167, 
  "נצליח": 7168, 
  "אמנם": 7169, 
  "התעשייתית": 7170, 
  "לעורר": 7171, 
  "הרקע": 7172, 
  "פסאות": 7173, 
  "יקטים": 7174, 
  "עבורו": 7175, 
  "סמית": 7176, 
  "33": 7177, 
  "מלמד": 7178, 
  "כלוסייה": 7179, 
  "בקבוק": 7180, 
  "שמר": 7181, 
  "לסטו@@": 7182, 
  "מיר": 7183, 
  "בילדים": 7184, 
  "נל": 7185, 
  "שנצ@@": 7186, 
  "משמעו@@": 7187, 
  "לאומית": 7188, 
  "שהדברים": 7189, 
  "לבי": 7190, 
  "שיבות": 7191, 
  "וילדים": 7192, 
  "ומישהו": 7193, 
  "וושינגטון": 7194, 
  "הליכים": 7195, 
  "תרבותית": 7196, 
  "אפשריים": 7197, 
  "בעבועות": 7198, 
  "תובב": 7199, 
  "דפוס": 7200, 
  "נובע": 7201, 
  "נפת@@": 7202, 
  "הפיזיקה": 7203, 
  "שבתאי": 7204, 
  "טיקאים": 7205, 
  "בעצמך": 7206, 
  "מהווים": 7207, 
  "מכפי": 7208, 
  "מסתובב": 7209, 
  "השמיים": 7210, 
  "250": 7211, 
  "שניסי@@": 7212, 
  "רירים": 7213, 
  "שארו": 7214, 
  "תערו@@": 7215, 
  "הרע@@": 7216, 
  "2001": 7217, 
  "להבנה": 7218, 
  "בניתי": 7219, 
  "מרטין": 7220, 
  "4,000": 7221, 
  "הלים": 7222, 
  "ארוכות": 7223, 
  "נקן": 7224, 
  "חיובית": 7225, 
  "גלקסיות": 7226, 
  "איה": 7227, 
  "בסיכון": 7228, 
  "לקבוצה": 7229, 
  "להביע": 7230, 
  "רגדיה": 7231, 
  "רעידת": 7232, 
  "יט": 7233, 
  "טייס": 7234, 
  "הומור": 7235, 
  "הנשימה": 7236, 
  "כונית": 7237, 
  "אק": 7238, 
  "אצלי": 7239, 
  "ריקות": 7240, 
  "תגלו": 7241, 
  "נוחות": 7242, 
  "ריל": 7243, 
  "בחלקים": 7244, 
  "ירה": 7245, 
  "לאלה": 7246, 
  "סח": 7247, 
  "לארוחת": 7248, 
  "ולג": 7249, 
  "אמצע": 7250, 
  "תגובות": 7251, 
  "נוחה": 7252, 
  "לשוחח": 7253, 
  "זקו@@": 7254, 
  "קליפת": 7255, 
  "תומס": 7256, 
  "זיז": 7257, 
  "מסורת": 7258, 
  "ידידו@@": 7259, 
  "האחו@@": 7260, 
  "לרכב": 7261, 
  "רייט": 7262, 
  "שראל": 7263, 
  "המקומית": 7264, 
  "חג": 7265, 
  "שגר@@": 7266, 
  "בדוק": 7267, 
  "ביצוע": 7268, 
  "ומתן": 7269, 
  "דויות": 7270, 
  "שהולך": 7271, 
  "חזרנו": 7272, 
  "פוד": 7273, 
  "לוט": 7274, 
  "נדון": 7275, 
  "סע": 7276, 
  "חלבונים": 7277, 
  "קנדה": 7278, 
  "האור@@": 7279, 
  "נחשוב": 7280, 
  "משפטים": 7281, 
  "שוואה": 7282, 
  "children": 7283, 
  "ולהכ@@": 7284, 
  "פגע": 7285, 
  "מופר@@": 7286, 
  "מתכו@@": 7287, 
  "בשלושה": 7288, 
  "ליבר@@": 7289, 
  "פרסום": 7290, 
  "חקלאות": 7291, 
  "חמור": 7292, 
  "הצלח@@": 7293, 
  "לפרסם": 7294, 
  "נסיה": 7295, 
  "שולטים": 7296, 
  "סר-@@": 7297, 
  "למני@@": 7298, 
  "חזקות": 7299, 
  "סיפורי": 7300, 
  "מידות": 7301, 
  "קראנו": 7302, 
  "הגשר": 7303, 
  "בני-@@": 7304, 
  "קרנו": 7305, 
  "החלב": 7306, 
  "ציית": 7307, 
  "אוש": 7308, 
  "חתי@@": 7309, 
  "הקונגרס": 7310, 
  "שף": 7311, 
  "בהע@@": 7312, 
  "מטופלים": 7313, 
  "טול": 7314, 
  "נתר": 7315, 
  "הוכחה": 7316, 
  "נוי@@": 7317, 
  "הכשרה": 7318, 
  "צצה": 7319, 
  "תחים": 7320, 
  "חולות": 7321, 
  "סורים": 7322, 
  "מלהי@@": 7323, 
  "לסיום": 7324, 
  "בשעה": 7325, 
  "ברשו@@": 7326, 
  "יאמרו": 7327, 
  "המונית": 7328, 
  "c@@": 7329, 
  "צוג": 7330, 
  "תקדים": 7331, 
  "מוז@@": 7332, 
  "ניגש": 7333, 
  "החלקיקים": 7334, 
  "התשובות": 7335, 
  "משעמם": 7336, 
  "מושל@@": 7337, 
  "סלם": 7338, 
  "לארגן": 7339, 
  "שבב": 7340, 
  "השקי@@": 7341, 
  "שאחרי": 7342, 
  "אובס@@": 7343, 
  "פוטנצי@@": 7344, 
  "מוץ": 7345, 
  "יצירתי": 7346, 
  "בחיפוש": 7347, 
  "הרוב": 7348, 
  "לאמנות": 7349, 
  "שרוצה": 7350, 
  "בגוגל": 7351, 
  "מתקרב": 7352, 
  "ציב": 7353, 
  "עצוב": 7354, 
  "הנייר": 7355, 
  "מסכים": 7356, 
  "שכבות": 7357, 
  "שש@@": 7358, 
  "x": 7359, 
  "העכבר": 7360, 
  "חדה": 7361, 
  "לבטא": 7362, 
  "לימדו": 7363, 
  "במקו@@": 7364, 
  "מזים": 7365, 
  "שעומד": 7366, 
  "מוזרים": 7367, 
  "הבסיסית": 7368, 
  "ינת": 7369, 
  "הביולוגיה": 7370, 
  "שבט": 7371, 
  "במבר": 7372, 
  "לנטה": 7373, 
  "מתנה": 7374, 
  "2003": 7375, 
  "ניצול": 7376, 
  "להצלחה": 7377, 
  "חלב": 7378, 
  "האסטרו@@": 7379, 
  "קסיטוצין": 7380, 
  "ומעולם": 7381, 
  "זקוקה": 7382, 
  "הכותרת": 7383, 
  "האורג@@": 7384, 
  "es.html": 7385, 
  "בעצמכם": 7386, 
  "מוציא": 7387, 
  "באמנות": 7388, 
  "עצרו": 7389, 
  "אלפ@@": 7390, 
  "היסטורי": 7391, 
  "חשבתם": 7392, 
  "שמגיעים": 7393, 
  "הפכנו": 7394, 
  "הצפו@@": 7395, 
  "an@@": 7396, 
  "מתוכנ@@": 7397, 
  "במשפחה": 7398, 
  "צג": 7399, 
  "ולד@@": 7400, 
  "האסי@@": 7401, 
  "הצעה": 7402, 
  "תוחלת": 7403, 
  "ההרים": 7404, 
  "נפליקט": 7405, 
  "הכרה": 7406, 
  "שנייה": 7407, 
  "ענות": 7408, 
  "קיינוסים": 7409, 
  "ציבוריים": 7410, 
  "לאלו": 7411, 
  "אוכלוסיית": 7412, 
  "במוזיאון": 7413, 
  "הבנת": 7414, 
  "קלאות": 7415, 
  "משלי": 7416, 
  "וכח": 7417, 
  "700": 7418, 
  "וחשוב": 7419, 
  "למטרה": 7420, 
  "עשיתם": 7421, 
  "בקבוצה": 7422, 
  "לטים": 7423, 
  "סטיות": 7424, 
  "לוקחת": 7425, 
  "דיהם": 7426, 
  "שיבו": 7427, 
  "פוליטיות": 7428, 
  "ציבור": 7429, 
  "בעיניים": 7430, 
  "ולגרום": 7431, 
  "שמאפשרת": 7432, 
  "סיבית": 7433, 
  "שאר@@": 7434, 
  "האינטר@@": 7435, 
  "הבנות": 7436, 
  "גבירותי": 7437, 
  "ליפות": 7438, 
  "הבניינים": 7439, 
  "יצר@@": 7440, 
  "הזדקנות": 7441, 
  "צא": 7442, 
  "לייזר": 7443, 
  "זירו": 7444, 
  "פרסם": 7445, 
  "הגבו@@": 7446, 
  "קוגני@@": 7447, 
  "ותראו": 7448, 
  "התקף": 7449, 
  "תקי@@": 7450, 
  "לטכנולוגיה": 7451, 
  "חמה": 7452, 
  "לח": 7453, 
  "לכדור": 7454, 
  "רוכ@@": 7455, 
  "ונת@@": 7456, 
  "סימט@@": 7457, 
  "נעלמו": 7458, 
  "נא": 7459, 
  "מת-@@": 7460, 
  "מתבג@@": 7461, 
  "ארט": 7462, 
  "שעשה": 7463, 
  "המהו@@": 7464, 
  "ללחוץ": 7465, 
  "אגיד": 7466, 
  "מכתב": 7467, 
  "נוצרו": 7468, 
  "שוג": 7469, 
  "הפלסטיק": 7470, 
  "רשימת": 7471, 
  "במתמטיקה": 7472, 
  "invention": 7473, 
  "--@@": 7474, 
  "מעקב": 7475, 
  "אבולוציו@@": 7476, 
  "מהבית": 7477, 
  "ייראה": 7478, 
  "שך": 7479, 
  "בחרתי": 7480, 
  "תכניות": 7481, 
  "חב": 7482, 
  "בתנועה": 7483, 
  "מתייחס": 7484, 
  "וליים": 7485, 
  "ליף": 7486, 
  "המשפחות": 7487, 
  "הצרכים": 7488, 
  "העיקריים": 7489, 
  "הבסיסיים": 7490, 
  "ורוב": 7491, 
  "יגיעו": 7492, 
  "תפס": 7493, 
  "תורמים": 7494, 
  "לחקות": 7495, 
  "נומים": 7496, 
  "למטרות": 7497, 
  "עכבר": 7498, 
  "התמוט@@": 7499, 
  "ולהו@@": 7500, 
  "קווי": 7501, 
  "פית@@": 7502, 
  "תכן": 7503, 
  "זרחים": 7504, 
  "היצור": 7505, 
  "אפריקאים": 7506, 
  "דרמטי": 7507, 
  "נער": 7508, 
  "החברתיים": 7509, 
  "הידו@@": 7510, 
  "בניסיון": 7511, 
  "ניתוחים": 7512, 
  "התפשטות": 7513, 
  "שנות@@": 7514, 
  "כוונות": 7515, 
  "מצויי@@": 7516, 
  "יחו@@": 7517, 
  "ראשוני": 7518, 
  "מדגים": 7519, 
  "אוטונו@@": 7520, 
  "לוק@@": 7521, 
  "הסכ@@": 7522, 
  "למק@@": 7523, 
  "ולדבר": 7524, 
  "בקליפורניה": 7525, 
  "הסכמה": 7526, 
  "עיף": 7527, 
  "ימינו": 7528, 
  "קווים": 7529, 
  "מלמ@@": 7530, 
  "אופי": 7531, 
  "ורבותי": 7532, 
  "סופר@@": 7533, 
  "כבה": 7534, 
  "L": 7535, 
  "תרונות": 7536, 
  "ההם": 7537, 
  "פיתי": 7538, 
  "לחד@@": 7539, 
  "מוא@@": 7540, 
  "ציון": 7541, 
  "הכול": 7542, 
  "נלנד": 7543, 
  "נפתח": 7544, 
  "גורל": 7545, 
  "התאמה": 7546, 
  "אהב": 7547, 
  "מז": 7548, 
  "ליו": 7549, 
  "וגו@@": 7550, 
  "אומרות": 7551, 
  "משי": 7552, 
  "ומק@@": 7553, 
  "יתו@@": 7554, 
  "ברפואה": 7555, 
  "מימדית": 7556, 
  "די-@@": 7557, 
  "בשקט": 7558, 
  "פאר@@": 7559, 
  "ורואים": 7560, 
  "כתי": 7561, 
  "שיכולנו": 7562, 
  "הפתעה": 7563, 
  "כשב@@": 7564, 
  "המזרח": 7565, 
  "לשכוח": 7566, 
  "מגבלות": 7567, 
  "שלאחר": 7568, 
  "בום": 7569, 
  "האפשר": 7570, 
  "יקח": 7571, 
  "ברעיון": 7572, 
  "בדקו": 7573, 
  "איג": 7574, 
  "לחמות": 7575, 
  "חלש": 7576, 
  "התינוקות": 7577, 
  "תיב": 7578, 
  "המהיר": 7579, 
  "הנפ@@": 7580, 
  "הכחדה": 7581, 
  "לאותה": 7582, 
  "בחזית": 7583, 
  "לימד": 7584, 
  "משוגע": 7585, 
  "פגיעה": 7586, 
  "הכת@@": 7587, 
  "P": 7588, 
  "חכמה": 7589, 
  "קאות": 7590, 
  "הזד@@": 7591, 
  "מניע": 7592, 
  "בקניה": 7593, 
  "שלמדנו": 7594, 
  "בהדרגה": 7595, 
  "במבט": 7596, 
  "מתיי@@": 7597, 
  "on@@": 7598, 
  "טחה": 7599, 
  "בקלי@@": 7600, 
  "יוצאי": 7601, 
  "סחר": 7602, 
  "לעוד": 7603, 
  "ת-": 7604, 
  "גידולים": 7605, 
  "לנתח": 7606, 
  "ניון": 7607, 
  "800": 7608, 
  "סטו": 7609, 
  "יוט": 7610, 
  "יווט": 7611, 
  "החיפוש": 7612, 
  "לחשוף": 7613, 
  "שצו@@": 7614, 
  "דר-@@": 7615, 
  "הסיוע": 7616, 
  ".5": 7617, 
  "הרביעי": 7618, 
  "כשהתחלתי": 7619, 
  "ור": 7620, 
  "נתה": 7621, 
  "גרעין": 7622, 
  "מציה": 7623, 
  "הרח@@": 7624, 
  "בבר@@": 7625, 
  "נכנסת": 7626, 
  "המאמר": 7627, 
  "הפיתוח": 7628, 
  "בדיחה": 7629, 
  "מודאגים": 7630, 
  "החושים": 7631, 
  "מולה": 7632, 
  "המודר@@": 7633, 
  "בתמונות": 7634, 
  "ביש": 7635, 
  "כללים": 7636, 
  "זעיר": 7637, 
  "גדי@@": 7638, 
  "הדוגמה": 7639, 
  "שיוצרים": 7640, 
  "גברת": 7641, 
  "תוס": 7642, 
  "לקר@@": 7643, 
  "הפשוט": 7644, 
  "קוריאה": 7645, 
  "לחברות": 7646, 
  "סנטי@@": 7647, 
  "ריצה": 7648, 
  "נשתמש": 7649, 
  "לדמות": 7650, 
  "לומה": 7651, 
  "עוץ": 7652, 
  "בעבור": 7653, 
  "רכיה": 7654, 
  "ציוני": 7655, 
  "עוזרים": 7656, 
  "ההחלטה": 7657, 
  "רמים": 7658, 
  "הבלתי-@@": 7659, 
  "קיפדיה": 7660, 
  "קטיביים": 7661, 
  "בירו": 7662, 
  "עירוני": 7663, 
  "מסיבה": 7664, 
  "חלון": 7665, 
  "אחזור": 7666, 
  "al@@": 7667, 
  "הלמידה": 7668, 
  "בהתבסס": 7669, 
  "לחמת": 7670, 
  "שולט": 7671, 
  "יצרה": 7672, 
  "וליה": 7673, 
  "ויום": 7674, 
  "לצורה": 7675, 
  "עצר": 7676, 
  "ממשלתי": 7677, 
  "לאית": 7678, 
  "דיגיטלית": 7679, 
  "הזי@@": 7680, 
  "ביצירת": 7681, 
  "יוצאות": 7682, 
  "לאיש": 7683, 
  "בפעולה": 7684, 
  "ההון": 7685, 
  "כלת": 7686, 
  "זני": 7687, 
  "השניים": 7688, 
  "הסר@@": 7689, 
  "יוע": 7690, 
  "עשע": 7691, 
  "טוט": 7692, 
  "פירו@@": 7693, 
  "מחבר": 7694, 
  "להתעניין": 7695, 
  "תין": 7696, 
  "פאו@@": 7697, 
  "הצהריים": 7698, 
  "דאי": 7699, 
  "אנלי@@": 7700, 
  "הה@@": 7701, 
  "עצמים": 7702, 
  "הפשע": 7703, 
  "מושכים": 7704, 
  "מגוחך": 7705, 
  "תגידו": 7706, 
  "שופ@@": 7707, 
  "קפו@@": 7708, 
  "ויזואלית": 7709, 
  "בלוג": 7710, 
  "מונעים": 7711, 
  "לשחזר": 7712, 
  "דנים": 7713, 
  "תכונה": 7714, 
  "גיעו": 7715, 
  "וואט": 7716, 
  "מבלים": 7717, 
  "חייתי": 7718, 
  "להקרי@@": 7719, 
  "מאים": 7720, 
  "מוניה": 7721, 
  "וכנראה": 7722, 
  "נה-@@": 7723, 
  "בדק": 7724, 
  "מזו": 7725, 
  "הסבירות": 7726, 
  "באט@@": 7727, 
  "הכניסה": 7728, 
  "כשולים": 7729, 
  "מהחיים": 7730, 
  "המנג@@": 7731, 
  "הנחה": 7732, 
  "התכנון": 7733, 
  "מתאימים": 7734, 
  "תכו@@": 7735, 
  "לתחום": 7736, 
  "מחיות": 7737, 
  "כיתה": 7738, 
  "R": 7739, 
  "אתרי": 7740, 
  "משלו": 7741, 
  "היגס": 7742, 
  "שגרם": 7743, 
  "שבדרך": 7744, 
  "מכוון": 7745, 
  "הלקוחות": 7746, 
  "אנרגיית": 7747, 
  "החיצוני": 7748, 
  "נתם": 7749, 
  "נדיר": 7750, 
  "environment": 7751, 
  "האורות": 7752, 
  "משאירים": 7753, 
  "מהיכן": 7754, 
  "גורמות": 7755, 
  "לפטו@@": 7756, 
  "שחי": 7757, 
  "לכולכם": 7758, 
  "לקחים": 7759, 
  "ה-60": 7760, 
  "טכנית": 7761, 
  "צעדים": 7762, 
  "עב": 7763, 
  "הקצר": 7764, 
  "הפיזי@@": 7765, 
  "לואיס": 7766, 
  "תרגי@@": 7767, 
  "התערבות": 7768, 
  "בניסוי": 7769, 
  "קחים": 7770, 
  "נובל": 7771, 
  "הבטחון": 7772, 
  "רקמות": 7773, 
  "סכון": 7774, 
  "ההקשר": 7775, 
  "ההתקדמות": 7776, 
  "שכבה": 7777, 
  "שמאפשרים": 7778, 
  "להתרחק": 7779, 
  "המבוגרים": 7780, 
  "ציאות": 7781, 
  "לתמונה": 7782, 
  "בבסיס": 7783, 
  "נהדרים": 7784, 
  "לסין": 7785, 
  "לקהילה": 7786, 
  "וישנם": 7787, 
  "55": 7788, 
  "ויטר": 7789, 
  "ובתוך": 7790, 
  "המושלם": 7791, 
  "רגר": 7792, 
  "לחתוך": 7793, 
  "דירים": 7794, 
  "משפיעים": 7795, 
  "מקסי@@": 7796, 
  "מציגים": 7797, 
  "צעירות": 7798, 
  "מתעניין": 7799, 
  "גלג@@": 7800, 
  "וצי@@": 7801, 
  "גונים": 7802, 
  "הסרטון": 7803, 
  "כנסים": 7804, 
  "לשתי": 7805, 
  "ידעתם": 7806, 
  "שלילי": 7807, 
  "נוסע": 7808, 
  "הרצי@@": 7809, 
  "ולמ@@": 7810, 
  "חידים": 7811, 
  "נותר": 7812, 
  "יזמים": 7813, 
  "לפיה": 7814, 
  "גולים": 7815, 
  "רכיט@@": 7816, 
  "ירוקים": 7817, 
  "חיתה": 7818, 
  "וקצת": 7819, 
  "וב-@@": 7820, 
  "לעצמך": 7821, 
  "כשירים": 7822, 
  "להתק@@": 7823, 
  "זז": 7824, 
  "חלבון": 7825, 
  "ונות": 7826, 
  "לפתרון": 7827, 
  "ri@@": 7828, 
  "וברור": 7829, 
  "ראיי@@": 7830, 
  "להשוות": 7831, 
  "לבזבז": 7832, 
  "מארק": 7833, 
  "דולים": 7834, 
  "הצורות": 7835, 
  "כותרות": 7836, 
  "נקבל": 7837, 
  "התודעה": 7838, 
  "שימים": 7839, 
  "דאגה": 7840, 
  "בגדים": 7841, 
  "רפואית": 7842, 
  "להרכיב": 7843, 
  "אמות": 7844, 
  "רחבת": 7845, 
  "סמך": 7846, 
  "עול@@": 7847, 
  "ולהתחיל": 7848, 
  "להודו": 7849, 
  "הלו": 7850, 
  "הגה": 7851, 
  "האחורית": 7852, 
  "לציבור": 7853, 
  "2,@@": 7854, 
  "סופית": 7855, 
  "ומצאתי": 7856, 
  "מהירים": 7857, 
  "בגן": 7858, 
  "נלך": 7859, 
  "האספ@@": 7860, 
  "שאדם": 7861, 
  "history": 7862, 
  "תפי@@": 7863, 
  "יסודי": 7864, 
  "איב": 7865, 
  "יורים": 7866, 
  "y.html": 7867, 
  "יתושים": 7868, 
  "טנטים": 7869, 
  "התנגדות": 7870, 
  "לשולחן": 7871, 
  "האנושיות": 7872, 
  "האדרי@@": 7873, 
  "הסופי": 7874, 
  "טו-@@": 7875, 
  "הקודם": 7876, 
  "הרווארד": 7877, 
  "המזרחי": 7878, 
  "סופר-@@": 7879, 
  "מבוגר": 7880, 
  "מצליחה": 7881, 
  "אוריה": 7882, 
  "מעבדה": 7883, 
  "חיוביים": 7884, 
  "אינטרא@@": 7885, 
  "שד": 7886, 
  "פלטפור@@": 7887, 
  "מנהי@@": 7888, 
  "בוסים": 7889, 
  "האישיות": 7890, 
  "Africa": 7891, 
  "שכך": 7892, 
  "מלח": 7893, 
  "מנתי": 7894, 
  "למחלות": 7895, 
  "טאן": 7896, 
  "הבאתי": 7897, 
  "התרו@@": 7898, 
  "טוא@@": 7899, 
  "שצי@@": 7900, 
  "מצום": 7901, 
  "פסא": 7902, 
  "הולכות": 7903, 
  "ביט": 7904, 
  "לקפוץ": 7905, 
  "המלא@@": 7906, 
  "בביולוגיה": 7907, 
  "כלבים": 7908, 
  "נויים": 7909, 
  "שהגיעו": 7910, 
  "תנאים": 7911, 
  "התבנית": 7912, 
  "תגו@@": 7913, 
  "חקת": 7914, 
  "בכלים": 7915, 
  "ומאוד": 7916, 
  "לרוע": 7917, 
  "המדי@@": 7918, 
  "הנפלא": 7919, 
  "וגי@@": 7920, 
  "טיו@@": 7921, 
  "שמאוד": 7922, 
  "קייפ": 7923, 
  "war": 7924, 
  "והשני": 7925, 
  "סטנ@@": 7926, 
  "בשינוי": 7927, 
  "טלפים": 7928, 
  "צע@@": 7929, 
  "אליהן": 7930, 
  "פלו": 7931, 
  "סבל": 7932, 
  "חינו@@": 7933, 
  "מתן": 7934, 
  "אספקת": 7935, 
  "סוכ@@": 7936, 
  "שמנסה": 7937, 
  "בדקנו": 7938, 
  "life": 7939, 
  "בשבילך": 7940, 
  "פיתרון": 7941, 
  "אוסטרליה": 7942, 
  "מתנהגים": 7943, 
  "ניידות": 7944, 
  "פגיעות": 7945, 
  "הקולות": 7946, 
  "להתנהג": 7947, 
  "הביקו@@": 7948, 
  "דיק": 7949, 
  "אובייקט": 7950, 
  "מצה": 7951, 
  "עמדתי": 7952, 
  "הרעות": 7953, 
  "תכלים": 7954, 
  "הקוטב": 7955, 
  "משתף": 7956, 
  "הוא@@": 7957, 
  "מוסר": 7958, 
  "ומאז": 7959, 
  "חשה": 7960, 
  "הסלול@@": 7961, 
  "הקפה": 7962, 
  "רווחים": 7963, 
  "רצח": 7964, 
  "סונים": 7965, 
  "כרישים": 7966, 
  "כיאט@@": 7967, 
  "והלכתי": 7968, 
  "עירים": 7969, 
  "אדוני": 7970, 
  "ינו@@": 7971, 
  "הזהות": 7972, 
  "שמצי@@": 7973, 
  "העדי@@": 7974, 
  "ק-@@": 7975, 
  "עמק": 7976, 
  "הק": 7977, 
  "התפתח": 7978, 
  "רגים": 7979, 
  "משתתפים": 7980, 
  "ראיים": 7981, 
  "אידים": 7982, 
  "מהלך": 7983, 
  "מתעניינים": 7984, 
  "יול": 7985, 
  "עיות": 7986, 
  "שי-@@": 7987, 
  "w@@": 7988, 
  "בכנות": 7989, 
  "וכבר": 7990, 
  "N": 7991, 
  "משנות": 7992, 
  "ממשלת": 7993, 
  "אונד": 7994, 
  "השאי@@": 7995, 
  "הגות": 7996, 
  "הוירטו@@": 7997, 
  "מוזיאון": 7998, 
  "סטרים": 7999, 
  "מכרות": 8000, 
  "המקצו@@": 8001, 
  "לכלא": 8002, 
  "גרין": 8003, 
  "פוננצי@@": 8004, 
  "רעה": 8005, 
  "ייחודית": 8006, 
  "יראו": 8007, 
  "וללמוד": 8008, 
  "חילוף": 8009, 
  "תוק": 8010, 
  "מיידי": 8011, 
  "דגם": 8012, 
  "טיפוסי": 8013, 
  "צוניים": 8014, 
  "בקים": 8015, 
  "שכדאי": 8016, 
  "דפוסים": 8017, 
  "עזבתי": 8018, 
  "ונס@@": 8019, 
  "יית": 8020, 
  "להתעלם": 8021, 
  "ודי": 8022, 
  "ארווין": 8023, 
  "סופט": 8024, 
  "פינגווינים": 8025, 
  "צהוב": 8026, 
  "גיון": 8027, 
  "אופנה": 8028, 
  "התחו@@": 8029, 
  "שאות": 8030, 
  "psychology": 8031, 
  "ובו": 8032, 
  "הסיכויים": 8033, 
  "עני": 8034, 
  "בצים": 8035, 
  "קרוא": 8036, 
  "ר.": 8037, 
  "המלך": 8038, 
  "מעורבות": 8039, 
  "שתרצו": 8040, 
  "התיאוריה": 8041, 
  "קבל": 8042, 
  "ביעילות": 8043, 
  "החיסון": 8044, 
  "הכבידה": 8045, 
  "היבט": 8046, 
  "התכנית": 8047, 
  "בתיכון": 8048, 
  "הרס": 8049, 
  "סביב@@": 8050, 
  "החודשים": 8051, 
  "המולד": 8052, 
  "הודעה": 8053, 
  "in@@": 8054, 
  "נוזל": 8055, 
  "מקלי@@": 8056, 
  "בשורה": 8057, 
  "עבודתם": 8058, 
  "הסתכל": 8059, 
  "כוונ@@": 8060, 
  "החברתיות": 8061, 
  "כולות": 8062, 
  "דוף": 8063, 
  "בהק@@": 8064, 
  "לזו": 8065, 
  "לקשר": 8066, 
  "עיתון": 8067, 
  "ר.@@": 8068, 
  "ספנו": 8069, 
  "ולשים": 8070, 
  "נמנ@@": 8071, 
  "למת@@": 8072, 
  "מי-@@": 8073, 
  "קודה": 8074, 
  "והבנתי": 8075, 
  "פתיחות": 8076, 
  "שדות": 8077, 
  "הפת@@": 8078, 
  "טילים": 8079, 
  "אונות": 8080, 
  "ותמיד": 8081, 
  "ללבוש": 8082, 
  "הזכיר": 8083, 
  "מויים": 8084, 
  "לקוחות": 8085, 
  "הודה": 8086, 
  "צוי": 8087, 
  "הדרומי": 8088, 
  "36": 8089, 
  "זמורת": 8090, 
  "למנו": 8091, 
  "חותיהם": 8092, 
  "סטרטגיה": 8093, 
  "משפחת": 8094, 
  "סמל": 8095, 
  "מרבה": 8096, 
  "לטפס": 8097, 
  "גרעי@@": 8098, 
  "דגימות": 8099, 
  "עמוקות": 8100, 
  "ן--": 8101, 
  "יווק": 8102, 
  "דשים": 8103, 
  "סיבוב": 8104, 
  "מעניינות": 8105, 
  "הסופית": 8106, 
  "ליפול": 8107, 
  "ישירה": 8108, 
  "חיסונים": 8109, 
  "בגישה": 8110, 
  "המוזיאון": 8111, 
  "טאים": 8112, 
  "ניסו@@": 8113, 
  "ביסו@@": 8114, 
  "הצ": 8115, 
  "הניסיון": 8116, 
  "גרש": 8117, 
  "העיתו@@": 8118, 
  "פרטיות": 8119, 
  "שהאדם": 8120, 
  "מונט@@": 8121, 
  "תוק@@": 8122, 
  "אינסטי@@": 8123, 
  "עורך": 8124, 
  "הופעות": 8125, 
  "אלות": 8126, 
  "נפח": 8127, 
  "גייטס": 8128, 
  "מגן": 8129, 
  "אוניברסיטת": 8130, 
  "האחת": 8131, 
  "אירועים": 8132, 
  "בכים": 8133, 
  "הדנ": 8134, 
  "לתהות": 8135, 
  "עסקי": 8136, 
  "ססת": 8137, 
  "המכשירים": 8138, 
  "נקיים": 8139, 
  "חיתות": 8140, 
  "ורבים": 8141, 
  "רעין": 8142, 
  "לפס@@": 8143, 
  "צורכים": 8144, 
  "הדמויות": 8145, 
  "התפתחו": 8146, 
  "שעתיים": 8147, 
  "שיע@@": 8148, 
  "מחול@@": 8149, 
  "הנשק": 8150, 
  "לממן": 8151, 
  "ֶ@@": 8152, 
  "כרטי@@": 8153, 
  "מילולית": 8154, 
  "הטעם": 8155, 
  "מרוצה": 8156, 
  "הלחם": 8157, 
  "שיצרנו": 8158, 
  "ההנחה": 8159, 
  "אריות": 8160, 
  "נפוץ": 8161, 
  "שומר": 8162, 
  "הערכים": 8163, 
  "יגידו": 8164, 
  "ממשל@@": 8165, 
  "לחינוך": 8166, 
  "בתנאים": 8167, 
  "ממלי@@": 8168, 
  "ארכיטקטורה": 8169, 
  "1000": 8170, 
  "אנושות": 8171, 
  "הנגיף": 8172, 
  "תרת": 8173, 
  "זיכרו": 8174, 
  "תעופה": 8175, 
  "בשיתוף": 8176, 
  "חני": 8177, 
  "איזון": 8178, 
  "אטה": 8179, 
  "שוכ@@": 8180, 
  "יצאנו": 8181, 
  "ההגנה": 8182, 
  "תורת": 8183, 
  "לקום": 8184, 
  "סטין": 8185, 
  "שב-@@": 8186, 
  "בידו@@": 8187, 
  "לעניין": 8188, 
  "צמח": 8189, 
  "נחמדה": 8190, 
  "צפו": 8191, 
  "תוכנו": 8192, 
  "גרמניה": 8193, 
  "חוס@@": 8194, 
  "חתיכות": 8195, 
  "מחזיקים": 8196, 
  "מציי@@": 8197, 
  "כלא": 8198, 
  "לור": 8199, 
  "הארכיטקטורה": 8200, 
  "הנהד@@": 8201, 
  "קדו@@": 8202, 
  "וירוסים": 8203, 
  "שבמקום": 8204, 
  "מצלמת": 8205, 
  "בפרס": 8206, 
  "השוואה": 8207, 
  "חפץ": 8208, 
  "בנושאים": 8209, 
  "נהגתי": 8210, 
  "בבק@@": 8211, 
  "אידי@@": 8212, 
  "שהיום": 8213, 
  "הראייה": 8214, 
  "מוסד": 8215, 
  "ציורים": 8216, 
  "נדרש": 8217, 
  "לוף": 8218, 
  "מעות": 8219, 
  "לקלוט": 8220, 
  "2011": 8221, 
  "לעזרה": 8222, 
  "השיא": 8223, 
  "חידושים": 8224, 
  "לקוח": 8225, 
  "פיזיקה": 8226, 
  "ויח": 8227, 
  "בימי": 8228, 
  "ההב@@": 8229, 
  "שותפות": 8230, 
  "מסורתי": 8231, 
  "גופי": 8232, 
  "ביעי": 8233, 
  "מעריך": 8234, 
  "הקיימות": 8235, 
  "אסיים": 8236, 
  "מפי": 8237, 
  "נכנסו": 8238, 
  "באפשרו@@": 8239, 
  "יתרונות": 8240, 
  "media": 8241, 
  "נשו@@": 8242, 
  "במר@@": 8243, 
  "משתי": 8244, 
  "משלות": 8245, 
  "שמנסים": 8246, 
  "בהצ@@": 8247, 
  "תמו@@": 8248, 
  "קדם": 8249, 
  "המדבר": 8250, 
  "42": 8251, 
  "רציונ@@": 8252, 
  "שעשוי": 8253, 
  "מאגר": 8254, 
  "יציבות": 8255, 
  "שיה": 8256, 
  "שימת": 8257, 
  "ביקשתי": 8258, 
  "שכזה": 8259, 
  "אישור": 8260, 
  "סונית": 8261, 
  "ונח@@": 8262, 
  "באנגליה": 8263, 
  "כשהן": 8264, 
  "הבר": 8265, 
  "הקהילות": 8266, 
  ".א.": 8267, 
  "הגב": 8268, 
  "מלון": 8269, 
  "להיפ@@": 8270, 
  "חמורה": 8271, 
  "הרובוטים": 8272, 
  "ולבנות": 8273, 
  "לפרו@@": 8274, 
  "מגנטי": 8275, 
  "מפנזים": 8276, 
  "להדגים": 8277, 
  "סיפרו": 8278, 
  "שיצא": 8279, 
  "שקיפות": 8280, 
  "בתעשיית": 8281, 
  "37": 8282, 
  "עט": 8283, 
  "ברצו@@": 8284, 
  "הקודמת": 8285, 
  "לארה": 8286, 
  "קוק@@": 8287, 
  "במאי": 8288, 
  "צל@@": 8289, 
  "ציאים": 8290, 
  "שכעת": 8291, 
  "נהיג": 8292, 
  "בוחן": 8293, 
  "—": 8294, 
  "למדינות": 8295, 
  "we": 8296, 
  "חודשיים": 8297, 
  "כלה": 8298, 
  "ירי@@": 8299, 
  "ונתן": 8300, 
  "וני": 8301, 
  "ניתנת": 8302, 
  "הטלפונים": 8303, 
  "הודעות": 8304, 
  "ועבור": 8305, 
  "דיעה": 8306, 
  "30,000": 8307, 
  "צול": 8308, 
  "ה-50": 8309, 
  "קונה": 8310, 
  "קופית": 8311, 
  "מובילה": 8312, 
  "המעניין": 8313, 
  "הלימודים": 8314, 
  "ֹ@@": 8315, 
  "כולי": 8316, 
  "בעייה": 8317, 
  "מעביר": 8318, 
  "טבעיים": 8319, 
  "צבאי@@": 8320, 
  "יתחילו": 8321, 
  "חשתי": 8322, 
  "הבריטי": 8323, 
  "מנהיג": 8324, 
  "דחי@@": 8325, 
  "השקופית": 8326, 
  "מטפלים": 8327, 
  "בטלפון": 8328, 
  "מתפק@@": 8329, 
  "המיקום": 8330, 
  "רובה": 8331, 
  "גיבור": 8332, 
  "רובנו": 8333, 
  "תמורת": 8334, 
  "שגוי": 8335, 
  "הרחבה": 8336, 
  "במשותף": 8337, 
  "120": 8338, 
  "פרה": 8339, 
  "להגשים": 8340, 
  "לר": 8341, 
  "סוי": 8342, 
  "ומיד": 8343, 
  "נפוצה": 8344, 
  "האוביי@@": 8345, 
  "פינה": 8346, 
  "טיבים": 8347, 
  "en@@": 8348, 
  "ואר": 8349, 
  "שרי": 8350, 
  "למשרד": 8351, 
  "סלאם": 8352, 
  "קטובר": 8353, 
  "מיידית": 8354, 
  "חבל": 8355, 
  "שעובד": 8356, 
  "הקרב": 8357, 
  "הגבולות": 8358, 
  "סדרת": 8359, 
  "השתנו": 8360, 
  "במגוון": 8361, 
  "נכתב": 8362, 
  "ידע@@": 8363, 
  "בעקרון": 8364, 
  "ולפתע": 8365, 
  "collaboration": 8366, 
  "צינור": 8367, 
  "תזונה": 8368, 
  "סגור": 8369, 
  "הביאה": 8370, 
  "סיד": 8371, 
  "רפים": 8372, 
  "עבוד@@": 8373, 
  "הישנה": 8374, 
  "בחייהם": 8375, 
  "אנדרו": 8376, 
  "נוב": 8377, 
  "1960": 8378, 
  "הגול@@": 8379, 
  "מלכתחילה": 8380, 
  "לכנות": 8381, 
  "חברו": 8382, 
  "במהרה": 8383, 
  "להעניק": 8384, 
  "לפו": 8385, 
  "קבוק": 8386, 
  "השתתפות": 8387, 
  "רצתה": 8388, 
  "הצידה": 8389, 
  "מלמטה": 8390, 
  "מיכה": 8391, 
  "מתכננים": 8392, 
  "לצערי": 8393, 
  "ויזו@@": 8394, 
  "נתיים": 8395, 
  "הרף": 8396, 
  "מייצגת": 8397, 
  "באשר": 8398, 
  "מחברים": 8399, 
  "מתקרבים": 8400, 
  "לספ@@": 8401, 
  "כימיה": 8402, 
  "ar@@": 8403, 
  "שינתה": 8404, 
  "גלו": 8405, 
  "טק@@": 8406, 
  "חרים": 8407, 
  "הפני@@": 8408, 
  "השמי@@": 8409, 
  "מלאכותי": 8410, 
  "ריקים": 8411, 
  "נערה": 8412, 
  "מסר@@": 8413, 
  "פרדע": 8414, 
  "W@@": 8415, 
  "חישוב": 8416, 
  "נוזאור": 8417, 
  "MRI": 8418, 
  "הנדסים": 8419, 
  "הגל": 8420, 
  "המצאה": 8421, 
  "במדו@@": 8422, 
  "לגובה": 8423, 
  "חמו@@": 8424, 
  "המלריה": 8425, 
  "רופאי": 8426, 
  "נופל": 8427, 
  "כיסא": 8428, 
  "הרשימה": 8429, 
  "היוצרים": 8430, 
  "התחום": 8431, 
  "אמינים": 8432, 
  "עוד@@": 8433, 
  "יחידה": 8434, 
  "מהותי": 8435, 
  "אנוס": 8436, 
  "מייצרת": 8437, 
  "מהפכת": 8438, 
  "בעבוד@@": 8439, 
  "הנכונים": 8440, 
  "מודעת": 8441, 
  "פרקים": 8442, 
  "אצבעות": 8443, 
  "אהו@@": 8444, 
  "מלאי": 8445, 
  "התופעה": 8446, 
  "גייה": 8447, 
  "כלש@@": 8448, 
  "עבודתי": 8449, 
  "ללות": 8450, 
  "״": 8451, 
  "בשמיים": 8452, 
  "החמצן": 8453, 
  "המלו@@": 8454, 
  "בקש": 8455, 
  "במלו@@": 8456, 
  "האוכלוסייה": 8457, 
  "איזשהו": 8458, 
  "באוניברסיטה": 8459, 
  "הרס@@": 8460, 
  "לעבד": 8461, 
  "ההע@@": 8462, 
  "הנקראת": 8463, 
  "באות": 8464, 
  "הגורמים": 8465, 
  "הטווח": 8466, 
  "העצום": 8467, 
  "יחידות": 8468, 
  "באדמה": 8469, 
  "הקרחון": 8470, 
  "מעגלים": 8471, 
  "המקומיים": 8472, 
  "פעלו": 8473, 
  "המונים": 8474, 
  "f@@": 8475, 
  "דרוש": 8476, 
  "מציגה": 8477, 
  "מצביע": 8478, 
  "את-@@": 8479, 
  "החליטה": 8480, 
  "סיון": 8481, 
  "מוצג": 8482, 
  "th@@": 8483, 
  "שקשור": 8484, 
  "אחדות": 8485, 
  "תיך": 8486, 
  "לרמות": 8487, 
  "לחנות": 8488, 
  "חוזה": 8489, 
  "הראשו@@": 8490, 
  "מיט@@": 8491, 
  "חלונות": 8492, 
  "הגג": 8493, 
  "נתקלתי": 8494, 
  "כאו@@": 8495, 
  "הכישורים": 8496, 
  "המנהיגים": 8497, 
  "מרפ@@": 8498, 
  "התרבו@@": 8499, 
  "רגלי": 8500, 
  "סבתא": 8501, 
  "יפהפי@@": 8502, 
  "דמויי": 8503, 
  "לתכנת": 8504, 
  "הרחוק": 8505, 
  "ואמרנו": 8506, 
  "מתרחשת": 8507, 
  "פנט@@": 8508, 
  "להשאר": 8509, 
  "שכנראה": 8510, 
  "פוש": 8511, 
  "המולקולות": 8512, 
  "ולגולת": 8513, 
  "כוחים": 8514, 
  "בווי@@": 8515, 
  "הלטינית": 8516, 
  "מבריק": 8517, 
  "שהפך": 8518, 
  "המאוד": 8519, 
  "יעזור": 8520, 
  "הנרי": 8521, 
  "תעו@@": 8522, 
  "מסויימות": 8523, 
  "ברואר": 8524, 
  "רוז": 8525, 
  "בוחר": 8526, 
  "הימני": 8527, 
  "טיסטיקות": 8528, 
  "פיעו": 8529, 
  "שעליהם": 8530, 
  "דוא": 8531, 
  "לשעה": 8532, 
  "u@@": 8533, 
  "בינלאומי": 8534, 
  "המודלים": 8535, 
  "נשארים": 8536, 
  "בטכנולוגיות": 8537, 
  "שבונות": 8538, 
  "הניו": 8539, 
  "נהיגות": 8540, 
  "הפוליטי": 8541, 
  "לנוכח": 8542, 
  "תיכות": 8543, 
  "מעבדת": 8544, 
  "רווחה": 8545, 
  "לתא": 8546, 
  "שכתבתי": 8547, 
  "ולחשוב": 8548, 
  "לתו": 8549, 
  "גזי": 8550, 
  "דנט": 8551, 
  "רוחב": 8552, 
  "אזורי": 8553, 
  "פחד@@": 8554, 
  "לשניה": 8555, 
  "מקל": 8556, 
  "מעבדות": 8557, 
  "מעני@@": 8558, 
  "שעד": 8559, 
  "סקר@@": 8560, 
  "במקור": 8561, 
  "לשבור": 8562, 
  "העצם": 8563, 
  "מכמה": 8564, 
  "תלו@@": 8565, 
  "00,000": 8566, 
  "מתאימה": 8567, 
  "מיטב": 8568, 
  "הנמו@@": 8569, 
  "לימודים": 8570, 
  "ד.@@": 8571, 
  "בור@@": 8572, 
  "49": 8573, 
  "יורדת": 8574, 
  "שלוח": 8575, 
  "קינס": 8576, 
  "שיית": 8577, 
  "קליים": 8578, 
  "המסורתית": 8579, 
  "והבעיה": 8580, 
  "לכאורה": 8581, 
  "ערכנו": 8582, 
  "תשעה": 8583, 
  "נהיגים": 8584, 
  "האופניים": 8585, 
  "שחקנים": 8586, 
  "קהילת": 8587, 
  "האצבעות": 8588, 
  "e": 8589, 
  "לנשום": 8590, 
  "ממת": 8591, 
  "זרימת": 8592, 
  "קציות": 8593, 
  "גולף": 8594, 
  "שוקולד": 8595, 
  "שרתי": 8596, 
  "החזו@@": 8597, 
  "הילדות": 8598, 
  "בליים": 8599, 
  "לסמוך": 8600, 
  "מחלקת": 8601, 
  "הרחב": 8602, 
  "למשחק": 8603, 
  "הכרתי": 8604, 
  "בחצר": 8605, 
  "לכוד": 8606, 
  "ביולוגים": 8607, 
  "שקרו": 8608, 
  "חולי": 8609, 
  "לסטיק": 8610, 
  "נוצרה": 8611, 
  "בתחרות": 8612, 
  "שכיום": 8613, 
  "energy": 8614, 
  "מקצועי": 8615, 
  "מוגנים": 8616, 
  "שאמרו": 8617, 
  "סומים": 8618, 
  "שלטון": 8619, 
  "פלדה": 8620, 
  "עדר": 8621, 
  "אגר@@": 8622, 
  "ידועים": 8623, 
  "נטיים": 8624, 
  "טרא@@": 8625, 
  "מושפ@@": 8626, 
  "שאותם": 8627, 
  "נשא": 8628, 
  "הקשור": 8629, 
  "אחותי": 8630, 
  "בזבוז": 8631, 
  "פיין": 8632, 
  "מיקרו-@@": 8633, 
  "בחינה": 8634, 
  "איבר": 8635, 
  "גמישות": 8636, 
  "רפאה": 8637, 
  "נעשית": 8638, 
  "ענקיים": 8639, 
  "ההמצאה": 8640, 
  "פניה": 8641, 
  "העלה": 8642, 
  "ומסו@@": 8643, 
  "וית@@": 8644, 
  "שישי": 8645, 
  "שיך": 8646, 
  "יוניים": 8647, 
  "פסל": 8648, 
  "האמין": 8649, 
  "שלפעמים": 8650, 
  "מציעים": 8651, 
  "כלוסיית": 8652, 
  "העשרים": 8653, 
  "הפיזי": 8654, 
  "מונעת": 8655, 
  "נעה": 8656, 
  "מלחי@@": 8657, 
  "בתוכה": 8658, 
  "משפחתו": 8659, 
  "רלס": 8660, 
  "ובעלי": 8661, 
  "98": 8662, 
  "e.html": 8663, 
  "בדם": 8664, 
  "המאבק": 8665, 
  "ידאו": 8666, 
  "התעניי@@": 8667, 
  "העובדות": 8668, 
  "צבעו@@": 8669, 
  "פנימי": 8670, 
  "מחיאות": 8671, 
  "בינה": 8672, 
  "בכלי": 8673, 
  "מוחי": 8674, 
  "דיע": 8675, 
  "באדום": 8676, 
  "אתאי@@": 8677, 
  "קופים": 8678, 
  "היבשת": 8679, 
  "animals": 8680, 
  "שחשבנו": 8681, 
  "שוקה": 8682, 
  "זמנו": 8683, 
  "עליים": 8684, 
  "חתם": 8685, 
  "דוקטור": 8686, 
  "ומצאנו": 8687, 
  "דושים": 8688, 
  "ביטוח": 8689, 
  "לטתי": 8690, 
  "שהטכנולוגיה": 8691, 
  "שתת@@": 8692, 
  "קסי@@": 8693, 
  "כשמדובר": 8694, 
  "בצורות": 8695, 
  "ווילי@@": 8696, 
  "מונח": 8697, 
  "כותרת": 8698, 
  "3.@@": 8699, 
  "תגיע": 8700, 
  "הנוגע": 8701, 
  "ביפן": 8702, 
  "עלולה": 8703, 
  "בעשור": 8704, 
  "במדעי": 8705, 
  "הפיר@@": 8706, 
  "המגזר": 8707, 
  "טרופיה": 8708, 
  "דיג": 8709, 
  "חלקיק": 8710, 
  "הציו@@": 8711, 
  "לסכם": 8712, 
  "פליטת": 8713, 
  "מזעז@@": 8714, 
  "הילות": 8715, 
  "שיווק": 8716, 
  "צלם": 8717, 
  "נשמע@@": 8718, 
  "טועה": 8719, 
  "תלמידי": 8720, 
  "סקרנות": 8721, 
  "סטיוארט": 8722, 
  "מאמרים": 8723, 
  "הפלא": 8724, 
  "בדן": 8725, 
  "ששמעתי": 8726, 
  "שעון": 8727, 
  "אישיים": 8728, 
  "רבע": 8729, 
  "האנגלית": 8730, 
  "מכשירי": 8731, 
  "מעטים": 8732, 
  "ידועה": 8733, 
  "לשחות": 8734, 
  "st@@": 8735, 
  ",000": 8736, 
  "ומד@@": 8737, 
  "עיתונאי": 8738, 
  "היותי": 8739, 
  "שכת": 8740, 
  "כללית": 8741, 
  "72": 8742, 
  "האבולו@@": 8743, 
  "מובילים": 8744, 
  "כירו@@": 8745, 
  "לאה": 8746, 
  "לברוח": 8747, 
  "מודי": 8748, 
  "להרוס": 8749, 
  "רלוונטי": 8750, 
  "מאוניברסיטת": 8751, 
  "אדמות": 8752, 
  "עליי@@": 8753, 
  "אספו": 8754, 
  "שתיות": 8755, 
  "חלקת": 8756, 
  "השמאלי": 8757, 
  "להיוו@@": 8758, 
  "חלקה": 8759, 
  "ברך": 8760, 
  "ביצים": 8761, 
  "בבו": 8762, 
  "humor": 8763, 
  "לפניכם": 8764, 
  "עלויות": 8765, 
  "האומנות": 8766, 
  "המשיכו": 8767, 
  "נראתה": 8768, 
  "מקשיבים": 8769, 
  "אקולוגית": 8770, 
  "אומן": 8771, 
  "רבן": 8772, 
  "green": 8773, 
  "הבתים": 8774, 
  "אנלו@@": 8775, 
  "האחים": 8776, 
  "רנטגן": 8777, 
  "נטה": 8778, 
  "בקולג": 8779, 
  "יצאה": 8780, 
  "יפות": 8781, 
  "יגרום": 8782, 
  "ענח": 8783, 
  "או.@@": 8784, 
  "הגיל": 8785, 
  "ייחודי": 8786, 
  "שאיש": 8787, 
  "תבו@@": 8788, 
  "בריות": 8789, 
  "קטי": 8790, 
  "רחוקים": 8791, 
  "בחומר": 8792, 
  "פלות": 8793, 
  "מאט": 8794, 
  "נצ": 8795, 
  "מיקלים": 8796, 
  "סביבות": 8797, 
  "נסיעה": 8798, 
  "בחמש": 8799, 
  "זולוציה": 8800, 
  "כיוו@@": 8801, 
  "אופרה": 8802, 
  "אבני": 8803, 
  "בפרי@@": 8804, 
  "מתפתחת": 8805, 
  "חזיר": 8806, 
  "קנית": 8807, 
  "זכו": 8808, 
  "תהליכים": 8809, 
  "גירסה": 8810, 
  "וללא": 8811, 
  "ביכולת": 8812, 
  "טוענים": 8813, 
  "מכון": 8814, 
  "סיפוק": 8815, 
  "ובדיוק": 8816, 
  "להתי@@": 8817, 
  "אפשרו": 8818, 
  "הזמין": 8819, 
  "מסגרת": 8820, 
  "ביקש": 8821, 
  "אתיופיה": 8822, 
  "הזיכרון": 8823, 
  "קלט": 8824, 
  "ג.": 8825, 
  "תזו@@": 8826, 
  "קולי": 8827, 
  "כוש": 8828, 
  "חושים": 8829, 
  "הלוח": 8830, 
  "פורסם": 8831, 
  "תכת": 8832, 
  "38": 8833, 
  "כיסוי": 8834, 
  "יוונים": 8835, 
  "קרא@@": 8836, 
  "נרדו": 8837, 
  "תעשייתי": 8838, 
  "ניל": 8839, 
  "אלמוגים": 8840, 
  "טכנולו@@": 8841, 
  "performance": 8842, 
  "זוב": 8843, 
  "הדגמה": 8844, 
  "לסיכום": 8845, 
  "מהיום": 8846, 
  "פא": 8847, 
  "חשבה": 8848, 
  "מסחר": 8849, 
  "ואותו": 8850, 
  "לנטי": 8851, 
  "ארים": 8852, 
  "מגרש": 8853, 
  "שהולכים": 8854, 
  "טוענת": 8855, 
  "הסביר": 8856, 
  "שיום": 8857, 
  "העוצמה": 8858, 
  "להתו@@": 8859, 
  "מצחי@@": 8860, 
  "שדיברתי": 8861, 
  "לבמה": 8862, 
  "הדף": 8863, 
  "אט": 8864, 
  "נעליים": 8865, 
  "לצחוק": 8866, 
  "הפנימית": 8867, 
  "לגידול": 8868, 
  "קודים": 8869, 
  "להבהיר": 8870, 
  "ביט@@": 8871, 
  "עניתי": 8872, 
  "האהובים": 8873, 
  "היטים": 8874, 
  "er": 8875, 
  "כאים": 8876, 
  "לפיתוח": 8877, 
  "הפשוטה": 8878, 
  "זכיתי": 8879, 
  "עודף": 8880, 
  "אמין": 8881, 
  "עורכי": 8882, 
  "מוצאת": 8883, 
  "בידיים": 8884, 
  "שהיקום": 8885, 
  "הכמות": 8886, 
  "הנוכ@@": 8887, 
  "מחי": 8888, 
  "ובדרך": 8889, 
  "סיטי": 8890, 
  "ימשיכו": 8891, 
  "גרסה": 8892, 
  "ריא": 8893, 
  "ההוכ@@": 8894, 
  "ריבו@@": 8895, 
  "רכיים": 8896, 
  "מוכרחים": 8897, 
  "במטרה": 8898, 
  "ינות": 8899, 
  "קושי": 8900, 
  "לבניין": 8901, 
  "במבנה": 8902, 
  "מצפון": 8903, 
  "הבינלאומית": 8904, 
  "שאותה": 8905, 
  "השווקים": 8906, 
  "ניסטית": 8907, 
  "דך": 8908, 
  "future": 8909, 
  "גוג": 8910, 
  "אמיתיות": 8911, 
  "טייה": 8912, 
  "דוס": 8913, 
  "אקראי": 8914, 
  "מופ@@": 8915, 
  "וכשאתם": 8916, 
  "עף": 8917, 
  "נתנה": 8918, 
  "ארכיט@@": 8919, 
  "מרחי@@": 8920, 
  "לארי": 8921, 
  "שורת": 8922, 
  "תקבל": 8923, 
  "פונה": 8924, 
  "גלת": 8925, 
  "הופיעו": 8926, 
  "המדהימים": 8927, 
  "התקד@@": 8928, 
  "עורכים": 8929, 
  "בתוכנית": 8930, 
  "וכמעט": 8931, 
  "האיזור": 8932, 
  "ירונים": 8933, 
  "ועשינו": 8934, 
  "מולקולה": 8935, 
  "96": 8936, 
  "סבורים": 8937, 
  "הבחי@@": 8938, 
  "לקצה": 8939, 
  "אונ@@": 8940, 
  "הביצועים": 8941, 
  "הקריאה": 8942, 
  "חלקכם": 8943, 
  "להאט": 8944, 
  "מתקשר": 8945, 
  "יג": 8946, 
  "גורמי": 8947, 
  "ושני": 8948, 
  "מאבק": 8949, 
  "כלכלנים": 8950, 
  "קולק@@": 8951, 
  "להפריד": 8952, 
  "טעים": 8953, 
  "האירופי": 8954, 
  "מדעיים": 8955, 
  "לתות": 8956, 
  "התקציב": 8957, 
  "במפרץ": 8958, 
  "הציפורים": 8959, 
  "פשו": 8960, 
  "שער": 8961, 
  "שיפה": 8962, 
  "בוי@@": 8963, 
  "אנטו@@": 8964, 
  "השחקנים": 8965, 
  "מרות": 8966, 
  "הירים": 8967, 
  "תיקון": 8968, 
  "מסתכלת": 8969, 
  "דרכם": 8970, 
  "אפים": 8971, 
  "ילדי": 8972, 
  "31": 8973, 
  "להנד@@": 8974, 
  "הסטנדר@@": 8975, 
  "האמן": 8976, 
  "שייה": 8977, 
  "סיימו": 8978, 
  "פצי@@": 8979, 
  "לטבע": 8980, 
  "לסקו@@": 8981, 
  "חשבות": 8982, 
  "לאמן": 8983, 
  "ננסי": 8984, 
  "הכיוונים": 8985, 
  "בחוף": 8986, 
  "שעם": 8987, 
  "דול": 8988, 
  "הקבוצות": 8989, 
  "חבו@@": 8990, 
  "architecture": 8991, 
  "האטמוספירה": 8992, 
  "נתיב": 8993, 
  "דעתם": 8994, 
  "אמצים": 8995, 
  "הזרם": 8996, 
  "היערות": 8997, 
  "יונקים": 8998, 
  "דוח": 8999, 
  "ומב@@": 9000, 
  "קרובה": 9001, 
  "li@@": 9002, 
  "אותכם": 9003, 
  "עירות": 9004, 
  "ולדות": 9005, 
  "שנול@@": 9006, 
  "מיומנות": 9007, 
  "סיכולו@@": 9008, 
  "תובנה": 9009, 
  "אכלו": 9010, 
  "העשירים": 9011, 
  "גנות": 9012, 
  "דעתכם": 9013, 
  "מכור": 9014, 
  "הכיתה": 9015, 
  "לאיך": 9016, 
  "ספונט@@": 9017, 
  "מאחד": 9018, 
  "נתפס": 9019, 
  "מזיק": 9020, 
  "קרני": 9021, 
  "בנתה": 9022, 
  "מוגבלים": 9023, 
  "ההכרה": 9024, 
  "גרה": 9025, 
  "מנצח": 9026, 
  "בבעיה": 9027, 
  "כואב": 9028, 
  "women": 9029, 
  "נופיה": 9030, 
  "בוגר": 9031, 
  "הגדי@@": 9032, 
  "נוסים": 9033, 
  "סביבו": 9034, 
  "פשטים": 9035, 
  "רקד@@": 9036, 
  "להקה": 9037, 
  "תאונות": 9038, 
  "בהריון": 9039, 
  "הקצה": 9040, 
  "בוושינגטון": 9041, 
  "ניינות": 9042, 
  "אורות": 9043, 
  "ללב": 9044, 
  "בר-קיימא": 9045, 
  "לרוחב": 9046, 
  "האבקה": 9047, 
  "נפרדים": 9048, 
  "לטון": 9049, 
  "מאותה": 9050, 
  "טורפים": 9051, 
  "הקשורים": 9052, 
  "ישו": 9053, 
  "זזים": 9054, 
  "2002": 9055, 
  "שלחתי": 9056, 
  "הצלילים": 9057, 
  "ויל": 9058, 
  "מתפתחים": 9059, 
  "וכיום": 9060, 
  "לרעה": 9061, 
  "אדירים": 9062, 
  "סרי": 9063, 
  "תמותת": 9064, 
  "בשיטה": 9065, 
  "קשו@@": 9066, 
  "מאלו": 9067, 
  "שיכולות": 9068, 
  "לתרגם": 9069, 
  "חילה": 9070, 
  "הסביב@@": 9071, 
  "מבצ@@": 9072, 
  "I": 9073, 
  "בולים": 9074, 
  "ומקבלים": 9075, 
  "שמתם": 9076, 
  "שבח@@": 9077, 
  "הפיכה": 9078, 
  "מעולים": 9079, 
  "צודקים": 9080, 
  "לאל": 9081, 
  "אלטרנטי@@": 9082, 
  "עוב@@": 9083, 
  "מאפ@@": 9084, 
  "ביקרתי": 9085, 
  "למדי@@": 9086, 
  "מחסור": 9087, 
  "זרעים": 9088, 
  "רחקים": 9089, 
  "מוטיבציה": 9090, 
  "יורקר": 9091, 
  "אחות": 9092, 
  "בעיתון": 9093, 
  "בברזיל": 9094, 
  "נחת": 9095, 
  "סיבים": 9096, 
  "עויות": 9097, 
  "בועה": 9098, 
  "טיסטיקה": 9099, 
  "יציב": 9100, 
  "צרכים": 9101, 
  "אורגניזם": 9102, 
  "אוטובוס": 9103, 
  "הסירה": 9104, 
  "רפור@@": 9105, 
  "הקמנו": 9106, 
  "הסחר": 9107, 
  "פרטיים": 9108, 
  "עולמנו": 9109, 
  "כראוי": 9110, 
  "ביער": 9111, 
  "מלאות": 9112, 
  "ההא@@": 9113, 
  "הערות": 9114, 
  "ביקשו": 9115, 
  "ובעוד": 9116, 
  "מארג@@": 9117, 
  "שנותן": 9118, 
  "נכים": 9119, 
  "שנן": 9120, 
  "מתמקדים": 9121, 
  "ובמהלך": 9122, 
  "עצי": 9123, 
  "הרפובלי@@": 9124, 
  "הדתות": 9125, 
  "כפולה": 9126, 
  "בניגריה": 9127, 
  "שבתוך": 9128, 
  "טיביים": 9129, 
  "זולה": 9130, 
  "להגביר": 9131, 
  "כימיים": 9132, 
  "אנטיביוטיקה": 9133, 
  "ומספר": 9134, 
  "נוע@@": 9135, 
  "לתוכו": 9136, 
  "אחריהם": 9137, 
  "קש": 9138, 
  "יקרים": 9139, 
  "הפתרונות": 9140, 
  "en": 9141, 
  "בקהילות": 9142, 
  "פלס@@": 9143, 
  "המצאת": 9144, 
  "זורמים": 9145, 
  "בוצות": 9146, 
  "הרדיו": 9147, 
  "צרי": 9148, 
  "בפחות": 9149, 
  "זקנים": 9150, 
  "עוברות": 9151, 
  "בעלי-חיים": 9152, 
  "הפשו@@": 9153, 
  "לגור": 9154, 
  "ro@@": 9155, 
  "שנראים": 9156, 
  "ההתק@@": 9157, 
  "אובדן": 9158, 
  "שמאחורי": 9159, 
  "קיסטן": 9160, 
  "רגשת": 9161, 
  "כשהו": 9162, 
  "הציבוריים": 9163, 
  "המרחק": 9164, 
  "מפעיל": 9165, 
  "מתחבר": 9166, 
  "שורי": 9167, 
  "תונות": 9168, 
  "וניסיתי": 9169, 
  "הפיכת": 9170, 
  "שמשתמשים": 9171, 
  "הקים": 9172, 
  "קת@@": 9173, 
  "שימושים": 9174, 
  "ויוצרים": 9175, 
  "אבנים": 9176, 
  "מוקדמת": 9177, 
  "השיעור": 9178, 
  "פנינו": 9179, 
  "ששמעתם": 9180, 
  "ההיפך": 9181, 
  "החזק": 9182, 
  "קטיקה": 9183, 
  "קרק@@": 9184, 
  "בצ": 9185, 
  "מחלקים": 9186, 
  "רוסיה": 9187, 
  "התס@@": 9188, 
  "קניתי": 9189, 
  "it@@": 9190, 
  "מלך": 9191, 
  "פורה": 9192, 
  "34": 9193, 
  "פרד": 9194, 
  "סופרים": 9195, 
  "אנגיו@@": 9196, 
  "קינ@@": 9197, 
  "ההשקעה": 9198, 
  "הציוד": 9199, 
  "z@@": 9200, 
  "תגיד": 9201, 
  "לסוף": 9202, 
  "הגזע": 9203, 
  "בבניין": 9204, 
  "מגדל": 9205, 
  "מופת@@": 9206, 
  "בפרוייקט": 9207, 
  "נהנה": 9208, 
  "לבניה": 9209, 
  "שטוח": 9210, 
  "הפרחים": 9211, 
  "הבירה": 9212, 
  "הלקח": 9213, 
  "התשתית": 9214, 
  "הסינים": 9215, 
  "האשה": 9216, 
  "קבועה": 9217, 
  "מועיל": 9218, 
  "שרדו": 9219, 
  "ציקלו@@": 9220, 
  "סוכים": 9221, 
  "ריקוד": 9222, 
  "סדות": 9223, 
  "ציאת": 9224, 
  "לינא@@": 9225, 
  "אבו": 9226, 
  "סקו": 9227, 
  "זרוע": 9228, 
  "סופ@@": 9229, 
  "שיקרה": 9230, 
  "צמבר": 9231, 
  "חבר@@": 9232, 
  "דמוי": 9233, 
  "השחיתות": 9234, 
  "כתם": 9235, 
  "פשהו": 9236, 
  "תרשו": 9237, 
  "עוט": 9238, 
  "נלחמים": 9239, 
  "אלצהיימר": 9240, 
  "בביה": 9241, 
  "אליזם": 9242, 
  "דק@@": 9243, 
  "משרות": 9244, 
  "להזמין": 9245, 
  "להי": 9246, 
  "כירים": 9247, 
  "בקבוצות": 9248, 
  "הקצב": 9249, 
  "הממוצעת": 9250, 
  "בסבי@@": 9251, 
  "הגולמי": 9252, 
  "ביו": 9253, 
  "הרגלים": 9254, 
  "שהראיתי": 9255, 
  "mi@@": 9256, 
  "מחויי@@": 9257, 
  "בשורות": 9258, 
  "המשותף": 9259, 
  "שלאנשים": 9260, 
  "סקות": 9261, 
  "מחיי@@": 9262, 
  "מנצלים": 9263, 
  "שמקבלים": 9264, 
  "סולין": 9265, 
  "הבנים": 9266, 
  "במחשבים": 9267, 
  "עיוור": 9268, 
  "צנו": 9269, 
  "הערמונית": 9270, 
  "מוספרה": 9271, 
  "ועשיתי": 9272, 
  "פיליפ": 9273, 
  "מובנים": 9274, 
  "פיעים": 9275, 
  "אגים": 9276, 
  "פתע": 9277, 
  "המתפתחות": 9278, 
  "ילדו@@": 9279, 
  "הסיליקון": 9280, 
  "חופשיים": 9281, 
  "המבנים": 9282, 
  "משמעותיות": 9283, 
  "צאת": 9284, 
  "הער@@": 9285, 
  "ששמו": 9286, 
  "עולמות": 9287, 
  "הילי@@": 9288, 
  "קיץ": 9289, 
  "דפו@@": 9290, 
  "m": 9291, 
  "כולתנו": 9292, 
  "פולים": 9293, 
  "בוח@@": 9294, 
  "בנפרד": 9295, 
  "o@@": 9296, 
  "שחושבים": 9297, 
  "הממו@@": 9298, 
  "יות-@@": 9299, 
  "שפגשתי": 9300, 
  "מען": 9301, 
  "מרוויחים": 9302, 
  "בטן": 9303, 
  "הסתכלנו": 9304, 
  "הסבל": 9305, 
  "הקופים": 9306, 
  "שכר": 9307, 
  "הטיפוס": 9308, 
  "קינוס": 9309, 
  "זמינים": 9310, 
  "יהאד": 9311, 
  "ולעולם": 9312, 
  "חמשת": 9313, 
  "טרנס@@": 9314, 
  "המאפיינים": 9315, 
  "השתנתה": 9316, 
  "הכירו": 9317, 
  "מציעה": 9318, 
  "הזנב": 9319, 
  "להתפשט": 9320, 
  "מכרו": 9321, 
  "תוהים": 9322, 
  "הרפת@@": 9323, 
  "פער": 9324, 
  "המתאים": 9325, 
  "חכו": 9326, 
  "יונו@@": 9327, 
  "שהיית": 9328, 
  "לסגור": 9329, 
  "רובכם": 9330, 
  "לזרוק": 9331, 
  "sh@@": 9332, 
  "התנהגותי": 9333, 
  "רציניים": 9334, 
  "כלכלת": 9335, 
  "ב-18@@": 9336, 
  "פוג": 9337, 
  "סטריט": 9338, 
  "צצים": 9339, 
  "לירות": 9340, 
  "אנוני@@": 9341, 
  "קריטית": 9342, 
  "הלכ@@": 9343, 
  "תשלום": 9344, 
  "ברכבת": 9345, 
  "שטי@@": 9346, 
  "קסון": 9347, 
  "ספר@@": 9348, 
  "2.@@": 9349, 
  "מקצוע": 9350, 
  "שולח": 9351, 
  "לשאלות": 9352, 
  "מכוסה": 9353, 
  "סבול": 9354, 
  "הצבעה": 9355, 
  "מימי": 9356, 
  "זכרים": 9357, 
  "שכאן": 9358, 
  "מופיעה": 9359, 
  "פוט@@": 9360, 
  "שאז": 9361, 
  "הוציאו": 9362, 
  "נכונים": 9363, 
  "לאינ@@": 9364, 
  "פוליטיים": 9365, 
  "ביולוגיים": 9366, 
  "הקרובים": 9367, 
  "המוזי@@": 9368, 
  "ספי": 9369, 
  "בבי": 9370, 
  "אגת": 9371, 
  "הסבי@@": 9372, 
  "במפה": 9373, 
  "ההתבגרות": 9374, 
  "השירותים": 9375, 
  "חירים": 9376, 
  "תולים": 9377, 
  "ברג@@": 9378, 
  "לטי@@": 9379, 
  "חצ@@": 9380, 
  "ברקע": 9381, 
  "להתע@@": 9382, 
  "שיון": 9383, 
  "החול": 9384, 
  "אלת": 9385, 
  "במצבים": 9386, 
  "חילים": 9387, 
  "איין": 9388, 
  "השמנת": 9389, 
  "לילדי@@": 9390, 
  "נבח@@": 9391, 
  "בעבו@@": 9392, 
  "המותג": 9393, 
  "הסוד": 9394, 
  "אחים": 9395, 
  "תקציב": 9396, 
  "זיכ@@": 9397, 
  "ידו": 9398, 
  "שצריכים": 9399, 
  "כווץ": 9400, 
  "הבשורות": 9401, 
  "רגישות": 9402, 
  "עקרונית": 9403, 
  "לשתות": 9404, 
  "פרתי": 9405, 
  "אבת": 9406, 
  "חשמלית": 9407, 
  "נקי@@": 9408, 
  "אינטליגנ@@": 9409, 
  "סנדר": 9410, 
  "הקולק@@": 9411, 
  "סביבתית": 9412, 
  "געת": 9413, 
  "שאומרת": 9414, 
  "בו-זמנית": 9415, 
  "מתנג@@": 9416, 
  "לגודל": 9417, 
  "כותנה": 9418, 
  "חונים": 9419, 
  "אבר@@": 9420, 
  "בזו": 9421, 
  "שבגללה": 9422, 
  "מכתבים": 9423, 
  "מקי": 9424, 
  "סימול@@": 9425, 
  "יבוא": 9426, 
  "מהודו": 9427, 
  "חייבות": 9428, 
  "ולהש@@": 9429, 
  "בתחילה": 9430, 
  "גשר": 9431, 
  "נעי@@": 9432, 
  "למורים": 9433, 
  "משלי@@": 9434, 
  "הבנתם": 9435, 
  "אימון": 9436, 
  "שאינה": 9437, 
  "שעבדו": 9438, 
  "שוש": 9439, 
  "גיר@@": 9440, 
  "מעלים": 9441, 
  "איסוף": 9442, 
  "בטעות": 9443, 
  "מרצה": 9444, 
  "פיינמן": 9445, 
  "בשבילם": 9446, 
  "בשבילו": 9447, 
  "שיבים": 9448, 
  "טניה": 9449, 
  "אגה": 9450, 
  "בבני": 9451, 
  "הנפלאה": 9452, 
  "הייחו@@": 9453, 
  "קווה": 9454, 
  "אבדו": 9455, 
  "משה": 9456, 
  "נזו@@": 9457, 
  "פפים": 9458, 
  "אכי@@": 9459, 
  "היומיום": 9460, 
  "יצליח": 9461, 
  "רוטב": 9462, 
  "ופו@@": 9463, 
  "הארקטי": 9464, 
  "תיקים": 9465, 
  "בנפט": 9466, 
  "מדויק": 9467, 
  "באסיה": 9468, 
  "הכללית": 9469, 
  "למשפחה": 9470, 
  "מצות": 9471, 
  "להתקרב": 9472, 
  "המוחל@@": 9473, 
  "הפסקה": 9474, 
  "חללים": 9475, 
  "שהתחלנו": 9476, 
  "ב-10": 9477, 
  "הדוגמא": 9478, 
  "שואלת": 9479, 
  "דחף": 9480, 
  "מניעה": 9481, 
  "בנייה": 9482, 
  "שעומדים": 9483, 
  "לני@@": 9484, 
  "מהאוכלוסיה": 9485, 
  "דונם": 9486, 
  "החיילים": 9487, 
  "זולים": 9488, 
  "באויר": 9489, 
  "תחתי": 9490, 
  "דכאון": 9491, 
  "סט-@@": 9492, 
  "קופסת": 9493, 
  "מיליארדים": 9494, 
  "פטר": 9495, 
  "להכיל": 9496, 
  "בחדשות": 9497, 
  "עלו@@": 9498, 
  "ונסון": 9499, 
  "ארכי@@": 9500, 
  "מולקול@@": 9501, 
  "צולמה": 9502, 
  "ריירה": 9503, 
  "קמות": 9504, 
  "טריה": 9505, 
  "ציאו": 9506, 
  "יצירתית": 9507, 
  "צדקה": 9508, 
  "לשוב": 9509, 
  "שברי@@": 9510, 
  "הבוד@@": 9511, 
  "הקירות": 9512, 
  "הכלא": 9513, 
  "הבטיחות": 9514, 
  "תושבי": 9515, 
  "ששני": 9516, 
  "מרוכ@@": 9517, 
  "בתקשורת": 9518, 
  "בניה": 9519, 
  "קסמים": 9520, 
  "להוות": 9521, 
  "אקולוגיות": 9522, 
  "המחשבות": 9523, 
  "גנון": 9524, 
  "דניאל": 9525, 
  "ברוו@@": 9526, 
  "בכמות": 9527, 
  "שמרו": 9528, 
  "ביכולתנו": 9529, 
  "קניה": 9530, 
  "הזרוע": 9531, 
  "מכולם": 9532, 
  "אסטרטגיה": 9533, 
  "טלי": 9534, 
  "שטויות": 9535, 
  "מושגים": 9536, 
  "הביט": 9537, 
  "ארוחות": 9538, 
  "העידן": 9539, 
  "טסון": 9540, 
  "לבחי@@": 9541, 
  "להתערב": 9542, 
  "להאיץ": 9543, 
  "יוק": 9544, 
  "תמותה": 9545, 
  "שאינן": 9546, 
  "ולוגיים": 9547, 
  "world": 9548, 
  "הרוחות": 9549, 
  "שנהיה": 9550, 
  "העשורים": 9551, 
  "מוגד@@": 9552, 
  "or@@": 9553, 
  "חלומות": 9554, 
  "במטוס": 9555, 
  "הנוס@@": 9556, 
  "חממה": 9557, 
  "וקי@@": 9558, 
  "התקו@@": 9559, 
  "רות-@@": 9560, 
  "להשתפר": 9561, 
  "בכת@@": 9562, 
  "לאיים": 9563, 
  "ברצוננו": 9564, 
  "הנמלים": 9565, 
  "מבעד": 9566, 
  "נרל": 9567, 
  "עשיה": 9568, 
  "תיע": 9569, 
  "שלד": 9570, 
  "דונים": 9571, 
  "ברק": 9572, 
  "הרחובות": 9573, 
  "נטון": 9574, 
  "ter": 9575, 
  "עונש": 9576, 
  "מסוכנים": 9577, 
  "U@@": 9578, 
  "והטכנולוגיה": 9579, 
  "הפטנטים": 9580, 
  "הראשוני": 9581, 
  "והט@@": 9582, 
  "שתף": 9583, 
  "הגבר": 9584, 
  "G": 9585, 
  "מצביעים": 9586, 
  "למחוק": 9587, 
  "ההפך": 9588, 
  "מטען": 9589, 
  "מאתגר": 9590, 
  "שיוצא": 9591, 
  "הזר@@": 9592, 
  "־": 9593, 
  "קוט": 9594, 
  "עוסקת": 9595, 
  "אנר@@": 9596, 
  "שעלי": 9597, 
  "האלמוגים": 9598, 
  "חרטה": 9599, 
  "נחוץ": 9600, 
  "מקושרים": 9601, 
  "מוטר@@": 9602, 
  "בהד@@": 9603, 
  "השער": 9604, 
  "דעתנו": 9605, 
  "המיטה": 9606, 
  "וויקיפדיה": 9607, 
  "מורת": 9608, 
  "שתחשבו": 9609, 
  "בכוונה": 9610, 
  "צובים": 9611, 
  "מבזבזים": 9612, 
  "כילד": 9613, 
  "אוף": 9614, 
  "פריט": 9615, 
  "לעובדה": 9616, 
  "סיפרה": 9617, 
  "עילויות": 9618, 
  "שכדי": 9619, 
  "תאוריה": 9620, 
  "ובעזרת": 9621, 
  "לנקות": 9622, 
  "64": 9623, 
  "ולחנות": 9624, 
  "נותרו": 9625, 
  "דורים": 9626, 
  "פשרה": 9627, 
  "להקדיש": 9628, 
  "43": 9629, 
  "לאותם": 9630, 
  "שוחד": 9631, 
  "גמות": 9632, 
  "הגובה": 9633, 
  "לאת": 9634, 
  "תהפוך": 9635, 
  "העבודות": 9636, 
  "התה": 9637, 
  "-אס": 9638, 
  "הנהג": 9639, 
  "הבעלים": 9640, 
  "לוסוף": 9641, 
  "דווד": 9642, 
  "אלג@@": 9643, 
  "שנמצאת": 9644, 
  "התפתחו@@": 9645, 
  "הכיוון": 9646, 
  "מוסריות": 9647, 
  "שתק@@": 9648, 
  "תרות": 9649, 
  "משמעותה": 9650, 
  "שנבנה": 9651, 
  "מעדיף": 9652, 
  "הפחות": 9653, 
  "וו": 9654, 
  "גין": 9655, 
  "זעירים": 9656, 
  "טפים": 9657, 
  "הכללים": 9658, 
  "הדיון": 9659, 
  "לדון": 9660, 
  "מסובכת": 9661, 
  "המעגל": 9662, 
  "הראיתי": 9663, 
  "למכונית": 9664, 
  "חולק": 9665, 
  "סימפ@@": 9666, 
  "השיניים": 9667, 
  "בעצמה": 9668, 
  "נעשתה": 9669, 
  "כוונת": 9670, 
  "משנת": 9671, 
  "נוירו@@": 9672, 
  "ולר@@": 9673, 
  "לאנ@@": 9674, 
  "למפות": 9675, 
  "דנטים": 9676, 
  "לסדר": 9677, 
  "ap@@": 9678, 
  "רושם": 9679, 
  "שונאים": 9680, 
  "העושר": 9681, 
  "שותה": 9682, 
  "מטים": 9683, 
  "הפוכה": 9684, 
  "גדילה": 9685, 
  "לרופא": 9686, 
  "ההגדרה": 9687, 
  "לדר@@": 9688, 
  "מירה": 9689, 
  "הסתם": 9690, 
  "לסובב": 9691, 
  "כוכב-לכת": 9692, 
  "הקוונ@@": 9693, 
  "activism": 9694, 
  "מאפיינים": 9695, 
  "מבי": 9696, 
  "פיזי": 9697, 
  "קרקעית": 9698, 
  "תזכרו": 9699, 
  "שהגעתי": 9700, 
  "למין": 9701, 
  "האותיות": 9702, 
  "מדידה": 9703, 
  "זכרונות": 9704, 
  "קיקה": 9705, 
  "כונת": 9706, 
  "שייתכן": 9707, 
  "פופולרי": 9708, 
  "ירוקה": 9709, 
  "המדרגות": 9710, 
  "46": 9711, 
  "אלקטרוני": 9712, 
  "סרטי": 9713, 
  "עשו@@": 9714, 
  "הפרס": 9715, 
  "סנד@@": 9716, 
  "הרימו": 9717, 
  "ברכב": 9718, 
  "ביאו": 9719, 
  "נסי": 9720, 
  "באדם": 9721, 
  "האש@@": 9722, 
  "סיביות": 9723, 
  "להבי@@": 9724, 
  "זווית": 9725, 
  "ti@@": 9726, 
  "צפויים": 9727, 
  "האירוע": 9728, 
  "אוי@@": 9729, 
  "שנינו": 9730, 
  "מרו": 9731, 
  "תיאטרון": 9732, 
  "הנצ@@": 9733, 
  "מדוי@@": 9734, 
  "בארו@@": 9735, 
  "לכסות": 9736, 
  "V@@": 9737, 
  "הטיסה": 9738, 
  "גרתי": 9739, 
  "שבמקרה": 9740, 
  "הארי@@": 9741, 
  "בתה": 9742, 
  "תוכנת": 9743, 
  "ברגל": 9744, 
  "התחבורה": 9745, 
  "כימי": 9746, 
  "ט.@@": 9747, 
  "בעזר@@": 9748, 
  "וודאי": 9749, 
  "הורגים": 9750, 
  "לשלו@@": 9751, 
  "ארת": 9752, 
  "במיקרו@@": 9753, 
  "בעולמנו": 9754, 
  "כותבת": 9755, 
  "לכלי": 9756, 
  "טען": 9757, 
  "קרר": 9758, 
  "טפת": 9759, 
  "---": 9760, 
  "החרקים": 9761, 
  "de@@": 9762, 
  "להריץ": 9763, 
  "רומו@@": 9764, 
  "בפרט": 9765, 
  "הצט@@": 9766, 
  "שמבו@@": 9767, 
  "לבעלי": 9768, 
  "לרמת": 9769, 
  "וסט@@": 9770, 
  "פעולת": 9771, 
  "הכתו@@": 9772, 
  "44": 9773, 
  "ולשנות": 9774, 
  "נישו@@": 9775, 
  "ירדו": 9776, 
  "יתן": 9777, 
  "דח@@": 9778, 
  "חתיכה": 9779, 
  "פירוש": 9780, 
  "איס@@": 9781, 
  "לאומיות": 9782, 
  "שיט@@": 9783, 
  "מפספ@@": 9784, 
  "הנחות": 9785, 
  "פיננ@@": 9786, 
  "בינלאומית": 9787, 
  "להיעשות": 9788, 
  "צולם": 9789, 
  "עוצר": 9790, 
  "חזי@@": 9791, 
  "הוראות": 9792, 
  "במכון": 9793, 
  "דו-חמצני": 9794, 
  "הקלא@@": 9795, 
  "כאחד": 9796, 
  "הרעב": 9797, 
  "גורה": 9798, 
  "ודי@@": 9799, 
  "לפרוייקט": 9800, 
  "הילת": 9801, 
  "לולי": 9802, 
  "תהיינה": 9803, 
  "תג": 9804, 
  "סאונד": 9805, 
  "ליט": 9806, 
  "הפסקת": 9807, 
  "ההס@@": 9808, 
  "בסרטון": 9809, 
  "ערי": 9810, 
  "פטרי@@": 9811, 
  "במכוניות": 9812, 
  "דתיים": 9813, 
  "לפרוץ": 9814, 
  "עודית": 9815, 
  "תיאור": 9816, 
  "נגווינים": 9817, 
  "ר.ב.": 9818, 
  "כינו": 9819, 
  "קומיקס": 9820, 
  "בתנו": 9821, 
  "ששמענו": 9822, 
  "החיבור": 9823, 
  "הודים": 9824, 
  "לסבול": 9825, 
  "עזבו": 9826, 
  "שרף": 9827, 
  "בחון": 9828, 
  "יתית": 9829, 
  "איראן": 9830, 
  "והחלטתי": 9831, 
  "חובות": 9832, 
  "מצויינת": 9833, 
  "יווי": 9834, 
  "רל": 9835, 
  "86": 9836, 
  "טרויט": 9837, 
  "אהה": 9838, 
  "לטת": 9839, 
  "דוקטו@@": 9840, 
  "מזר@@": 9841, 
  "ברורים": 9842, 
  "לנק@@": 9843, 
  "כוונו": 9844, 
  "מוצלחת": 9845, 
  "אוז@@": 9846, 
  "ניצבים": 9847, 
  "יכ@@": 9848, 
  "שלק@@": 9849, 
  "הספינה": 9850, 
  "טנפורד": 9851, 
  "כוללים": 9852, 
  "המוקדמים": 9853, 
  "האחוזים": 9854, 
  "קלאים": 9855, 
  "שקיבלנו": 9856, 
  "k": 9857, 
  "מההתחלה": 9858, 
  "רישות": 9859, 
  "סלע": 9860, 
  "וצו@@": 9861, 
  "פוליטיקאים": 9862, 
  "משוכנע": 9863, 
  "מנהטן": 9864, 
  "בתכנון": 9865, 
  "בבחירות": 9866, 
  "מבריקים": 9867, 
  "מליוני": 9868, 
  "אורז": 9869, 
  "זיהו@@": 9870, 
  "לבים": 9871, 
  "תנה": 9872, 
  "שמאלה": 9873, 
  "מתפר@@": 9874, 
  "רכיטקטו@@": 9875, 
  "בתגובה": 9876, 
  "נולדו": 9877, 
  "ניך": 9878, 
  "מגזין": 9879, 
  "חייל": 9880, 
  "העכ@@": 9881, 
  "להיום": 9882, 
  "המוסר": 9883, 
  "se@@": 9884, 
  "ההתחממות": 9885, 
  "שוף": 9886, 
  "נאס": 9887, 
  "בירות": 9888, 
  "דשת": 9889, 
  "אינטראקציות": 9890, 
  "קעים": 9891, 
  "ברוח": 9892, 
  "מועצת": 9893, 
  "הממשלות": 9894, 
  "ולנ@@": 9895, 
  "שאליו": 9896, 
  "מעשית": 9897, 
  "הקדמו@@": 9898, 
  "ראשו": 9899, 
  "שלווה": 9900, 
  "מופלא": 9901, 
  "הזכויות": 9902, 
  "2.5": 9903, 
  "בשניה": 9904, 
  "מחברת": 9905, 
  "ציפיתי": 9906, 
  "talk": 9907, 
  "אנגלי": 9908, 
  "ליטות": 9909, 
  "תני": 9910, 
  "המתים": 9911, 
  "בגל@@": 9912, 
  "שהמדע": 9913, 
  "שחורה": 9914, 
  "שנשאר": 9915, 
  "הנישו@@": 9916, 
  "קוק": 9917, 
  "חצי@@": 9918, 
  "מליים": 9919, 
  "נתקלים": 9920, 
  "מקובל": 9921, 
  "מצייר": 9922, 
  "צינו@@": 9923, 
  "מייק": 9924, 
  "וב": 9925, 
  "כנסי@@": 9926, 
  "פותרים": 9927, 
  "בקיצור": 9928, 
  "סקוט": 9929, 
  "רמז": 9930, 
  "עלייה": 9931, 
  "פרוט@@": 9932, 
  "שטיין": 9933, 
  "בדרך-כלל": 9934, 
  "למט@@": 9935, 
  "יקט": 9936, 
  "מסורתית": 9937, 
  "כלוסין": 9938, 
  "הסיני": 9939, 
  "טכנולוגי": 9940, 
  "כיזופרניה": 9941, 
  "התנ": 9942, 
  "המילי@@": 9943, 
  "לנחש": 9944, 
  "דיוויד": 9945, 
  "טניים": 9946, 
  "אזר@@": 9947, 
  "הנו": 9948, 
  "לבניית": 9949, 
  "והתוצאה": 9950, 
  "הלום": 9951, 
  "אטל": 9952, 
  "נמצ@@": 9953, 
  "הרגילה": 9954, 
  "פיצה": 9955, 
  "אלוג": 9956, 
  "תרפיה": 9957, 
  "עתיק": 9958, 
  "אלמו@@": 9959, 
  "באינ@@": 9960, 
  "הטקסט": 9961, 
  "הקיים": 9962, 
  "רגשים": 9963, 
  "הגלובליזציה": 9964, 
  "מעודד": 9965, 
  "האולטימטי@@": 9966, 
  "נביט": 9967, 
  "ראויים": 9968, 
  "הלות": 9969, 
  "חיקוי": 9970, 
  "מזיקים": 9971, 
  "פתיה": 9972, 
  "המציאו": 9973, 
  "חושה": 9974, 
  "שנדרש": 9975, 
  "הזכוכית": 9976, 
  "שט": 9977, 
  "המלכו@@": 9978, 
  "ממשיכה": 9979, 
  "לינקולן": 9980, 
  "שפעם": 9981, 
  "חמישים": 9982, 
  "המסח@@": 9983, 
  "עוצמ@@": 9984, 
  "עוררים": 9985, 
  "יקום": 9986, 
  "גוסט": 9987, 
  "לאט@@": 9988, 
  "עתם": 9989, 
  "ולט@@": 9990, 
  "ברונקס": 9991, 
  "לארצות": 9992, 
  "משוגעים": 9993, 
  "נתבונן": 9994, 
  "פגשו": 9995, 
  "קורסים": 9996, 
  "ייק": 9997, 
  "הדבש": 9998, 
  "לכבות": 9999, 
  "שומת": 10000, 
  "עמיתים": 10001, 
  "דתם": 10002, 
  "מפיקים": 10003, 
  "בינואר": 10004, 
  "בכיס": 10005, 
  "עיקרון": 10006, 
  "son": 10007, 
  "ציונים": 10008, 
  "בייצור": 10009, 
  "נגינה": 10010, 
  "להדביק": 10011, 
  "זמננו": 10012, 
  "מחליטים": 10013, 
  "העיתון": 10014, 
  "קינסון": 10015, 
  "פמין": 10016, 
  "המימון": 10017, 
  "גיבורים": 10018, 
  "דרווין": 10019, 
  "באש": 10020, 
  "מיקו@@": 10021, 
  "צעו": 10022, 
  "עצת": 10023, 
  "ברזל": 10024, 
  "משאיר": 10025, 
  "לדס": 10026, 
  "באוכלוסיה": 10027, 
  "ביתי": 10028, 
  "שנכנס": 10029, 
  "בקשה": 10030, 
  "ומכיוון": 10031, 
  "דרכה": 10032, 
  "הקשיבו": 10033, 
  "סוני": 10034, 
  "שכם": 10035, 
  "הדינוזאורים": 10036, 
  "מספרי": 10037, 
  "היווצ@@": 10038, 
  "תרנג@@": 10039, 
  "ממציא": 10040, 
  "דיגמה": 10041, 
  "בייחוד": 10042, 
  "נפטר": 10043, 
  "הרכבה": 10044, 
  "הבריטית": 10045, 
  "העברת": 10046, 
  "תחמוצת": 10047, 
  "ששות": 10048, 
  "ארגוני": 10049, 
  "העתיקה": 10050, 
  "במטבח": 10051, 
  "מתמשך": 10052, 
  "לאושר": 10053, 
  "קיימברידג": 10054, 
  "תובנות": 10055, 
  "משתמשות": 10056, 
  "שכתב": 10057, 
  "בנשים": 10058, 
  "חוקית": 10059, 
  "מתקבל": 10060, 
  "חות@@": 10061, 
  "וכשהם": 10062, 
  "אימים": 10063, 
  "המפץ": 10064, 
  "נוגעים": 10065, 
  "במפעל": 10066, 
  "חרות": 10067, 
  "רחובות": 10068, 
  "יתנים": 10069, 
  "בוננות": 10070, 
  "מטיות": 10071, 
  "מגמה": 10072, 
  "הקלה": 10073, 
  "האין": 10074, 
  "תגליות": 10075, 
  "העיתונות": 10076, 
  "הכרחי": 10077, 
  "הכימיה": 10078, 
  "פנטסטי": 10079, 
  "הרשתות": 10080, 
  "מאין": 10081, 
  "הנסיון": 10082, 
  "הפדר@@": 10083, 
  "ספינות": 10084, 
  "לאדמה": 10085, 
  "הגז": 10086, 
  "אוצר": 10087, 
  "להנות": 10088, 
  "הארגונים": 10089, 
  "דואר": 10090, 
  "פעילויות": 10091, 
  "הגרוע": 10092, 
  "דה-@@": 10093, 
  "שאכן": 10094, 
  "computers": 10095, 
  "ביק": 10096, 
  "לעסקים": 10097, 
  "רגם": 10098, 
  "למתי": 10099, 
  "שמכ@@": 10100, 
  "חדרים": 10101, 
  "הסימנים": 10102, 
  "חומים": 10103, 
  "י-פי@@": 10104, 
  "קונג": 10105, 
  "הקווים": 10106, 
  "מתחברים": 10107, 
  "גוריות": 10108, 
  "הדיו@@": 10109, 
  "הרגעים": 10110, 
  "happiness": 10111, 
  "לשלום": 10112, 
  ".com": 10113, 
  "נאמי": 10114, 
  "בעובדה": 10115, 
  "עסוקים": 10116, 
  "לוודאי": 10117, 
  "חיידק": 10118, 
  "מכת@@": 10119, 
  "שהתרחש": 10120, 
  "מופע": 10121, 
  "לשקול": 10122, 
  "ההודי": 10123, 
  "להטיל": 10124, 
  "בושה": 10125, 
  "חותינו": 10126, 
  "משתפים": 10127, 
  "רפואיים": 10128, 
  "פירושו": 10129, 
  "photography": 10130, 
  "לשלושה": 10131, 
  "שיאפשרו": 10132, 
  "בחורים": 10133, 
  "לימודי": 10134, 
  "מפנ@@": 10135, 
  "העיק@@": 10136, 
  "חניה": 10137, 
  "רמ@@": 10138, 
  "לחלום": 10139, 
  "הכבישים": 10140, 
  "שהרעיון": 10141, 
  "לבל": 10142, 
  "המאמץ": 10143, 
  "מחוברת": 10144, 
  "הארי": 10145, 
  "המולקולה": 10146, 
  "במלים": 10147, 
  "בקשתי": 10148, 
  "ומתוך": 10149, 
  "ולמדתי": 10150, 
  "תרבותי": 10151, 
  "ניח": 10152, 
  "מרוצים": 10153, 
  "הגלקסיות": 10154, 
  "לונן": 10155, 
  "רחת": 10156, 
  "כיים": 10157, 
  "כשרים": 10158, 
  "לצ": 10159, 
  "בכתב": 10160, 
  "לוו@@": 10161, 
  "ונעשה": 10162, 
  "דרשו": 10163, 
  "ארגן": 10164, 
  "ביניהן": 10165, 
  "היעד": 10166, 
  "רישה": 10167, 
  "להבדיל": 10168, 
  "עוק@@": 10169, 
  "בחורף": 10170, 
  "מלכו@@": 10171, 
  "שהז@@": 10172, 
  "עקבות": 10173, 
  "על-ידיי": 10174, 
  "ing.html": 10175, 
  "המורשת": 10176, 
  "מדמיינים": 10177, 
  "המפורסם": 10178, 
  "מלפ@@": 10179, 
  "נופלים": 10180, 
  "אלכו@@": 10181, 
  "יהפכו": 10182, 
  "והעובדה": 10183, 
  "כונן": 10184, 
  "תקחו": 10185, 
  "עשויות": 10186, 
  "להימצא": 10187, 
  "ומערכת": 10188, 
  "בגרמניה": 10189, 
  "חרו@@": 10190, 
  "ולעבוד": 10191, 
  "לחלקים": 10192, 
  "בראשי": 10193, 
  "והילדים": 10194, 
  "הצלחות": 10195, 
  "בטא": 10196, 
  "דרון": 10197, 
  "ם@@": 10198, 
  "האב": 10199, 
  "ינ@@": 10200, 
  "דקנו": 10201, 
  "הקדי@@": 10202, 
  "עוקב": 10203, 
  "תורם": 10204, 
  "פוסים": 10205, 
  "כספי": 10206, 
  "חושב@@": 10207, 
  "המשטח": 10208, 
  "am@@": 10209, 
  "שתה": 10210, 
  "חיפשתי": 10211, 
  "צמה": 10212, 
  "הודי": 10213, 
  "ולהגיע": 10214, 
  "בחנים": 10215, 
  "אוהב@@": 10216, 
  "הציוויליזציה": 10217, 
  "שאסור": 10218, 
  "מכירות": 10219, 
  "בדיקת": 10220, 
  "נישואין": 10221, 
  "מכסה": 10222, 
  "בכ-@@": 10223, 
  "לשדה": 10224, 
  "המקורית": 10225, 
  "תשימו": 10226, 
  "ול-@@": 10227, 
  "ra@@": 10228, 
  "קיצוניים": 10229, 
  "רדו": 10230, 
  "הכבי@@": 10231, 
  "מסתובבים": 10232, 
  "מית@@": 10233, 
  "ססים": 10234, 
  "ירדה": 10235, 
  "H": 10236, 
  "במא@@": 10237, 
  "השימפנזים": 10238, 
  "מימדי@@": 10239, 
  "ביקשנו": 10240, 
  "נחים": 10241, 
  "אבקש": 10242, 
  "דענו": 10243, 
  "עודי": 10244, 
  "האומה": 10245, 
  "הליכי": 10246, 
  "דקים": 10247, 
  "השנתיים": 10248, 
  "שיעשו": 10249, 
  "דא": 10250, 
  "שישנה": 10251, 
  "אלקטרוניקה": 10252, 
  "ש-": 10253, 
  "מעכשיו": 10254, 
  "פסי": 10255, 
  "התאוריה": 10256, 
  "הבדי@@": 10257, 
  "מהבעיות": 10258, 
  "שמני@@": 10259, 
  "לאחת": 10260, 
  "בודות": 10261, 
  "האינטואי@@": 10262, 
  "תרמו": 10263, 
  "אטומים": 10264, 
  "מלק@@": 10265, 
  "נבחן": 10266, 
  "אשמה": 10267, 
  "חדשניים": 10268, 
  "מטיה": 10269, 
  "אישתי": 10270, 
  "גנו@@": 10271, 
  "לשאר": 10272, 
  "ננו@@": 10273, 
  "תקנו": 10274, 
  "הרפואית": 10275, 
  "מופלאה": 10276, 
  "שורשים": 10277, 
  "מוני": 10278, 
  "שמיעה": 10279, 
  "מחברי": 10280, 
  "משמעותיים": 10281, 
  "שיושב": 10282, 
  "מסמכים": 10283, 
  "זכרון": 10284, 
  "גדות": 10285, 
  "דנ": 10286, 
  "אינטראקטיבי": 10287, 
  "תיקה": 10288, 
  "הכללי": 10289, 
  "הציע": 10290, 
  "6,000": 10291, 
  "הידרו@@": 10292, 
  "טכניקות": 10293, 
  "במת@@": 10294, 
  "Y": 10295, 
  "כשהגעתי": 10296, 
  "הברו@@": 10297, 
  "נגל@@": 10298, 
  "כנון": 10299, 
  "החלון": 10300, 
  "לויים": 10301, 
  "טרת": 10302, 
  "נוצרת": 10303, 
  "עמי": 10304, 
  "נש": 10305, 
  "חדרי": 10306, 
  "בצרפת": 10307, 
  "איל@@": 10308, 
  "בודה": 10309, 
  "התער@@": 10310, 
  "העמוד": 10311, 
  "בותי": 10312, 
  "שתמשו": 10313, 
  "התמיכה": 10314, 
  "ניברס@@": 10315, 
  "מולק@@": 10316, 
  "שוט": 10317, 
  "מפנה": 10318, 
  "הגלקסיה": 10319, 
  "במספרים": 10320, 
  "מתמטית": 10321, 
  "ma@@": 10322, 
  "מטריד": 10323, 
  "מכוונים": 10324, 
  "נגר@@": 10325, 
  "food": 10326, 
  "200,000": 10327, 
  "52": 10328, 
  "ך@@": 10329, 
  "צועים": 10330, 
  "פואה": 10331, 
  "בהיר": 10332, 
  "סקת": 10333, 
  "עיון": 10334, 
  "יוחד": 10335, 
  "שומע@@": 10336, 
  "מלח@@": 10337, 
  "גיט@@": 10338, 
  "משמעו": 10339, 
  "קבות": 10340, 
  "ליגנ@@": 10341, 
  "כות@@": 10342, 
  "our": 10343, 
  "מוקד@@": 10344, 
  "mar@@": 10345, 
  "הבסי@@": 10346, 
  "39": 10347, 
  "נלח@@": 10348, 
  "communication": 10349, 
  "short": 10350, 
  "2050": 10351, 
  "מונית": 10352, 
  "מוצע": 10353, 
  "innovation": 10354, 
  "קיצו@@": 10355, 
  "what": 10356, 
  "מותה": 10357, 
  "המשי@@": 10358, 
  "טיבציה": 10359, 
  "סויים": 10360, 
  "המולק@@": 10361, 
  "58": 10362, 
  "טוי": 10363, 
  "מאל": 10364, 
  "el": 10365, 
  "l@@": 10366, 
  "ספרה": 10367, 
  "מלאכו@@": 10368, 
  "הסתכ@@": 10369, 
  "חח": 10370, 
  "evolution": 10371, 
  "PA": 10372, 
  "גידו": 10373, 
  "a.html": 10374, 
  "3,@@": 10375, 
  "exploration": 10376, 
  "at@@": 10377, 
  "לארו@@": 10378, 
  "הגים": 10379, 
  "הצל@@": 10380, 
  "56": 10381, 
  "מחזי@@": 10382, 
  "ויר": 10383, 
  "משקי@@": 10384, 
  "דעי": 10385, 
  "130": 10386, 
  "בסס": 10387, 
  "דוק": 10388, 
  "צעי@@": 10389, 
  "with": 10390, 
  "לחמה": 10391, 
  "מתקר@@": 10392, 
  "במט@@": 10393, 
  "טלי@@": 10394, 
  "z": 10395, 
  "יו-יורק": 10396, 
  "מנע": 10397, 
  "אמינו": 10398, 
  "מסתכ@@": 10399, 
  "דגי@@": 10400, 
  "השתמש@@": 10401, 
  "40@@": 10402, 
  "לפון": 10403, 
  "why": 10404, 
  "350": 10405, 
  "poverty": 10406, 
  "97": 10407, 
  "פדיה": 10408, 
  "נהד@@": 10409, 
  "from": 10410, 
  "סטרט@@": 10411, 
  "ge@@": 10412, 
  "דאו": 10413, 
  "כשיו": 10414, 
  "למיד": 10415, 
  "0,000": 10416, 
  "as@@": 10417, 
  "נהגים": 10418, 
  "94": 10419, 
  "מיום": 10420, 
  "y": 10421, 
  "בעלים": 10422, 
  "M": 10423, 
  "האב@@": 10424, 
  "Y@@": 10425, 
  "בשבי@@": 10426, 
  "רפת": 10427, 
  "1.5": 10428, 
  "0-@@": 10429, 
  "b": 10430, 
  "חוד@@": 10431, 
  "2020": 10432, 
  "כניס": 10433, 
  "גבו@@": 10434, 
  "J@@": 10435, 
  "david": 10436, 
  "v@@": 10437, 
  "2012": 10438, 
  "לטפור@@": 10439, 
  "your": 10440, 
  "מתכוו@@": 10441, 
  "הממשל@@": 10442, 
  "המדהי@@": 10443, 
  "physics": 10444, 
  "ֵ@@": 10445, 
  "GPS": 10446, 
  "מוש": 10447, 
  "קשורת": 10448, 
  "and@@": 10449, 
  "גיב": 10450, 
  "תוכו": 10451, 
  "גס": 10452, 
  "di@@": 10453, 
  "מברי@@": 10454, 
  "פך": 10455, 
  "ף@@": 10456, 
  "CO2": 10457, 
  "data": 10458, 
  "oceans": 10459, 
  "76": 10460, 
  "לפונים": 10461, 
  "59": 10462, 
  "40,000": 10463, 
  "גוני": 10464, 
  "לקטרו@@": 10465, 
  "1990": 10466, 
  "כפת": 10467, 
  "development": 10468, 
  "ליקון": 10469, 
  "חיפ@@": 10470, 
  "לוונ@@": 10471, 
  "ביעים": 10472, 
  "הדמו@@": 10473, 
  "es": 10474, 
  "new": 10475, 
  "תכלו": 10476, 
  "נגטון": 10477, 
  "כניקות": 10478, 
  "web": 10479, 
  "לוי@@": 10480, 
  "שנמצ@@": 10481, 
  "נטגן": 10482, 
  "זא@@": 10483, 
  "ste@@": 10484, 
  "25,000": 10485, 
  "K@@": 10486, 
  "peace": 10487, 
  "פאים": 10488, 
  "תוני": 10489, 
  "Google": 10490, 
  "3.5": 10491, 
  "ודא": 10492, 
  "מצן": 10493, 
  "תיד": 10494, 
  "אלצ@@": 10495, 
  "לסר@@": 10496, 
  "דמיי@@": 10497, 
  "גייס": 10498, 
  "זיאון": 10499, 
  "משיכו": 10500, 
  "גיף": 10501, 
  "רכזי": 10502, 
  "מצלי@@": 10503, 
  "me@@": 10504, 
  "בתקו@@": 10505, 
  "ac@@": 10506, 
  "as": 10507, 
  "41": 10508, 
  "53": 10509, 
  "engineering": 10510, 
  "רלוונ@@": 10511, 
  "n": 10512, 
  "אחר-@@": 10513, 
  "כנולו@@": 10514, 
  "climate": 10515, 
  "film": 10516, 
  "el@@": 10517, 
  "F": 10518, 
  "פיץ": 10519, 
  "חיב": 10520, 
  "האול@@": 10521, 
  "צוא": 10522, 
  "גריה": 10523, 
  "רתית": 10524, 
  "philosophy": 10525, 
  "tion.html": 10526, 
  "בוטים": 10527, 
  "87": 10528, 
  "הרפו@@": 10529, 
  "ha@@": 10530, 
  "community": 10531, 
  "ביבה": 10532, 
  "2030": 10533, 
  "sustainability": 10534, 
  "טיין": 10535, 
  "צוב": 10536, 
  "בוז": 10537, 
  "פרנסי@@": 10538, 
  "בינו@@": 10539, 
  "מאפש@@": 10540, 
  "ic@@": 10541, 
  "פשו@@": 10542, 
  "זוז": 10543, 
  "1950": 10544, 
  "פילו": 10545, 
  "54": 10546, 
  "math": 10547, 
  "84": 10548, 
  "d": 10549, 
  "+": 10550, 
  "57": 10551, 
  "זע": 10552, 
  "82": 10553, 
  "83": 10554, 
  "להחלי@@": 10555, 
  "is@@": 10556, 
  "לתי-@@": 10557, 
  "כוכב-@@": 10558, 
  "וירו@@": 10559, 
  "7,000": 10560, 
  "190@@": 10561, 
  "אורים": 10562, 
  "הצלי@@": 10563, 
  "nature": 10564, 
  "מתנד@@": 10565, 
  "religion": 10566, 
  "os@@": 10567, 
  "שינו@@": 10568, 
  "זבז": 10569, 
  "74": 10570, 
  "89": 10571, 
  "ab@@": 10572, 
  "8,000": 10573, 
  "visualizations": 10574, 
  "מכני@@": 10575, 
  "demo": 10576, 
  "קסט": 10577, 
  "קרטיה": 10578, 
  "91": 10579, 
  "ess@@": 10580, 
  "4.@@": 10581, 
  "גלל": 10582, 
  "ad@@": 10583, 
  "ברצי@@": 10584, 
  "73": 10585, 
  "that": 10586, 
  "הטן": 10587, 
  ".א@@": 10588, 
  "&amp;": 10589, 
  "הוג": 10590, 
  "62": 10591, 
  "150,000": 10592, 
  "entrepreneur": 10593, 
  "ot@@": 10594, 
  "al": 10595, 
  "man": 10596, 
  "society": 10597, 
  "1980": 10598, 
  "בגרות": 10599, 
  "Z@@": 10600, 
  "נקס": 10601, 
  "שאים": 10602, 
  "ושינגטון": 10603, 
  "Prize": 10604, 
  "חשב@@": 10605, 
  "1.3": 10606, 
  "180": 10607, 
  "מהנד@@": 10608, 
  "77": 10609, 
  "AR@@": 10610, 
  "נגרס": 10611, 
  "תינו@@": 10612, 
  "מקדים": 10613, 
  "משתמש@@": 10614, 
  "60,000": 10615, 
  "שהול@@": 10616, 
  "about": 10617, 
  "תבתי": 10618, 
  "מוחל@@": 10619, 
  "החלט": 10620, 
  "מפ": 10621, 
  "פילי@@": 10622, 
  "SETI": 10623, 
  "בעית": 10624, 
  "pe@@": 10625, 
  "ב.": 10626, 
  "robots": 10627, 
  "רעי@@": 10628, 
  "נשטיין": 10629, 
  "המאפי@@": 10630, 
  "לפת@@": 10631, 
  "900": 10632, 
  "IBM": 10633, 
  "Wi@@": 10634, 
  "71": 10635, 
  "th": 10636, 
  "במשפ@@": 10637, 
  "הלאו@@": 10638, 
  "לבוש": 10639, 
  "92": 10640, 
  "יצ": 10641, 
  "ואח": 10642, 
  "TEDGlobal": 10643, 
  "נפלי@@": 10644, 
  "car@@": 10645, 
  "מתקד@@": 10646, 
  "פלאה": 10647, 
  "בליזציה": 10648, 
  "ver@@": 10649, 
  "אפגני@@": 10650, 
  "it": 10651, 
  "br@@": 10652, 
  "be@@": 10653, 
  "ידו@@": 10654, 
  "Internet": 10655, 
  "לקסיות": 10656, 
  "ed@@": 10657, 
  "es@@": 10658, 
  "sa@@": 10659, 
  "השתת@@": 10660, 
  "66": 10661, 
  "U": 10662, 
  "אנטי@@": 10663, 
  "ow@@": 10664, 
  "הנ": 10665, 
  "ברח@@": 10666, 
  "2015": 10667, 
  "humanity": 10668, 
  "להיו@@": 10669, 
  "K": 10670, 
  "450": 10671, 
  "מלכ@@": 10672, 
  "space": 10673, 
  "poetry": 10674, 
  "משות@@": 10675, 
  "ממשי@@": 10676, 
  "can": 10677, 
  "68": 10678, 
  "ag@@": 10679, 
  "51": 10680, 
  "79": 10681, 
  "op@@": 10682, 
  "work": 10683, 
  "ענת": 10684, 
  "l": 10685, 
  "1984": 10686, 
  "הבטי@@": 10687, 
  "ology": 10688, 
  "93": 10689, 
  "88": 10690, 
  "פרופ@@": 10691, 
  "67": 10692, 
  "ל-כך": 10693, 
  "Z": 10694, 
  "philanthropy": 10695, 
  "סיכום": 10696, 
  "-2": 10697, 
  "זשהו": 10698, 
  "לכתי": 10699, 
  "63": 10700, 
  "1.2": 10701, 
  "1900": 10702, 
  "live": 10703, 
  "1999": 10704, 
  "book": 10705, 
  "ur@@": 10706, 
  "בעול@@": 10707, 
  "מסובכ@@": 10708, 
  "language": 10709, 
  "BC": 10710, 
  "רוא": 10711, 
  "bi@@": 10712, 
  "אוג": 10713, 
  "su@@": 10714, 
  "are": 10715, 
  "מתאי@@": 10716, 
  "writing": 10717, 
  "TEDMED": 10718, 
  "ניהן": 10719, 
  "et@@": 10720, 
  "john": 10721, 
  "PE@@": 10722, 
  "self": 10723, 
  "עסו@@": 10724, 
  "סופו": 10725, 
  "BI": 10726, 
  "universe": 10727, 
  "disease": 10728, 
  "g": 10729, 
  "78": 10730, 
  "מוצעת": 10731, 
  "15,000": 10732, 
  "V": 10733, 
  "fr@@": 10734, 
  "חשמ@@": 10735, 
  "biodiversity": 10736, 
  "il@@": 10737, 
  "char@@": 10738, 
  "TEDxFeatured": 10739, 
  ",500": 10740, 
  "ol@@": 10741, 
  "sports": 10742, 
  "אבולו@@": 10743, 
  "em@@": 10744, 
  "140": 10745, 
  "תלמי@@": 10746, 
  "be": 10747, 
  "ley": 10748, 
  "ity.html": 10749, 
  "am": 10750, 
  "ture.html": 10751, 
  "sex": 10752, 
  "om@@": 10753, 
  "00@@": 10754, 
  "2.0": 10755, 
  "bo@@": 10756, 
  "מצ": 10757, 
  "ism": 10758, 
  "צין": 10759, 
  ".org": 10760, 
  "לפגו@@": 10761, 
  "ייקטים": 10762, 
  "tr@@": 10763, 
  "קדי@@": 10764, 
  "my": 10765, 
  "אייה": 10766, 
  "125": 10767, 
  "law": 10768, 
  "עשות": 10769, 
  "300,000": 10770, 
  "קולד": 10771, 
  "81": 10772, 
  "medical": 10773, 
  "בטכנולו@@": 10774, 
  "de": 10775, 
  "61": 10776, 
  "cancer": 10777, 
  "גדול@@": 10778, 
  "1998": 10779, 
  "tedx": 10780, 
  "לחוץ": 10781, 
  "ne@@": 10782, 
  "כוכ@@": 10783, 
  "לוויזיה": 10784, 
  "Earth": 10785, 
  "AIMS": 10786, 
  "אחורי": 10787, 
  "the@@": 10788, 
  "paul": 10789, 
  "טרנטי@@": 10790, 
  "ar": 10791, 
  "מאפיי@@": 10792, 
  "400,000": 10793, 
  "or": 10794, 
  "at": 10795, 
  "LED": 10796, 
  ".7": 10797, 
  "ber@@": 10798, 
  "1968": 10799, 
  "us": 10800, 
  "transportation": 10801, 
  "1989": 10802, 
  "ke@@": 10803, 
  "קיד": 10804, 
  "קראת": 10805, 
  "שוך": 10806, 
  "האח": 10807, 
  "leadership": 10808, 
  "5-@@": 10809, 
  "200@@": 10810, 
  "ation.html": 10811, 
  "one": 10812, 
  "טמבר": 10813, 
  "מגוח@@": 10814, 
  "גמי": 10815, 
  "Q": 10816, 
  "מתחי@@": 10817, 
  "ine": 10818, 
  "world@@": 10819, 
  "CD": 10820, 
  "im@@": 10821, 
  "80,000": 10822, 
  "ans": 10823, 
  "Women": 10824, 
  "ר-הארץ": 10825, 
  "DVD": 10826, 
  "היחי@@": 10827, 
  "um@@": 10828, 
  "le": 10829, 
  "הופ": 10830, 
  "ישנ@@": 10831, 
  "gaming": 10832, 
  "W": 10833, 
  "כוכית": 10834, 
  "12,000": 10835, 
  "מרגי@@": 10836, 
  "FO@@": 10837, 
  "third": 10838, 
  "SO@@": 10839, 
  "לכלה": 10840, 
  "טנצי@@": 10841, 
  "wi@@": 10842, 
  "ed": 10843, 
  "ניברסיטת": 10844, 
  "ולן": 10845, 
  "love": 10846, 
  "שוות": 10847, 
  "US@@": 10848, 
  "פורניה": 10849, 
  "4-@@": 10850, 
  "jo@@": 10851, 
  "af@@": 10852, 
  "לכ": 10853, 
  "CN@@": 10854, 
  "ing@@": 10855, 
  "beauty": 10856, 
  "con@@": 10857, 
  "Ma@@": 10858, 
  "1994": 10859, 
  "30@@": 10860, 
  "si@@": 10861, 
  "un@@": 10862, 
  "comedy": 10863, 
  "1995": 10864, 
  "1,500": 10865, 
  "Featured": 10866, 
  "חילת": 10867, 
  "youth": 10868, 
  "you": 10869, 
  "MA": 10870, 
  "דני@@": 10871, 
  "EG": 10872, 
  "lo@@": 10873, 
  "רווין": 10874, 
  "ev@@": 10875, 
  "הריים": 10876, 
  "dan": 10877, 
  "ni@@": 10878, 
  "מסכי@@": 10879, 
  "טנדר@@": 10880, 
  "om": 10881, 
  "טאות": 10882, 
  "amp": 10883, 
  "היינה": 10884, 
  "violence": 10885, 
  "99@@": 10886, 
  "CA@@": 10887, 
  "ry": 10888, 
  "AIDS": 10889, 
  "שמאו@@": 10890, 
  "DARPA": 10891, 
  "מיליאר@@": 10892, 
  "קרונית": 10893, 
  "50@@": 10894, 
  "טיסטי@@": 10895, 
  "us@@": 10896, 
  "neuroscience": 10897, 
  "DE@@": 10898, 
  "compassion": 10899, 
  "CT": 10900, 
  "let": 10901, 
  "ina": 10902, 
  "מעדי@@": 10903, 
  "ch": 10904, 
  "=": 10905, 
  "שיכול@@": 10906, 
  "קוחות": 10907, 
  "HI@@": 10908, 
  "ack": 10909, 
  "mental": 10910, 
  "II": 10911, 
  "research": 10912, 
  "כוכבי-@@": 10913, 
  "לקטו@@": 10914, 
  "1945": 10915, 
  "og@@": 10916, 
  "ju@@": 10917, 
  "adventure": 10918, 
  "co@@": 10919, 
  "מניה": 10920, 
  ")": 10921, 
  "איץ": 10922, 
  "ידיי": 10923, 
  "bert": 10924, 
  "ve": 10925, 
  "chan@@": 10926, 
  "AC@@": 10927, 
  "qu@@": 10928, 
  "crime": 10929, 
  "biotech": 10930, 
  "האצ@@": 10931, 
  "אפשרו@@": 10932, 
  "all": 10933, 
  "insects": 10934, 
  "disaster": 10935, 
  "alternative": 10936, 
  "ץ@@": 10937, 
  "open-source": 10938, 
  "mer@@": 10939, 
  "ליא": 10940, 
  "vi@@": 10941, 
  "hi@@": 10942, 
  "בעלי-@@": 10943, 
  "id@@": 10944, 
  "ul@@": 10945, 
  "למוגים": 10946, 
  "sch@@": 10947, 
  "astronomy": 10948, 
  "genetics": 10949, 
  "בו-@@": 10950, 
  "wil@@": 10951, 
  "מרווי@@": 10952, 
  "CE@@": 10953, 
  "11@@": 10954, 
  "GP@@": 10955, 
  "היימר": 10956, 
  "התשו@@": 10957, 
  "MoMA": 10958, 
  "ted@@": 10959, 
  "ve@@": 10960, 
  "ick": 10961, 
  "government": 10962, 
  "chael": 10963, 
  "don": 10964, 
  "re": 10965, 
  "כלוסיה": 10966, 
  "כשירי": 10967, 
  "enc@@": 10968, 
  "x@@": 10969, 
  "מתפת@@": 10970, 
  "gh@@": 10971, 
  "FDA": 10972, 
  "make": 10973, 
  "IP@@": 10974, 
  "na@@": 10975, 
  "התינו@@": 10976, 
  "מדמיי@@": 10977, 
  "building": 10978, 
  "Q@@": 10979, 
  "ari@@": 10980, 
  "ניברסי@@": 10981, 
  "death": 10982, 
  "software": 10983, 
  "IS@@": 10984, 
  "CA": 10985, 
  "ine@@": 10986, 
  "bar@@": 10987, 
  "ing": 10988, 
  "AS@@": 10989, 
  "בעיים": 10990, 
  "ay@@": 10991, 
  "ty@@": 10992, 
  "ta@@": 10993, 
  "20-@@": 10994, 
  "כיזופר@@": 10995, 
  "A-@@": 10996, 
  "אירים": 10997, 
  "war@@": 10998, 
  "mo@@": 10999, 
  "la@@": 11000, 
  "statistics": 11001, 
  "ic": 11002, 
  "בדר@@": 11003, 
  "der@@": 11004, 
  "ke": 11005, 
  "do": 11006, 
  "מתבונ@@": 11007, 
  "50-@@": 11008, 
  "ki@@": 11009, 
  "ממ": 11010, 
  "10-@@": 11011, 
  "ספקטי@@": 11012, 
  "ker": 11013, 
  "video": 11014, 
  "סיפר@@": 11015, 
  "ברזי@@": 11016, 
  "בוצה": 11017, 
  "ans@@": 11018, 
  "MS": 11019, 
  "magic": 11020, 
  "mon@@": 11021, 
  "TE@@": 11022, 
  "Sk@@": 11023, 
  "water": 11024, 
  "der": 11025, 
  "ay": 11026, 
  "UC@@": 11027, 
  "שפג@@": 11028, 
  "טינית": 11029, 
  "ey": 11030, 
  "cognitive": 11031, 
  "שבגל@@": 11032, 
  "faith": 11033, 
  "play": 11034, 
  "OE@@": 11035, 
  "cars": 11036, 
  "dance": 11037, 
  "בדיל": 11038, 
  "ניסי@@": 11039, 
  "mission": 11040, 
  "ff": 11041, 
  "money": 11042, 
  "relief": 11043, 
  "ir@@": 11044, 
  "chard": 11045, 
  "interface": 11046, 
  "sk@@": 11047, 
  "he@@": 11048, 
  "dy": 11049, 
  "@": 11050, 
  "rob@@": 11051, 
  "av@@": 11052, 
  "way": 11053, 
  "ling": 11054, 
  "parenting": 11055, 
  "סוע": 11056, 
  "ings": 11057, 
  "YouTube": 11058, 
  "ec@@": 11059, 
  "ben@@": 11060, 
  "dr@@": 11061, 
  "r": 11062, 
  "har@@": 11063, 
  "החלט@@": 11064, 
  "Ar@@": 11065, 
  "fish": 11066, 
  "I.@@": 11067, 
  "מורכ@@": 11068, 
  "pa@@": 11069, 
  "les": 11070, 
  "ot": 11071, 
  "Microsoft": 11072, 
  "PI@@": 11073, 
  "בורית": 11074, 
  "ton": 11075, 
  "BM@@": 11076, 
  "ris": 11077, 
  "personal": 11078, 
  "tica": 11079, 
  "fi@@": 11080, 
  "UN@@": 11081, 
  "J": 11082, 
  ".com@@": 11083, 
  "gl@@": 11084, 
  "St@@": 11085, 
  "wal@@": 11086, 
  "mat@@": 11087, 
  "inequality": 11088, 
  "דייו@@": 11089, 
  "makes": 11090, 
  "ia": 11091, 
  "says": 11092, 
  "mit@@": 11093, 
  "onathan": 11094, 
  "ny": 11095, 
  "התופ@@": 11096, 
  "ge": 11097, 
  "il": 11098, 
  "complexity": 11099, 
  "thema@@": 11100, 
  "est": 11101, 
  "ff@@": 11102, 
  "RO@@": 11103, 
  "illusion": 11104, 
  "Air@@": 11105, 
  "(": 11106, 
  "fe@@": 11107, 
  "life@@": 11108, 
  "desig@@": 11109, 
  "ig@@": 11110, 
  "thin@@": 11111, 
  "growth": 11112, 
  "journalism": 11113, 
  "marketing": 11114, 
  "רונה": 11115, 
  "ate": 11116, 
  "ter@@": 11117, 
  "ames": 11118, 
  "all@@": 11119, 
  "ביוטיקה": 11120, 
  "זב@@": 11121, 
  "gar@@": 11122, 
  "investment": 11123, 
  "ros@@": 11124, 
  "materials": 11125, 
  "Talks": 11126, 
  "up": 11127, 
  "man@@": 11128, 
  "blue": 11129, 
  "by": 11130, 
  "go@@": 11131, 
  "choice": 11132, 
  "בטיח": 11133, 
  "w": 11134, 
  "p": 11135, 
  "להרו@@": 11136, 
  "biosphere": 11137, 
  "oo@@": 11138, 
  "למ": 11139, 
  "CO@@": 11140, 
  "drones": 11141, 
  "מברידג": 11142, 
  "mer": 11143, 
  "consciousness": 11144, 
  "ther@@": 11145, 
  "mind": 11146, 
  "Mac@@": 11147, 
  "NA@@": 11148, 
  "wa@@": 11149, 
  "ut@@": 11150, 
  "sion@@": 11151, 
  "נוספ@@": 11152, 
  "NASA": 11153, 
  "ell": 11154, 
  "ent@@": 11155, 
  "race": 11156, 
  "grant": 11157, 
  "org@@": 11158, 
  "ory": 11159, 
  "memory": 11160, 
  "גורי@@": 11161, 
  "gen@@": 11162, 
  "Science": 11163, 
  "ie": 11164, 
  "ולהגי@@": 11165, 
  "D.": 11166, 
  "ian": 11167, 
  "For@@": 11168, 
  "agriculture": 11169, 
  "ler": 11170, 
  "ers": 11171, 
  "יוויליזציה": 11172, 
  "ts": 11173, 
  "po@@": 11174, 
  "The": 11175, 
  "sc@@": 11176, 
  "corruption": 11177, 
  "col@@": 11178, 
  "pat@@": 11179, 
  "to@@": 11180, 
  "ep@@": 11181, 
  "ane": 11182, 
  "East": 11183, 
  "human": 11184, 
  "ate@@": 11185, 
  "ah": 11186, 
  "PC": 11187, 
  "more": 11188, 
  "SA": 11189, 
  "לחה": 11190, 
  "h": 11191, 
  "au@@": 11192, 
  "ome@@": 11193, 
  "aging": 11194, 
  "piano": 11195, 
  "ou@@": 11196, 
  "his": 11197, 
  "sel@@": 11198, 
  "sp@@": 11199, 
  "sha@@": 11200, 
  "Arthur": 11201, 
  "berg": 11202, 
  "success": 11203, 
  "\\": 11204, 
  "co": 11205, 
  "ics": 11206, 
  "Li@@": 11207, 
  "simplicity": 11208, 
  "ash": 11209, 
  "ner": 11210, 
  "news": 11211, 
  "even": 11212, 
  "not": 11213, 
  "demos": 11214, 
  "shares": 11215, 
  "ack@@": 11216, 
  "chemistry": 11217, 
  "OK": 11218, 
  "ind@@": 11219, 
  "30-@@": 11220, 
  "time": 11221, 
  "art@@": 11222, 
  "ways": 11223, 
  "ick@@": 11224, 
  "take": 11225, 
  "איס": 11226, 
  "God": 11227, 
  "gt": 11228, 
  "literature": 11229, 
  "Tas@@": 11230, 
  "next": 11231, 
  "tics": 11232, 
  "aniel": 11233, 
  "ex@@": 11234, 
  "micro@@": 11235, 
  "בלית": 11236, 
  "flight": 11237, 
  "ap": 11238, 
  "ant@@": 11239, 
  "u": 11240, 
  "do@@": 11241, 
  "singer": 11242, 
  "Apple": 11243, 
  "בינ": 11244, 
  "כנולוגיה": 11245, 
  "ann@@": 11246, 
  "נוזאורים": 11247, 
  "In@@": 11248, 
  "eri@@": 11249, 
  "ph@@": 11250, 
  "car": 11251, 
  "den@@": 11252, 
  "industrial": 11253, 
  "בכ": 11254, 
  "ven@@": 11255, 
  "fu@@": 11256, 
  "neur@@": 11257, 
  "Sh@@": 11258, 
  "bill": 11259, 
  "anc@@": 11260, 
  "ves": 11261, 
  "ves@@": 11262, 
  "gol@@": 11263, 
  "תחמו@@": 11264, 
  "min@@": 11265, 
  "product": 11266, 
  "ates": 11267, 
  "gre@@": 11268, 
  "Middle": 11269, 
  "ds": 11270, 
  "ock": 11271, 
  "aw@@": 11272, 
  "ney": 11273, 
  "me": 11274, 
  "ach@@": 11275, 
  "ill@@": 11276, 
  "רמניה": 11277, 
  "bu@@": 11278, 
  "shopping": 11279, 
  "ne": 11280, 
  "pr@@": 11281, 
  "tree": 11282, 
  "work@@": 11283, 
  "עופה": 11284, 
  "׳": 11285, 
  "נגווי@@": 11286, 
  "NA": 11287, 
  "ood@@": 11288, 
  "anna": 11289, 
  "ראל": 11290, 
[...]
