{
  "eos": 0, 
  "UNK": 1, 
  ",": 2, 
  ".": 3, 
  "the": 4, 
  "to": 5, 
  "of": 6, 
  "a": 7, 
  "and": 8, 
  "that": 9, 
  "I": 10, 
  "in": 11, 
  "is": 12, 
  "you": 13, 
  "it": 14, 
  "&apos;s": 15, 
  "we": 16, 
  "And": 17, 
  "this": 18, 
  "&quot;": 19, 
  "was": 20, 
  "--": 21, 
  "for": 22, 
  "on": 23, 
  "are": 24, 
  "have": 25, 
  "they": 26, 
  "with": 27, 
  "can": 28, 
  "?": 29, 
  "So": 30, 
  "&apos;t": 31, 
  "what": 32, 
  "about": 33, 
  "be": 34, 
  "at": 35, 
  "as": 36, 
  "all": 37, 
  "do": 38, 
  "not": 39, 
  "&apos;re": 40, 
  "there": 41, 
  "an": 42, 
  "one": 43, 
  "It": 44, 
  "people": 45, 
  "like": 46, 
  "from": 47, 
  ":": 48, 
  "my": 49, 
  "so": 50, 
  "or": 51, 
  "but": 52, 
  "just": 53, 
  "our": 54, 
  "The": 55, 
  "We": 56, 
  "very": 57, 
  "But": 58, 
  "these": 59, 
  "out": 60, 
  "if": 61, 
  "_": 62, 
  "me": 63, 
  "know": 64, 
  "going": 65, 
  "by": 66, 
  "up": 67, 
  "them": 68, 
  "he": 69, 
  "when": 70, 
  "more": 71, 
  "because": 72, 
  "had": 73, 
  "which": 74, 
  "think": 75, 
  "see": 76, 
  "how": 77, 
  "us": 78, 
  "really": 79, 
  "get": 80, 
  "your": 81, 
  "who": 82, 
  "were": 83, 
  "&apos;ve": 84, 
  "their": 85, 
  "would": 86, 
  "&apos;m": 87, 
  "here": 88, 
  "You": 89, 
  "time": 90, 
  "This": 91, 
  "then": 92, 
  "/": 93, 
  "world": 94, 
  "way": 95, 
  "has": 96, 
  "some": 97, 
  "actually": 98, 
  "into": 99, 
  "don": 100, 
  "things": 101, 
  "years": 102, 
  "will": 103, 
  "now": 104, 
  "where": 105, 
  "go": 106, 
  "Now": 107, 
  "other": 108, 
  "want": 109, 
  "They": 110, 
  "could": 111, 
  "make": 112, 
  "been": 113, 
  "said": 114, 
  "something": 115, 
  "right": 116, 
  "little": 117, 
  "much": 118, 
  "thing": 119, 
  "than": 120, 
  "no": 121, 
  "those": 122, 
  "got": 123, 
  "two": 124, 
  "first": 125, 
  "re@@": 126, 
  "look": 127, 
  "That": 128, 
  "say": 129, 
  "also": 130, 
  "his": 131, 
  "back": 132, 
  ";": 133, 
  "-@@": 134, 
  "work": 135, 
  "over": 136, 
  "life": 137, 
  "kind": 138, 
  "In": 139, 
  "What": 140, 
  "only": 141, 
  "need": 142, 
  "most": 143, 
  "take": 144, 
  "she": 145, 
  "even": 146, 
  "ed": 147, 
  "lot": 148, 
  "es": 149, 
  "new": 150, 
  "many": 151, 
  "did": 152, 
  "There": 153, 
  "around": 154, 
  "in@@": 155, 
  "&apos;ll": 156, 
  "good": 157, 
  "down": 158, 
  "different": 159, 
  "S@@": 160, 
  "ing": 161, 
  "through": 162, 
  "use": 163, 
  "able": 164, 
  "Well": 165, 
  "He": 166, 
  "her": 167, 
  "come": 168, 
  "doing": 169, 
  "same": 170, 
  "er": 171, 
  "every": 172, 
  "If": 173, 
  "put": 174, 
  "being": 175, 
  "day": 176, 
  "un@@": 177, 
  "any": 178, 
  "&apos;d": 179, 
  "called": 180, 
  "talk": 181, 
  "p@@": 182, 
  "made": 183, 
  "d@@": 184, 
  "percent": 185, 
  "three": 186, 
  "C@@": 187, 
  "e@@": 188, 
  "b@@": 189, 
  "its": 190, 
  "t@@": 191, 
  "well": 192, 
  "al": 193, 
  "why": 194, 
  "own": 195, 
  "tell": 196, 
  "s@@": 197, 
  "year": 198, 
  "fact": 199, 
  "change": 200, 
  "k@@": 201, 
  "A@@": 202, 
  "g@@": 203, 
  "find": 204, 
  "technology": 205, 
  "great": 206, 
  "human": 207, 
  "today": 208, 
  "let": 209, 
  "T@@": 210, 
  "didn": 211, 
  "B@@": 212, 
  "idea": 213, 
  "ers": 214, 
  "a@@": 215, 
  "big": 216, 
  "started": 217, 
  "ate": 218, 
  "went": 219, 
  "give": 220, 
  "after": 221, 
  "thought": 222, 
  "should": 223, 
  "last": 224, 
  "P@@": 225, 
  "off": 226, 
  "course": 227, 
  "en@@": 228, 
  "A": 229, 
  "before": 230, 
  "M@@": 231, 
  "important": 232, 
  "story": 233, 
  "better": 234, 
  "o": 235, 
  "brain": 236, 
  "another": 237, 
  "D@@": 238, 
  "end": 239, 
  "might": 240, 
  "show": 241, 
  "problem": 242, 
  "bit": 243, 
  "s": 244, 
  "ation": 245, 
  "never": 246, 
  "system": 247, 
  "start": 248, 
  "part": 249, 
  "him": 250, 
  "used": 251, 
  "together": 252, 
  "R@@": 253, 
  "ago": 254, 
  "H@@": 255, 
  "y@@": 256, 
  "still": 257, 
  "L@@": 258, 
  "&apos;": 259, 
  "next": 260, 
  "h@@": 261, 
  "Thank": 262, 
  "again": 263, 
  "place": 264, 
  "came": 265, 
  "ch@@": 266, 
  "does": 267, 
  "each": 268, 
  "talks": 269, 
  "mean": 270, 
  "o@@": 271, 
  "few": 272, 
  "design": 273, 
  "water": 274, 
  "between": 275, 
  "sort": 276, 
  "K@@": 277, 
  "r@@": 278, 
  "point": 279, 
  "too": 280, 
  "looking": 281, 
  "Because": 282, 
  "When": 283, 
  "How": 284, 
  "st@@": 285, 
  "E@@": 286, 
  "done": 287, 
  "ated": 288, 
  "long": 289, 
  "an@@": 290, 
  "data": 291, 
  "y": 292, 
  "al@@": 293, 
  "example": 294, 
  "am": 295, 
  "F@@": 296, 
  "found": 297, 
  "try": 298, 
  "di@@": 299, 
  "question": 300, 
  "er@@": 301, 
  "ri@@": 302, 
  "whole": 303, 
  "doesn": 304, 
  "love": 305, 
  "u@@": 306, 
  "children": 307, 
  "n@@": 308, 
  "less": 309, 
  "t": 310, 
  "m@@": 311, 
  "N@@": 312, 
  "understand": 313, 
  "wanted": 314, 
  "age": 315, 
  "c@@": 316, 
  "real": 317, 
  "ted": 318, 
  "live": 319, 
  "man": 320, 
  "working": 321, 
  "at@@": 322, 
  "ar@@": 323, 
  "old": 324, 
  "ever": 325, 
  "li@@": 326, 
  "http": 327, 
  "science": 328, 
  "ating": 329, 
  "www.ted.com": 330, 
  "call": 331, 
  "person": 332, 
  "always": 333, 
  "million": 334, 
  "away": 335, 
  "10": 336, 
  "ly": 337, 
  "trying": 338, 
  "women": 339, 
  "v@@": 340, 
  "money": 341, 
  "G@@": 342, 
  "l@@": 343, 
  "power": 344, 
  "four": 345, 
  "using": 346, 
  "may": 347, 
  "school": 348, 
  "de@@": 349, 
  "believe": 350, 
  "light": 351, 
  "feel": 352, 
  "ts": 353, 
  "on@@": 354, 
  "e": 355, 
  "help": 356, 
  "kids": 357, 
  "f@@": 358, 
  "thinking": 359, 
  "space": 360, 
  "ting": 361, 
  "information": 362, 
  "country": 363, 
  "!": 364, 
  "create": 365, 
  "future": 366, 
  "it@@": 367, 
  "w@@": 368, 
  "or@@": 369, 
  "le@@": 370, 
  "One": 371, 
  "sense": 372, 
  "took": 373, 
  "everything": 374, 
  "energy": 375, 
  "maybe": 376, 
  "i@@": 377, 
  "getting": 378, 
  "ti@@": 379, 
  "ic": 380, 
  "means": 381, 
  "food": 382, 
  "th@@": 383, 
  "five": 384, 
  "enough": 385, 
  "become": 386, 
  "making": 387, 
  "number": 388, 
  "global": 389, 
  "side": 390, 
  "building": 391, 
  "says": 392, 
  "stuff": 393, 
  "op@@": 394, 
  "comes": 395, 
  "These": 396, 
  "social": 397, 
  "quite": 398, 
  "as@@": 399, 
  "play": 400, 
  "second": 401, 
  "best": 402, 
  "ways": 403, 
  "body": 404, 
  "My": 405, 
  "small": 406, 
  "Here": 407, 
  "J@@": 408, 
  "probably": 409, 
  "talking": 410, 
  "interesting": 411, 
  "happened": 412, 
  "left": 413, 
  "times": 414, 
  "am@@": 415, 
  "business": 416, 
  "without": 417, 
  "Africa": 418, 
  "coming": 419, 
  "home": 420, 
  "im@@": 421, 
  "health": 422, 
  "dollars": 423, 
  "ask": 424, 
  "ad@@": 425, 
  "room": 426, 
  "O@@": 427, 
  "k": 428, 
  "makes": 429, 
  "tion": 430, 
  "Why": 431, 
  "Let": 432, 
  "lives": 433, 
  "em@@": 434, 
  "She": 435, 
  "ac@@": 436, 
  "case": 437, 
  "W@@": 438, 
  "pretty": 439, 
  "anything": 440, 
  "No": 441, 
  "art": 442, 
  "con@@": 443, 
  "sp@@": 444, 
  "care": 445, 
  "goes": 446, 
  "happen": 447, 
  "told": 448, 
  "ding": 449, 
  "set": 450, 
  "ds": 451, 
  "across": 452, 
  "moment": 453, 
  "j@@": 454, 
  "ent": 455, 
  "build": 456, 
  "ur@@": 457, 
  "simple": 458, 
  "book": 459, 
  "le": 460, 
  "seen": 461, 
  "living": 462, 
  "20": 463, 
  "such": 464, 
  "es@@": 465, 
  "el@@": 466, 
  "saw": 467, 
  "hand": 468, 
  "half": 469, 
  "else": 470, 
  "countries": 471, 
  "having": 472, 
  "ine": 473, 
  "line": 474, 
  "happens": 475, 
  "experience": 476, 
  "ul@@": 477, 
  "I@@": 478, 
  "dis@@": 479, 
  "z@@": 480, 
  "bad": 481, 
  "ap@@": 482, 
  "king": 483, 
  "days": 484, 
  "computer": 485, 
  "move": 486, 
  "learn": 487, 
  "problems": 488, 
  "hard": 489, 
  "car": 490, 
  "while": 491, 
  "ter": 492, 
  "picture": 493, 
  "ag@@": 494, 
  "men": 495, 
  "th": 496, 
  "ideas": 497, 
  "asked": 498, 
  "&amp;": 499, 
  "culture": 500, 
  "later": 501, 
  "inside": 502, 
  "be@@": 503, 
  "se@@": 504, 
  "family": 505, 
  "process": 506, 
  "project": 507, 
  "top": 508, 
  "music": 509, 
  "red": 510, 
  "basically": 511, 
  "reason": 512, 
  "history": 513, 
  "ab@@": 514, 
  "All": 515, 
  "For": 516, 
  "land": 517, 
  "high": 518, 
  "cells": 519, 
  "saying": 520, 
  "m": 521, 
  "As": 522, 
  "mind": 523, 
  "New": 524, 
  "tions": 525, 
  "form": 526, 
  "ex@@": 527, 
  "yet": 528, 
  "guy": 529, 
  "both": 530, 
  "young": 531, 
  "looks": 532, 
  "single": 533, 
  "Earth": 534, 
  "child": 535, 
  "city": 536, 
  "planet": 537, 
  "billion": 538, 
  ".html": 539, 
  "far": 540, 
  "ty": 541, 
  "almost": 542, 
  "co@@": 543, 
  "sh@@": 544, 
  "os@@": 545, 
  "wrong": 546, 
  "possible": 547, 
  "read": 548, 
  "est": 549, 
  "within": 550, 
  "looked": 551, 
  "once": 552, 
  "en": 553, 
  "om@@": 554, 
  "ir@@": 555, 
  "keep": 556, 
  "true": 557, 
  "education": 558, 
  "bring": 559, 
  "whether": 560, 
  "already": 561, 
  "de": 562, 
  "matter": 563, 
  "inter@@": 564, 
  "bi@@": 565, 
  "als": 566, 
  "pe@@": 567, 
  "community": 568, 
  "heard": 569, 
  "ous": 570, 
  "works": 571, 
  "cancer": 572, 
  "nothing": 573, 
  "six": 574, 
  "piece": 575, 
  "per": 576, 
  "OK": 577, 
  "answer": 578, 
  "ra@@": 579, 
  "built": 580, 
  "ans": 581, 
  "hope": 582, 
  "ar": 583, 
  "face": 584, 
  "often": 585, 
  "open": 586, 
  "si@@": 587, 
  "sure": 588, 
  "&#93;": 589, 
  "&#91;": 590, 
  "nature": 591, 
  "myself": 592, 
  "imagine": 593, 
  "tr@@": 594, 
  "beautiful": 595, 
  "ates": 596, 
  "video": 597, 
  "remember": 598, 
  "months": 599, 
  "...": 600, 
  "someone": 601, 
  "se": 602, 
  "e-@@": 603, 
  "control": 604, 
  "tic": 605, 
  "gets": 606, 
  "couple": 607, 
  "stories": 608, 
  "amazing": 609, 
  "United": 610, 
  "places": 611, 
  "group": 612, 
  "public": 613, 
  "sc@@": 614, 
  "research": 615, 
  "ance": 616, 
  "me@@": 617, 
  "head": 618, 
  "der": 619, 
  "d": 620, 
  "everybody": 621, 
  "ver@@": 622, 
  "ol@@": 623, 
  "under": 624, 
  "India": 625, 
  "though": 626, 
  "order": 627, 
  "universe": 628, 
  "is@@": 629, 
  "turn": 630, 
  "words": 631, 
  "taking": 632, 
  "bo@@": 633, 
  "species": 634, 
  "Okay": 635, 
  "language": 636, 
  "government": 637, 
  "until": 638, 
  "ant": 639, 
  "30": 640, 
  "ally": 641, 
  "ones": 642, 
  "night": 643, 
  "level": 644, 
  "i": 645, 
  "animals": 646, 
  "kinds": 647, 
  "isn": 648, 
  "wasn": 649, 
  "run": 650, 
  "ic@@": 651, 
  "itself": 652, 
  "Internet": 653, 
  "um": 654, 
  "50": 655, 
  "ability": 656, 
  "completely": 657, 
  "ons": 658, 
  "n": 659, 
  "l": 660, 
  "ro@@": 661, 
  "model": 662, 
  "ded": 663, 
  "happening": 664, 
  "word": 665, 
  "somebody": 666, 
  "heart": 667, 
  "job": 668, 
  "front": 669, 
  "decided": 670, 
  "God": 671, 
  "society": 672, 
  "issues": 673, 
  "environment": 674, 
  "ice": 675, 
  "pre@@": 676, 
  "game": 677, 
  "ks": 678, 
  "minutes": 679, 
  "study": 680, 
  "share": 681, 
  "States": 682, 
  "us@@": 683, 
  "woman": 684, 
  "turns": 685, 
  "ourselves": 686, 
  "must": 687, 
  "exactly": 688, 
  "ves": 689, 
  "disease": 690, 
  "stop": 691, 
  "became": 692, 
  "ot@@": 693, 
  "students": 694, 
  "son": 695, 
  "hear": 696, 
  "rather": 697, 
  "state": 698, 
  "el": 699, 
  "themselves": 700, 
  "um@@": 701, 
  "war": 702, 
  "learned": 703, 
  "America": 704, 
  "V@@": 705, 
  "ow@@": 706, 
  "g": 707, 
  "created": 708, 
  "huge": 709, 
  "large": 710, 
  "Then": 711, 
  "br@@": 712, 
  "ob@@": 713, 
  "ment": 714, 
  "100": 715, 
  "questions": 716, 
  "since": 717, 
  "company": 718, 
  "ary": 719, 
  "cr@@": 720, 
  "figure": 721, 
  "mar@@": 722, 
  "house": 723, 
  "hours": 724, 
  "news": 725, 
  "shows": 726, 
  "guys": 727, 
  "knew": 728, 
  "name": 729, 
  "Oh": 730, 
  "worked": 731, 
  "happy": 732, 
  "won": 733, 
  "century": 734, 
  "car@@": 735, 
  "ors": 736, 
  "he@@": 737, 
  "ec@@": 738, 
  "ings": 739, 
  "friends": 740, 
  "mother": 741, 
  "over@@": 742, 
  "ator": 743, 
  "against": 744, 
  "ins": 745, 
  "lo@@": 746, 
  "along": 747, 
  "oil": 748, 
  "ma@@": 749, 
  "American": 750, 
  "TED": 751, 
  "third": 752, 
  "China": 753, 
  "particular": 754, 
  "couldn": 755, 
  "ha@@": 756, 
  "ity": 757, 
  "early": 758, 
  "per@@": 759, 
  "natural": 760, 
  "least": 761, 
  "sound": 762, 
  "moving": 763, 
  "fl@@": 764, 
  "air": 765, 
  "everyone": 766, 
  "In@@": 767, 
  "takes": 768, 
  "led": 769, 
  "ge@@": 770, 
  "sometimes": 771, 
  "gave": 772, 
  "past": 773, 
  "fi@@": 774, 
  "ses": 775, 
  "ve": 776, 
  "cities": 777, 
  "difference": 778, 
  "size": 779, 
  "view": 780, 
  "lots": 781, 
  "learning": 782, 
  "area": 783, 
  "p": 784, 
  "machine": 785, 
  "ling": 786, 
  "others": 787, 
  "pl@@": 788, 
  "for@@": 789, 
  "self-@@": 790, 
  "thousands": 791, 
  "par@@": 792, 
  "systems": 793, 
  "instead": 794, 
  "outside": 795, 
  "Al@@": 796, 
  "hi@@": 797, 
  "scale": 798, 
  "market": 799, 
  "tive": 800, 
  "free": 801, 
  "ations": 802, 
  "ps": 803, 
  "ter@@": 804, 
  "taken": 805, 
  "needs": 806, 
  "entire": 807, 
  "Or": 808, 
  "x": 809, 
  "sa@@": 810, 
  "based": 811, 
  "wonderful": 812, 
  "vi@@": 813, 
  "terms": 814, 
  "ness": 815, 
  "ist": 816, 
  "powerful": 817, 
  "parts": 818, 
  "cell": 819, 
  "beginning": 820, 
  "population": 821, 
  "ne@@": 822, 
  "la@@": 823, 
  "mi@@": 824, 
  "ch": 825, 
  "leave": 826, 
  "changed": 827, 
  "oc@@": 828, 
  "ked": 829, 
  "bl@@": 830, 
  "close": 831, 
  "su@@": 832, 
  "York": 833, 
  "yourself": 834, 
  "behind": 835, 
  "eyes": 836, 
  "seeing": 837, 
  "At": 838, 
  "seven": 839, 
  "during": 840, 
  "ry": 841, 
  "media": 842, 
  "grow": 843, 
  "ical": 844, 
  "U@@": 845, 
  "15": 846, 
  "easy": 847, 
  "Y@@": 848, 
  "cl@@": 849, 
  "ou@@": 850, 
  "turned": 851, 
  "qu@@": 852, 
  "fish": 853, 
  "finally": 854, 
  "given": 855, 
  "amount": 856, 
  "mu@@": 857, 
  "difficult": 858, 
  "perhaps": 859, 
  "certain": 860, 
  "began": 861, 
  "test": 862, 
  "U.S.": 863, 
  "walk": 864, 
  "ful": 865, 
  "dy": 866, 
  "green": 867, 
  "death": 868, 
  "spend": 869, 
  "interested": 870, 
  "h": 871, 
  "Is": 872, 
  "economic": 873, 
  "sub@@": 874, 
  "ocean": 875, 
  "Do": 876, 
  "ence": 877, 
  "middle": 878, 
  "ble": 879, 
  "image": 880, 
  "dec@@": 881, 
  "rest": 882, 
  "et": 883, 
  "whatever": 884, 
  "friend": 885, 
  "tra@@": 886, 
  "ters": 887, 
  "mon@@": 888, 
  "eight": 889, 
  "cost": 890, 
  "em": 891, 
  "known": 892, 
  "full": 893, 
  "gone": 894, 
  "People": 895, 
  "rec@@": 896, 
  "deal": 897, 
  "quickly": 898, 
  "common": 899, 
  "realized": 900, 
  "needed": 901, 
  "cannot": 902, 
  "field": 903, 
  "st": 904, 
  "longer": 905, 
  "books": 906, 
  "og@@": 907, 
  "simply": 908, 
  "pro@@": 909, 
  "ge": 910, 
  "te": 911, 
  "tried": 912, 
  "ties": 913, 
  "pri@@": 914, 
  "hands": 915, 
  "born": 916, 
  "buy": 917, 
  "growth": 918, 
  "local": 919, 
  "week": 920, 
  "war@@": 921, 
  "tu@@": 922, 
  "Yeah": 923, 
  "spent": 924, 
  "il@@": 925, 
  "father": 926, 
  "value": 927, 
  "ground": 928, 
  "black": 929, 
  "team": 930, 
  "paper": 931, 
  "et@@": 932, 
  "structure": 933, 
  "ru@@": 934, 
  "2@@": 935, 
  "Just": 936, 
  "les": 937, 
  "ving": 938, 
  "lost": 939, 
  "mo@@": 940, 
  "stage": 941, 
  "ies": 942, 
  "bed": 943, 
  "sing": 944, 
  "force": 945, 
  "Some": 946, 
  "act": 947, 
  "sts": 948, 
  "either": 949, 
  "political": 950, 
  "surface": 951, 
  "ni@@": 952, 
  "parents": 953, 
  "die": 954, 
  "feet": 955, 
  "humans": 956, 
  "opportunity": 957, 
  "key": 958, 
  "phone": 959, 
  "DNA": 960, 
  "companies": 961, 
  "economy": 962, 
  "eat": 963, 
  "growing": 964, 
  "up@@": 965, 
  "step": 966, 
  "under@@": 967, 
  "felt": 968, 
  "Right": 969, 
  "complex": 970, 
  "behavior": 971, 
  "table": 972, 
  "knowledge": 973, 
  "film": 974, 
  "short": 975, 
  "ph@@": 976, 
  "ste@@": 977, 
  "tri@@": 978, 
  "To": 979, 
  "met": 980, 
  "sitting": 981, 
  "personal": 982, 
  "fly": 983, 
  "reality": 984, 
  "wi@@": 985, 
  "ta@@": 986, 
  "changes": 987, 
  "brought": 988, 
  "incredible": 989, 
  "b": 990, 
  "gra@@": 991, 
  "areas": 992, 
  "write": 993, 
  "pa@@": 994, 
  "man@@": 995, 
  "program": 996, 
  "40": 997, 
  "wouldn": 998, 
  "fe@@": 999, 
  "developed": 1000, 
  "poor": 1001, 
  "sion": 1002, 
  "pay": 1003, 
  "animal": 1004, 
  "ill@@": 1005, 
  "giving": 1006, 
  "starting": 1007, 
  "ev@@": 1008, 
  "action": 1009, 
  "allow": 1010, 
  "d-@@": 1011, 
  "tools": 1012, 
  "blue": 1013, 
  "feeling": 1014, 
  "understanding": 1015, 
  "sl@@": 1016, 
  "weeks": 1017, 
  "ci@@": 1018, 
  "gh@@": 1019, 
  "gr@@": 1020, 
  "gives": 1021, 
  "fun": 1022, 
  "ad": 1023, 
  "theory": 1024, 
  "climate": 1025, 
  "An@@": 1026, 
  "Yes": 1027, 
  "challenge": 1028, 
  "technologies": 1029, 
  "map": 1030, 
  "Th@@": 1031, 
  "morning": 1032, 
  "patients": 1033, 
  "des": 1034, 
  "forward": 1035, 
  "attention": 1036, 
  "average": 1037, 
  "out@@": 1038, 
  "miles": 1039, 
  "images": 1040, 
  "produce": 1041, 
  "du@@": 1042, 
  "ke": 1043, 
  "x@@": 1044, 
  "str@@": 1045, 
  "numbers": 1046, 
  "watch": 1047, 
  "lt": 1048, 
  "Z@@": 1049, 
  "ics": 1050, 
  "wrote": 1051, 
  "Ch@@": 1052, 
  "physical": 1053, 
  "innovation": 1054, 
  "forms": 1055, 
  "Not": 1056, 
  "ators": 1057, 
  "literally": 1058, 
  "cut": 1059, 
  "seems": 1060, 
  "developing": 1061, 
  "cor@@": 1062, 
  "ants": 1063, 
  "playing": 1064, 
  "bottom": 1065, 
  "realize": 1066, 
  "ep@@": 1067, 
  "normal": 1068, 
  "computers": 1069, 
  "bu@@": 1070, 
  "po@@": 1071, 
  "center": 1072, 
  "ens": 1073, 
  "Re@@": 1074, 
  "Our": 1075, 
  "gi@@": 1076, 
  "dr@@": 1077, 
  "access": 1078, 
  "audience": 1079, 
  "rate": 1080, 
  "alone": 1081, 
  "Con@@": 1082, 
  "speak": 1083, 
  "trans@@": 1084, 
  "—": 1085, 
  "Ar@@": 1086, 
  "changing": 1087, 
  "scientists": 1088, 
  "cars": 1089, 
  "World": 1090, 
  "result": 1091, 
  "te@@": 1092, 
  "development": 1093, 
  "kid": 1094, 
  "au@@": 1095, 
  "ari@@": 1096, 
  "gt": 1097, 
  "Can": 1098, 
  "reg@@": 1099, 
  "pi@@": 1100, 
  "patient": 1101, 
  "uses": 1102, 
  "On": 1103, 
  "nice": 1104, 
  "creating": 1105, 
  "ship": 1106, 
  "discovered": 1107, 
  "ently": 1108, 
  "individual": 1109, 
  ".@@": 1110, 
  "Le@@": 1111, 
  "running": 1112, 
  "ay": 1113, 
  "solve": 1114, 
  "telling": 1115, 
  "ically": 1116, 
  "end@@": 1117, 
  "material": 1118, 
  "died": 1119, 
  "ard": 1120, 
  "box": 1121, 
  "anyone": 1122, 
  "hundreds": 1123, 
  "happiness": 1124, 
  "evolution": 1125, 
  "white": 1126, 
  "non-@@": 1127, 
  "ents": 1128, 
  "shape": 1129, 
  "focus": 1130, 
  "ey": 1131, 
  "der@@": 1132, 
  "writing": 1133, 
  "Be@@": 1134, 
  "18@@": 1135, 
  "designed": 1136, 
  "gu@@": 1137, 
  "millions": 1138, 
  "ches": 1139, 
  "medical": 1140, 
  "solution": 1141, 
  "ban@@": 1142, 
  "product": 1143, 
  "absolutely": 1144, 
  "mis@@": 1145, 
  "blood": 1146, 
  "gl@@": 1147, 
  "girl": 1148, 
  "save": 1149, 
  "min@@": 1150, 
  "il": 1151, 
  "talked": 1152, 
  "12": 1153, 
  "issue": 1154, 
  "ig@@": 1155, 
  "wa@@": 1156, 
  "ker": 1157, 
  "ns": 1158, 
  "showed": 1159, 
  "support": 1160, 
  "ying": 1161, 
  "ines": 1162, 
  "thank": 1163, 
  "ite": 1164, 
  "hold": 1165, 
  "Mar@@": 1166, 
  "clear": 1167, 
  "aren": 1168, 
  "major": 1169, 
  "the@@": 1170, 
  "Ma@@": 1171, 
  "English": 1172, 
  "experiment": 1173, 
  "stand": 1174, 
  "class": 1175, 
  "ders": 1176, 
  "deep": 1177, 
  "relationship": 1178, 
  "robot": 1179, 
  "industry": 1180, 
  "fast": 1181, 
  "movement": 1182, 
  "law": 1183, 
  "lab": 1184, 
  "seem": 1185, 
  "mental": 1186, 
  "gen@@": 1187, 
  "ism": 1188, 
  "haven": 1189, 
  "incredibly": 1190, 
  "begin": 1191, 
  "asking": 1192, 
  "fear": 1193, 
  "har@@": 1194, 
  "connected": 1195, 
  "ber@@": 1196, 
  "recently": 1197, 
  "knows": 1198, 
  "to@@": 1199, 
  "ther@@": 1200, 
  "tiny": 1201, 
  "ology": 1202, 
  "girls": 1203, 
  "na@@": 1204, 
  "ms": 1205, 
  "biology": 1206, 
  "becomes": 1207, 
  "risk": 1208, 
  "low": 1209, 
  "sea": 1210, 
  "reasons": 1211, 
  "cool": 1212, 
  "impact": 1213, 
  "available": 1214, 
  "device": 1215, 
  "hour": 1216, 
  "ot": 1217, 
  "soon": 1218, 
  "generation": 1219, 
  "modern": 1220, 
  "dark": 1221, 
  "Chinese": 1222, 
  "rules": 1223, 
  "ative": 1224, 
  "baby": 1225, 
  "involved": 1226, 
  "lived": 1227, 
  "Europe": 1228, 
  "pictures": 1229, 
  "19@@": 1230, 
  "bigger": 1231, 
  "type": 1232, 
  "and@@": 1233, 
  "no@@": 1234, 
  "situation": 1235, 
  "quality": 1236, 
  "fully": 1237, 
  "especially": 1238, 
  "network": 1239, 
  "comp@@": 1240, 
  "fied": 1241, 
  "medicine": 1242, 
  "vision": 1243, 
  "meet": 1244, 
  "effect": 1245, 
  "ed@@": 1246, 
  "tic@@": 1247, 
  "yes": 1248, 
  "beyond": 1249, 
  "che@@": 1250, 
  "explain": 1251, 
  "bas@@": 1252, 
  "worth": 1253, 
  "drive": 1254, 
  "stri@@": 1255, 
  "tells": 1256, 
  "ture": 1257, 
  "all@@": 1258, 
  "so@@": 1259, 
  "present": 1260, 
  "putting": 1261, 
  "online": 1262, 
  "games": 1263, 
  "board": 1264, 
  "ended": 1265, 
  "lic@@": 1266, 
  "y-@@": 1267, 
  "color": 1268, 
  "perfect": 1269, 
  "guess": 1270, 
  "dead": 1271, 
  "z": 1272, 
  "digital": 1273, 
  "materials": 1274, 
  "South": 1275, 
  "ze": 1276, 
  "street": 1277, 
  "schools": 1278, 
  "compassion": 1279, 
  "resources": 1280, 
  "ster": 1281, 
  "politics": 1282, 
  "ut@@": 1283, 
  "ff@@": 1284, 
  "cu@@": 1285, 
  "By": 1286, 
  "tion@@": 1287, 
  "teach": 1288, 
  "towards": 1289, 
  "ing@@": 1290, 
  "25": 1291, 
  "projects": 1292, 
  "onto": 1293, 
  "basic": 1294, 
  "D": 1295, 
  "60": 1296, 
  "uc@@": 1297, 
  "plants": 1298, 
  "software": 1299, 
  "door": 1300, 
  "Look": 1301, 
  "security": 1302, 
  "similar": 1303, 
  "groups": 1304, 
  "ery": 1305, 
  "hundred": 1306, 
  "ten@@": 1307, 
  "pos@@": 1308, 
  "mor@@": 1309, 
  "special": 1310, 
  "scientific": 1311, 
  "eye": 1312, 
  "t-@@": 1313, 
  "ca@@": 1314, 
  "sted": 1315, 
  "democracy": 1316, 
  "ce": 1317, 
  "voice": 1318, 
  "hit": 1319, 
  "os": 1320, 
  "ali@@": 1321, 
  "ready": 1322, 
  "road": 1323, 
  "ely": 1324, 
  "4@@": 1325, 
  "anybody": 1326, 
  "tical": 1327, 
  "break": 1328, 
  "several": 1329, 
  "kes": 1330, 
  "measure": 1331, 
  "chance": 1332, 
  "minute": 1333, 
  "examples": 1334, 
  "particularly": 1335, 
  "potential": 1336, 
  "teachers": 1337, 
  "carbon": 1338, 
  "Di@@": 1339, 
  "ose": 1340, 
  "approach": 1341, 
  "obviously": 1342, 
  "showing": 1343, 
  "wish": 1344, 
  "ent@@": 1345, 
  "activity": 1346, 
  "sur@@": 1347, 
  "ging": 1348, 
  "tically": 1349, 
  "1": 1350, 
  "acy": 1351, 
  "ess": 1352, 
  "positive": 1353, 
  "Of": 1354, 
  "ved": 1355, 
  "Maybe": 1356, 
  "office": 1357, 
  "ats": 1358, 
  "evidence": 1359, 
  "cur@@": 1360, 
  "memory": 1361, 
  "architecture": 1362, 
  "truth": 1363, 
  "reach": 1364, 
  "likely": 1365, 
  "wants": 1366, 
  "ths": 1367, 
  "sent": 1368, 
  "ows": 1369, 
  "oo@@": 1370, 
  "object": 1371, 
  "month": 1372, 
  "fall": 1373, 
  "poverty": 1374, 
  "do@@": 1375, 
  "choice": 1376, 
  "ning": 1377, 
  "vel@@": 1378, 
  "wind": 1379, 
  "ang@@": 1380, 
  "ap": 1381, 
  "ner": 1382, 
  "speed": 1383, 
  "super@@": 1384, 
  "journey": 1385, 
  "den@@": 1386, 
  "mine": 1387, 
  "tional": 1388, 
  "message": 1389, 
  "starts": 1390, 
  "wall": 1391, 
  "skin": 1392, 
  "ven@@": 1393, 
  "sel@@": 1394, 
  "ously": 1395, 
  "First": 1396, 
  "fire": 1397, 
  "Google": 1398, 
  "ments": 1399, 
  "nuclear": 1400, 
  "walking": 1401, 
  "tics": 1402, 
  "certainly": 1403, 
  "totally": 1404, 
  "exciting": 1405, 
  "Where": 1406, 
  "creativity": 1407, 
  "des@@": 1408, 
  "pr@@": 1409, 
  "3@@": 1410, 
  "ian": 1411, 
  "tation": 1412, 
  "Don": 1413, 
  "cause": 1414, 
  "star@@": 1415, 
  "screen": 1416, 
  "we@@": 1417, 
  "strong": 1418, 
  "Every": 1419, 
  "C": 1420, 
  "sounds": 1421, 
  "success": 1422, 
  "lead": 1423, 
  "id": 1424, 
  "list": 1425, 
  "pattern": 1426, 
  "dra@@": 1427, 
  "ots": 1428, 
  "biggest": 1429, 
  "smart": 1430, 
  "ke@@": 1431, 
  "lose": 1432, 
  "com@@": 1433, 
  "code": 1434, 
  "send": 1435, 
  "solar": 1436, 
  "arts": 1437, 
  "lines": 1438, 
  "entertainment": 1439, 
  "movie": 1440, 
  "plan": 1441, 
  "nobody": 1442, 
  "2": 1443, 
  "ged": 1444, 
  "cre@@": 1445, 
  "student": 1446, 
  "period": 1447, 
  "stay": 1448, 
  "develop": 1449, 
  "ately": 1450, 
  "standing": 1451, 
  "okay": 1452, 
  "source": 1453, 
  "ars": 1454, 
  "everywhere": 1455, 
  "engineering": 1456, 
  "violence": 1457, 
  "allowed": 1458, 
  "re": 1459, 
  "sit": 1460, 
  "bur@@": 1461, 
  "ach@@": 1462, 
  "drugs": 1463, 
  "further": 1464, 
  "grew": 1465, 
  "tal@@": 1466, 
  "ve@@": 1467, 
  "gas": 1468, 
  "interest": 1469, 
  "ia": 1470, 
  "ma": 1471, 
  "moral": 1472, 
  "largest": 1473, 
  "ure": 1474, 
  "moved": 1475, 
  "version": 1476, 
  "plant": 1477, 
  "bri@@": 1478, 
  "mass": 1479, 
  "ay@@": 1480, 
  "add": 1481, 
  "av@@": 1482, 
  "mer@@": 1483, 
  "R": 1484, 
  "creative": 1485, 
  "ering": 1486, 
  "11": 1487, 
  "sex": 1488, 
  "named": 1489, 
  "drug": 1490, 
  "pick": 1491, 
  "ching": 1492, 
  "HIV": 1493, 
  "points": 1494, 
  "revolution": 1495, 
  "sed": 1496, 
  "objects": 1497, 
  "extraordinary": 1498, 
  "buildings": 1499, 
  "ages": 1500, 
  "teacher": 1501, 
  "nine": 1502, 
  "products": 1503, 
  "results": 1504, 
  "continue": 1505, 
  "village": 1506, 
  "est@@": 1507, 
  "After": 1508, 
  "serious": 1509, 
  "math": 1510, 
  "ver": 1511, 
  "individuals": 1512, 
  "page": 1513, 
  "3": 1514, 
  "ue": 1515, 
  "ran@@": 1516, 
  "6@@": 1517, 
  "camera": 1518, 
  "Mo@@": 1519, 
  "sh": 1520, 
  "rich": 1521, 
  "notice": 1522, 
  "crazy": 1523, 
  "sive": 1524, 
  "favorite": 1525, 
  "supposed": 1526, 
  "follow": 1527, 
  "tor@@": 1528, 
  "arm": 1529, 
  "West": 1530, 
  "foot": 1531, 
  "East": 1532, 
  "expect": 1533, 
  "position": 1534, 
  "ess@@": 1535, 
  "older": 1536, 
  "robots": 1537, 
  "peace": 1538, 
  "response": 1539, 
  "ched": 1540, 
  "trees": 1541, 
  "head@@": 1542, 
  "extremely": 1543, 
  "essentially": 1544, 
  "watching": 1545, 
  "bunch": 1546, 
  "80": 1547, 
  "pieces": 1548, 
  "S": 1549, 
  "song": 1550, 
  "ton": 1551, 
  "thousand": 1552, 
  "sorts": 1553, 
  "uni@@": 1554, 
  "jobs": 1555, 
  "series": 1556, 
  "spread": 1557, 
  "w": 1558, 
  "Who": 1559, 
  "inv@@": 1560, 
  "ned": 1561, 
  "ky": 1562, 
  "Most": 1563, 
  "sen@@": 1564, 
  "eventually": 1565, 
  "taught": 1566, 
  "mat@@": 1567, 
  "oh": 1568, 
  "7@@": 1569, 
  "Me@@": 1570, 
  "Car@@": 1571, 
  "late": 1572, 
  "sleep": 1573, 
  "Even": 1574, 
  "brains": 1575, 
  "performance": 1576, 
  "O": 1577, 
  "hand@@": 1578, 
  "safe": 1579, 
  "expensive": 1580, 
  "With": 1581, 
  "suddenly": 1582, 
  "conditions": 1583, 
  "studies": 1584, 
  "wait": 1585, 
  "ase": 1586, 
  "national": 1587, 
  "zed": 1588, 
  "range": 1589, 
  "models": 1590, 
  "leaders": 1591, 
  "general": 1592, 
  "faster": 1593, 
  "200": 1594, 
  "perspective": 1595, 
  "among": 1596, 
  "visual": 1597, 
  "boy": 1598, 
  "bs": 1599, 
  "somewhere": 1600, 
  "David": 1601, 
  "gs": 1602, 
  "electricity": 1603, 
  "wife": 1604, 
  "reading": 1605, 
  "ize": 1606, 
  "shown": 1607, 
  "zing": 1608, 
  "physics": 1609, 
  "traditional": 1610, 
  "bar@@": 1611, 
  "cri@@": 1612, 
  "listen": 1613, 
  "hospital": 1614, 
  "ably": 1615, 
  "machines": 1616, 
  "crisis": 1617, 
  "allows": 1618, 
  "hor@@": 1619, 
  "worse": 1620, 
  "larger": 1621, 
  "ler": 1622, 
  "higher": 1623, 
  "fr@@": 1624, 
  "tor": 1625, 
  "ial": 1626, 
  "finding": 1627, 
  "above": 1628, 
  "high-@@": 1629, 
  "ell": 1630, 
  "18": 1631, 
  "Those": 1632, 
  "int@@": 1633, 
  "u": 1634, 
  "rise": 1635, 
  "production": 1636, 
  "shot": 1637, 
  "Ne@@": 1638, 
  "including": 1639, 
  "usually": 1640, 
  "written": 1641, 
  "id@@": 1642, 
  "goal": 1643, 
  "role": 1644, 
  "sky": 1645, 
  "sell": 1646, 
  "St@@": 1647, 
  "site": 1648, 
  "B": 1649, 
  "can@@": 1650, 
  "char@@": 1651, 
  "sun": 1652, 
  "healthy": 1653, 
  "North": 1654, 
  "Are": 1655, 
  "somehow": 1656, 
  "one-@@": 1657, 
  "sting": 1658, 
  "indeed": 1659, 
  "active": 1660, 
  "fight": 1661, 
  "o-@@": 1662, 
  "bor@@": 1663, 
  "meaning": 1664, 
  "connect": 1665, 
  "ick": 1666, 
  "excited": 1667, 
  "complicated": 1668, 
  "training": 1669, 
  "context": 1670, 
  "press": 1671, 
  "dream": 1672, 
  "successful": 1673, 
  "tool": 1674, 
  "killed": 1675, 
  "1@@": 1676, 
  "military": 1677, 
  "om": 1678, 
  "alive": 1679, 
  "kill": 1680, 
  "lic": 1681, 
  "ow": 1682, 
  "impossible": 1683, 
  "f": 1684, 
  "ingly": 1685, 
  "sw@@": 1686, 
  "touch": 1687, 
  "ell@@": 1688, 
  "cases": 1689, 
  "John": 1690, 
  "college": 1691, 
  "humanity": 1692, 
  "truly": 1693, 
  "waste": 1694, 
  "treatment": 1695, 
  "ass@@": 1696, 
  "income": 1697, 
  "organization": 1698, 
  "communities": 1699, 
  "kept": 1700, 
  "African": 1701, 
  "Which": 1702, 
  "coun@@": 1703, 
  "bodies": 1704, 
  "seconds": 1705, 
  "tur@@": 1706, 
  "fa@@": 1707, 
  "ring": 1708, 
  "actual": 1709, 
  "ser@@": 1710, 
  "anywhere": 1711, 
  "beauty": 1712, 
  "fy": 1713, 
  "fin@@": 1714, 
  "critical": 1715, 
  "yeah": 1716, 
  "pic@@": 1717, 
  "effective": 1718, 
  "els": 1719, 
  "ized": 1720, 
  "doctor": 1721, 
  "famous": 1722, 
  "od@@": 1723, 
  "main": 1724, 
  "Par@@": 1725, 
  "lights": 1726, 
  "smaller": 1727, 
  "meant": 1728, 
  "please": 1729, 
  "recognize": 1730, 
  "region": 1731, 
  "go@@": 1732, 
  "tree": 1733, 
  "tw@@": 1734, 
  "choose": 1735, 
  "wh@@": 1736, 
  "ls": 1737, 
  "tt@@": 1738, 
  "back@@": 1739, 
  "himself": 1740, 
  "fine": 1741, 
  "sti@@": 1742, 
  "upon": 1743, 
  "content": 1744, 
  "tes": 1745, 
  "alized": 1746, 
  "weight": 1747, 
  "ils": 1748, 
  "fundamental": 1749, 
  "Americans": 1750, 
  "solutions": 1751, 
  "skills": 1752, 
  "bacteria": 1753, 
  "sk@@": 1754, 
  "religion": 1755, 
  "price": 1756, 
  "bul@@": 1757, 
  "med": 1758, 
  "TV": 1759, 
  "concept": 1760, 
  "plastic": 1761, 
  "families": 1762, 
  "Su@@": 1763, 
  "exist": 1764, 
  "dance": 1765, 
  "neurons": 1766, 
  "flow": 1767, 
  "ley": 1768, 
  "trust": 1769, 
  "genes": 1770, 
  "increase": 1771, 
  "fer@@": 1772, 
  "beings": 1773, 
  "patterns": 1774, 
  "ear": 1775, 
  "5@@": 1776, 
  "virus": 1777, 
  "pain": 1778, 
  "decisions": 1779, 
  "earlier": 1780, 
  "stars": 1781, 
  "massive": 1782, 
  "ward": 1783, 
  "dly": 1784, 
  "fra@@": 1785, 
  "fantastic": 1786, 
  "her@@": 1787, 
  "Another": 1788, 
  "treat": 1789, 
  "town": 1790, 
  "provide": 1791, 
  "store": 1792, 
  "Mon@@": 1793, 
  "economics": 1794, 
  "wonder": 1795, 
  "res": 1796, 
  "En@@": 1797, 
  "De@@": 1798, 
  "conversation": 1799, 
  "teaching": 1800, 
  "tre@@": 1801, 
  "Like": 1802, 
  "dog": 1803, 
  "except": 1804, 
  "driving": 1805, 
  "freedom": 1806, 
  "pres@@": 1807, 
  "jo@@": 1808, 
  "ory": 1809, 
  "self": 1810, 
  "anymore": 1811, 
  "10@@": 1812, 
  "dri@@": 1813, 
  "listening": 1814, 
  "urban": 1815, 
  "pull": 1816, 
  "magic": 1817, 
  "ality": 1818, 
  "hu@@": 1819, 
  "sol@@": 1820, 
  "record": 1821, 
  "web": 1822, 
  "waiting": 1823, 
  "familiar": 1824, 
  "tend": 1825, 
  "becoming": 1826, 
  "costs": 1827, 
  "strange": 1828, 
  "ane": 1829, 
  "service": 1830, 
  "T": 1831, 
  "floor": 1832, 
  "aware": 1833, 
  "train": 1834, 
  "specific": 1835, 
  "private": 1836, 
  "Ex@@": 1837, 
  "Sh@@": 1838, 
  "current": 1839, 
  "cap@@": 1840, 
  "ect": 1841, 
  "M": 1842, 
  "invented": 1843, 
  "por@@": 1844, 
  "therefore": 1845, 
  "forth": 1846, 
  "related": 1847, 
  "sions": 1848, 
  "9": 1849, 
  "throughout": 1850, 
  "draw": 1851, 
  "raise": 1852, 
  "win": 1853, 
  "greater": 1854, 
  "Your": 1855, 
  "0@@": 1856, 
  "slow": 1857, 
  "ran": 1858, 
  "enti@@": 1859, 
  "op": 1860, 
  "inf@@": 1861, 
  "hot": 1862, 
  "amp": 1863, 
  "levels": 1864, 
  "6": 1865, 
  "ious": 1866, 
  "subject": 1867, 
  "direction": 1868, 
  "connection": 1869, 
  "ited": 1870, 
  "policy": 1871, 
  "website": 1872, 
  "sm@@": 1873, 
  "For@@": 1874, 
  "sign": 1875, 
  "ear@@": 1876, 
  "ack": 1877, 
  "8@@": 1878, 
  "app@@": 1879, 
  "70": 1880, 
  "various": 1881, 
  "ists": 1882, 
  "funny": 1883, 
  "protect": 1884, 
  "greatest": 1885, 
  "fil@@": 1886, 
  "communication": 1887, 
  "row": 1888, 
  "Today": 1889, 
  "re-@@": 1890, 
  "flying": 1891, 
  "pen@@": 1892, 
  "square": 1893, 
  "kers": 1894, 
  "Imagine": 1895, 
  "understood": 1896, 
  "ju@@": 1897, 
  "values": 1898, 
  "fuel": 1899, 
  "sters": 1900, 
  "remarkable": 1901, 
  "dollar": 1902, 
  "artist": 1903, 
  "cul@@": 1904, 
  "anc@@": 1905, 
  "sta@@": 1906, 
  "speci@@": 1907, 
  "societies": 1908, 
  "ming": 1909, 
  "ba@@": 1910, 
  "following": 1911, 
  "sustainable": 1912, 
  "slide": 1913, 
  "track": 1914, 
  "ined": 1915, 
  "legs": 1916, 
  "tru@@": 1917, 
  "term": 1918, 
  "University": 1919, 
  "cou@@": 1920, 
  "progress": 1921, 
  "tly": 1922, 
  "function": 1923, 
  "clearly": 1924, 
  "aid": 1925, 
  "ered": 1926, 
  "gener@@": 1927, 
  "medi@@": 1928, 
  "lies": 1929, 
  "City": 1930, 
  "dangerous": 1931, 
  "surgery": 1932, 
  "off@@": 1933, 
  "immediately": 1934, 
  "ining": 1935, 
  "directly": 1936, 
  "types": 1937, 
  "states": 1938, 
  "cop@@": 1939, 
  "prom@@": 1940, 
  "lower": 1941, 
  "eri@@": 1942, 
  "scre@@": 1943, 
  "az@@": 1944, 
  "tors": 1945, 
  "ners": 1946, 
  "intelligence": 1947, 
  "walked": 1948, 
  "500": 1949, 
  "ion": 1950, 
  "travel": 1951, 
  "cal@@": 1952, 
  "passion": 1953, 
  "career": 1954, 
  "und@@": 1955, 
  "international": 1956, 
  "loved": 1957, 
  "cra@@": 1958, 
  "cover": 1959, 
  "Com@@": 1960, 
  "aging": 1961, 
  "enormous": 1962, 
  "useful": 1963, 
  "cultural": 1964, 
  "survive": 1965, 
  "8": 1966, 
  "ther": 1967, 
  "ands": 1968, 
  "minds": 1969, 
  "two-@@": 1970, 
  "ana": 1971, 
  "era": 1972, 
  "ends": 1973, 
  "": 1974, 
  "tives": 1975, 
  "cold": 1976, 
  "clean": 1977, 
  "ahead": 1978, 
  "zero": 1979, 
  "markets": 1980, 
  "pu@@": 1981, 
  "decade": 1982, 
  "genetic": 1983, 
  "top@@": 1984, 
  "E": 1985, 
  "television": 1986, 
  "consciousness": 1987, 
  "ho@@": 1988, 
  "services": 1989, 
  "consider": 1990, 
  "Mc@@": 1991, 
  "4": 1992, 
  "institutions": 1993, 
  "hole": 1994, 
  "mobile": 1995, 
  "practice": 1996, 
  "rights": 1997, 
  "ah": 1998, 
  "unique": 1999, 
  "comm@@": 2000, 
  "ori@@": 2001, 
  "ey@@": 2002, 
  "90": 2003, 
  "vers": 2004, 
  "ologist": 2005, 
  "whose": 2006, 
  "doctors": 2007, 
  "weren": 2008, 
  "boys": 2009, 
  "shared": 2010, 
  "ina": 2011, 
  "Se@@": 2012, 
  "ill": 2013, 
  "17@@": 2014, 
  "challenges": 2015, 
  "ected": 2016, 
  "ulate": 2017, 
  "War": 2018, 
  "race": 2019, 
  "temperature": 2020, 
  "babies": 2021, 
  "conference": 2022, 
  "final": 2023, 
  "experiments": 2024, 
  "diseases": 2025, 
  "London": 2026, 
  "forces": 2027, 
  "anyway": 2028, 
  "instance": 2029, 
  "evolved": 2030, 
  "Western": 2031, 
  "speaking": 2032, 
  "agree": 2033, 
  "complexity": 2034, 
  "L": 2035, 
  "task": 2036, 
  "meeting": 2037, 
  "produced": 2038, 
  "ut": 2039, 
  "chemical": 2040, 
  "Li@@": 2041, 
  "16": 2042, 
  "mission": 2043, 
  "possibly": 2044, 
  "clu@@": 2045, 
  "although": 2046, 
  "ak": 2047, 
  "AIDS": 2048, 
  "grade": 2049, 
  "secret": 2050, 
  "9@@": 2051, 
  "birds": 2052, 
  "environmental": 2053, 
  "daughter": 2054, 
  "air@@": 2055, 
  "conflict": 2056, 
  "focused": 2057, 
  "citizens": 2058, 
  "effects": 2059, 
  "stick": 2060, 
  "fit": 2061, 
  "played": 2062, 
  "enting": 2063, 
  "P": 2064, 
  "ash@@": 2065, 
  "wor@@": 2066, 
  "complete": 2067, 
  "5": 2068, 
  "decide": 2069, 
  "7": 2070, 
  "below": 2071, 
  "recent": 2072, 
  "plan@@": 2073, 
  "ash": 2074, 
  "Mars": 2075, 
  "event": 2076, 
  "helped": 2077, 
  "ble@@": 2078, 
  "financial": 2079, 
  "TED@@": 2080, 
  "obvious": 2081, 
  "near": 2082, 
  "summer": 2083, 
  "ale": 2084, 
  "feed": 2085, 
  "willing": 2086, 
  "ass": 2087, 
  "terrible": 2088, 
  "loc@@": 2089, 
  "ink": 2090, 
  "networks": 2091, 
  "National": 2092, 
  "laws": 2093, 
  "bringing": 2094, 
  "ten": 2095, 
  "police": 2096, 
  "sat": 2097, 
  "sharing": 2098, 
  "ber": 2099, 
  "date": 2100, 
  "ga@@": 2101, 
  "rule": 2102, 
  "birth": 2103, 
  "eating": 2104, 
  "Nor@@": 2105, 
  "ulation": 2106, 
  "Two": 2107, 
  "lie": 2108, 
  "shed": 2109, 
  "cen@@": 2110, 
  "glass": 2111, 
  "inspired": 2112, 
  "phones": 2113, 
  "ick@@": 2114, 
  "biological": 2115, 
  "squ@@": 2116, 
  "Gu@@": 2117, 
  "From": 2118, 
  "sec@@": 2119, 
  "Middle": 2120, 
  "heat": 2121, 
  "capacity": 2122, 
  "discover": 2123, 
  "character": 2124, 
  "bought": 2125, 
  "bits": 2126, 
  "bees": 2127, 
  "causes": 2128, 
  "capital": 2129, 
  "quick": 2130, 
  "ast@@": 2131, 
  "mostly": 2132, 
  "efficient": 2133, 
  "dying": 2134, 
  "ws": 2135, 
  "gri@@": 2136, 
  "Afghanistan": 2137, 
  "published": 2138, 
  "ular": 2139, 
  "cont@@": 2140, 
  "bre@@": 2141, 
  "Indian": 2142, 
  "decision": 2143, 
  "-year-old": 2144, 
  "Dr.": 2145, 
  "original": 2146, 
  "Great": 2147, 
  "workers": 2148, 
  "His": 2149, 
  "att@@": 2150, 
  "dad": 2151, 
  "popular": 2152, 
  "syn@@": 2153, 
  "poll@@": 2154, 
  "balance": 2155, 
  "serve": 2156, 
  "work@@": 2157, 
  "round": 2158, 
  "explore": 2159, 
  "surprising": 2160, 
  "inten@@": 2161, 
  "tures": 2162, 
  "carry": 2163, 
  "ances": 2164, 
  "Co@@": 2165, 
  "stream": 2166, 
  "pressure": 2167, 
  "tou@@": 2168, 
  "photograph": 2169, 
  "sal@@": 2170, 
  "path": 2171, 
  "trouble": 2172, 
  "decades": 2173, 
  "ple": 2174, 
  "ast": 2175, 
  "multi@@": 2176, 
  "imp@@": 2177, 
  "governments": 2178, 
  "turning": 2179, 
  "scientist": 2180, 
  "non@@": 2181, 
  "creates": 2182, 
  "ball": 2183, 
  "Think": 2184, 
  "paid": 2185, 
  "ren@@": 2186, 
  "search": 2187, 
  "rock": 2188, 
  "apped": 2189, 
  "ine@@": 2190, 
  "push": 2191, 
  "infrastructure": 2192, 
  "worry": 2193, 
  "K": 2194, 
  "purpose": 2195, 
  "ack@@": 2196, 
  "sha@@": 2197, 
  "int": 2198, 
  "300": 2199, 
  "ys": 2200, 
  "Hey": 2201, 
  "streets": 2202, 
  "closer": 2203, 
  "etc": 2204, 
  "net": 2205, 
  "duc@@": 2206, 
  "spending": 2207, 
  "oxygen": 2208, 
  "human@@": 2209, 
  "Chris": 2210, 
  "mom": 2211, 
  "ancient": 2212, 
  "fo@@": 2213, 
  "lack": 2214, 
  "lets": 2215, 
  "forget": 2216, 
  "twice": 2217, 
  "14": 2218, 
  "hom@@": 2219, 
  "depression": 2220, 
  "prot@@": 2221, 
  "la": 2222, 
  "significant": 2223, 
  "forest": 2224, 
  "helping": 2225, 
  "drop": 2226, 
  "mountain": 2227, 
  "attack": 2228, 
  "text": 2229, 
  "af@@": 2230, 
  "trial": 2231, 
  "anti@@": 2232, 
  "organisms": 2233, 
  "emotional": 2234, 
  "$": 2235, 
  "answers": 2236, 
  "bing": 2237, 
  "faces": 2238, 
  "read@@": 2239, 
  "industrial": 2240, 
  "molecules": 2241, 
  "worst": 2242, 
  "devices": 2243, 
  "ination": 2244, 
  "form@@": 2245, 
  "ending": 2246, 
  "party": 2247, 
  "slightly": 2248, 
  "ement": 2249, 
  "Many": 2250, 
  "broken": 2251, 
  "nation": 2252, 
  "atmosphere": 2253, 
  "actions": 2254, 
  "ide@@": 2255, 
  "ony": 2256, 
  "yl@@": 2257, 
  "standard": 2258, 
  "15@@": 2259, 
  "hair": 2260, 
  "lan@@": 2261, 
  "10,000": 2262, 
  "on-@@": 2263, 
  "programs": 2264, 
  "dies": 2265, 
  "basis": 2266, 
  "fre@@": 2267, 
  "supply": 2268, 
  "den": 2269, 
  "sli@@": 2270, 
  "Web": 2271, 
  "degrees": 2272, 
  "members": 2273, 
  "flies": 2274, 
  "psych@@": 2275, 
  "mod@@": 2276, 
  "fu@@": 2277, 
  "California": 2278, 
  "central": 2279, 
  "star": 2280, 
  "seemed": 2281, 
  "oper@@": 2282, 
  "improve": 2283, 
  "structures": 2284, 
  "differences": 2285, 
  "oss": 2286, 
  "artists": 2287, 
  "feels": 2288, 
  "malaria": 2289, 
  "afraid": 2290, 
  "dd@@": 2291, 
  "fac@@": 2292, 
  "colleagues": 2293, 
  "oph@@": 2294, 
  "Instead": 2295, 
  "corner": 2296, 
  "cer@@": 2297, 
  "val@@": 2298, 
  "extra": 2299, 
  "da": 2300, 
  "earth": 2301, 
  "designers": 2302, 
  "wr@@": 2303, 
  "straight": 2304, 
  "notion": 2305, 
  "relationships": 2306, 
  "shift": 2307, 
  "path@@": 2308, 
  "gotten": 2309, 
  "invention": 2310, 
  "14@@": 2311, 
  "sick": 2312, 
  "genome": 2313, 
  "organizations": 2314, 
  "ites": 2315, 
  "s-@@": 2316, 
  "easily": 2317, 
  "ain": 2318, 
  "calls": 2319, 
  "address": 2320, 
  "hearing": 2321, 
  "ny": 2322, 
  "Ber@@": 2323, 
  "noticed": 2324, 
  "16@@": 2325, 
  "ection": 2326, 
  "pat@@": 2327, 
  "bal@@": 2328, 
  "fix": 2329, 
  "Again": 2330, 
  "core": 2331, 
  "reduce": 2332, 
  "gh": 2333, 
  "charge": 2334, 
  "apart": 2335, 
  "none": 2336, 
  "tively": 2337, 
  "Life": 2338, 
  "0s": 2339, 
  "tail": 2340, 
  "stone": 2341, 
  "tremendous": 2342, 
  "Bu@@": 2343, 
  "12@@": 2344, 
  "condition": 2345, 
  "landscape": 2346, 
  "choices": 2347, 
  "dge": 2348, 
  "13": 2349, 
  "possibility": 2350, 
  "coll@@": 2351, 
  "peri@@": 2352, 
  "ger": 2353, 
  "loss": 2354, 
  "studying": 2355, 
  "leading": 2356, 
  "wood": 2357, 
  "edi@@": 2358, 
  "stem": 2359, 
  "tun@@": 2360, 
  "ects": 2361, 
  "Iraq": 2362, 
  "ach": 2363, 
  "moments": 2364, 
  "a-@@": 2365, 
  "communicate": 2366, 
  "achieve": 2367, 
  "ai@@": 2368, 
  "shares": 2369, 
  "differently": 2370, 
  "interact": 2371, 
  "radio": 2372, 
  "ented": 2373, 
  "engage": 2374, 
  "meters": 2375, 
  "sum@@": 2376, 
  "bird": 2377, 
  "stopped": 2378, 
  "ra": 2379, 
  "stress": 2380, 
  "rap@@": 2381, 
  "oll@@": 2382, 
  "ills": 2383, 
  "saving": 2384, 
  "brings": 2385, 
  "ta": 2386, 
  "mer": 2387, 
  "imagination": 2388, 
  "flu": 2389, 
  "ope": 2390, 
  "bra@@": 2391, 
  "check": 2392, 
  "crime": 2393, 
  "24": 2394, 
  "flight": 2395, 
  "total": 2396, 
  "1,000": 2397, 
  "pass": 2398, 
  "contribu@@": 2399, 
  "argument": 2400, 
  "highly": 2401, 
  "oceans": 2402, 
  "calcul@@": 2403, 
  "window": 2404, 
  "return": 2405, 
  "responsibility": 2406, 
  "ft": 2407, 
  "gene": 2408, 
  "s.html": 2409, 
  "edge": 2410, 
  "er-@@": 2411, 
  "G": 2412, 
  "opportunities": 2413, 
  "coffee": 2414, 
  "men@@": 2415, 
  "definition": 2416, 
  "figured": 2417, 
  "Bi@@": 2418, 
  "Asia": 2419, 
  "graph": 2420, 
  "giant": 2421, 
  "Richard": 2422, 
  "colors": 2423, 
  "mag@@": 2424, 
  "pt": 2425, 
  "pping": 2426, 
  "painting": 2427, 
  "electric": 2428, 
  "fairly": 2429, 
  "missing": 2430, 
  "leadership": 2431, 
  "year-old": 2432, 
  "trade": 2433, 
  "cru@@": 2434, 
  "pur@@": 2435, 
  "stra@@": 2436, 
  "ets": 2437, 
  "planets": 2438, 
  "bled": 2439, 
  "diversity": 2440, 
  "necessarily": 2441, 
  "Si@@": 2442, 
  "benefits": 2443, 
  "Actually": 2444, 
  "owing": 2445, 
  "mal@@": 2446, 
  "tissue": 2447, 
  "Un@@": 2448, 
  "necessary": 2449, 
  "religious": 2450, 
  "respect": 2451, 
  "ization": 2452, 
  "pan@@": 2453, 
  "finished": 2454, 
  "our@@": 2455, 
  "Bar@@": 2456, 
  "sector": 2457, 
  "aw@@": 2458, 
  "ower": 2459, 
  "ys@@": 2460, 
  "ese": 2461, 
  "experiences": 2462, 
  "exc@@": 2463, 
  "bling": 2464, 
  "cell@@": 2465, 
  "held": 2466, 
  "nearly": 2467, 
  "Wh@@": 2468, 
  "ography": 2469, 
  "rot@@": 2470, 
  "sold": 2471, 
  "rou@@": 2472, 
  "Ge@@": 2473, 
  "equ@@": 2474, 
  "ant@@": 2475, 
  "Per@@": 2476, 
  "ologists": 2477, 
  "passed": 2478, 
  "ans@@": 2479, 
  "ells": 2480, 
  "ner@@": 2481, 
  "oy@@": 2482, 
  "pped": 2483, 
  "don@@": 2484, 
  "lucky": 2485, 
  "apply": 2486, 
  "La@@": 2487, 
  "traffic": 2488, 
  "engine": 2489, 
  "bridge": 2490, 
  "yp@@": 2491, 
  "holding": 2492, 
  "raised": 2493, 
  "creatures": 2494, 
  "benefit": 2495, 
  "So@@": 2496, 
  "forever": 2497, 
  "Japan": 2498, 
  "inci@@": 2499, 
  "enter": 2500, 
  "pop@@": 2501, 
  "moves": 2502, 
  "degree": 2503, 
  "elements": 2504, 
  "negative": 2505, 
  "ise": 2506, 
  "mouse": 2507, 
  "phenomenon": 2508, 
  "explo@@": 2509, 
  "log@@": 2510, 
  "win@@": 2511, 
  "tivity": 2512, 
  "ays": 2513, 
  "statistics": 2514, 
  "ome": 2515, 
  "Ki@@": 2516, 
  "effort": 2517, 
  "Very": 2518, 
  "Ra@@": 2519, 
  "boat": 2520, 
  "farmers": 2521, 
  "describe": 2522, 
  "respond": 2523, 
  "sor@@": 2524, 
  "sand": 2525, 
  "responsible": 2526, 
  "An": 2527, 
  "prison": 2528, 
  "sites": 2529, 
  "throw": 2530, 
  "alize": 2531, 
  "Good": 2532, 
  "Facebook": 2533, 
  "failure": 2534, 
  "Ro@@": 2535, 
  "collaboration": 2536, 
  "ped": 2537, 
  "knowing": 2538, 
  "vari@@": 2539, 
  "Ste@@": 2540, 
  "stor@@": 2541, 
  "cycle": 2542, 
  "print": 2543, 
  "Take": 2544, 
  "fascinating": 2545, 
  "bone": 2546, 
  "join": 2547, 
  "events": 2548, 
  "ici@@": 2549, 
  "gre@@": 2550, 
  "ening": 2551, 
  "aff@@": 2552, 
  "blind": 2553, 
  "competition": 2554, 
  "walls": 2555, 
  "cheap": 2556, 
  "Mr.": 2557, 
  "helps": 2558, 
  "ep": 2559, 
  "suffering": 2560, 
  "ound": 2561, 
  "importantly": 2562, 
  "lesson": 2563, 
  "ping": 2564, 
  "ore": 2565, 
  "particles": 2566, 
  "Second": 2567, 
  "aling": 2568, 
  "counter@@": 2569, 
  "extreme": 2570, 
  "hun@@": 2571, 
  "Col@@": 2572, 
  "meter": 2573, 
  "ater": 2574, 
  "ligh@@": 2575, 
  "museum": 2576, 
  "ads": 2577, 
  "distance": 2578, 
  "5,000": 2579, 
  "matic": 2580, 
  "matters": 2581, 
  "acking": 2582, 
  "investment": 2583, 
  "sorry": 2584, 
  "conscious": 2585, 
  "ears": 2586, 
  "designer": 2587, 
  "respon@@": 2588, 
  "Br@@": 2589, 
  "17": 2590, 
  "trained": 2591, 
  "afford": 2592, 
  "ological": 2593, 
  "cognitive": 2594, 
  "virtual": 2595, 
  "visit": 2596, 
  "cos@@": 2597, 
  "puts": 2598, 
  "ace": 2599, 
  "vit@@": 2600, 
  "broad@@": 2601, 
  "wild": 2602, 
  "ences": 2603, 
  "acked": 2604, 
  "pul@@": 2605, 
  "easier": 2606, 
  "facts": 2607, 
  "filled": 2608, 
  "sion@@": 2609, 
  "card": 2610, 
  "hum@@": 2611, 
  "note": 2612, 
  "arch@@": 2613, 
  "mit@@": 2614, 
  "influence": 2615, 
  "olog@@": 2616, 
  "beat": 2617, 
  "shi@@": 2618, 
  "Once": 2619, 
  "opposite": 2620, 
  "corruption": 2621, 
  "legal": 2622, 
  "ute": 2623, 
  "sun@@": 2624, 
  "identity": 2625, 
  "ases": 2626, 
  "profound": 2627, 
  "neur@@": 2628, 
  "humor": 2629, 
  "deeply": 2630, 
  "Po@@": 2631, 
  "quote": 2632, 
  "vast": 2633, 
  "ei@@": 2634, 
  "ha": 2635, 
  "emotions": 2636, 
  "psychology": 2637, 
  "fashion": 2638, 
  "in-@@": 2639, 
  "acts": 2640, 
  "Har@@": 2641, 
  "ust": 2642, 
  "park": 2643, 
  "ind": 2644, 
  "-up": 2645, 
  "British": 2646, 
  "acceler@@": 2647, 
  "rid": 2648, 
  "flu@@": 2649, 
  "micro@@": 2650, 
  "well-@@": 2651, 
  "organic": 2652, 
  "billions": 2653, 
  "discovery": 2654, 
  "Ad@@": 2655, 
  "background": 2656, 
  "shouldn": 2657, 
  "photos": 2658, 
  "ne": 2659, 
  "agriculture": 2660, 
  "Ac@@": 2661, 
  "civil": 2662, 
  "ultimately": 2663, 
  "speech": 2664, 
  "yellow": 2665, 
  "Sometimes": 2666, 
  "thinks": 2667, 
  "typical": 2668, 
  "Everybody": 2669, 
  "fair": 2670, 
  "Bro@@": 2671, 
  "wing": 2672, 
  "capable": 2673, 
  "insects": 2674, 
  "separate": 2675, 
  "spaces": 2676, 
  "onic": 2677, 
  "base": 2678, 
  "tin@@": 2679, 
  "fighting": 2680, 
  "noise": 2681, 
  "factory": 2682, 
  "brand": 2683, 
  "predict": 2684, 
  "inj@@": 2685, 
  "acting": 2686, 
  "sequence": 2687, 
  "theater": 2688, 
  "ational": 2689, 
  "French": 2690, 
  "therapy": 2691, 
  "male": 2692, 
  "caught": 2693, 
  "leaving": 2694, 
  "Fi@@": 2695, 
  "neighborhood": 2696, 
  "stuck": 2697, 
  "engineer": 2698, 
  "Paul": 2699, 
  "entirely": 2700, 
  "ong": 2701, 
  "Have": 2702, 
  "versus": 2703, 
  "wisdom": 2704, 
  "leads": 2705, 
  "ards": 2706, 
  "female": 2707, 
  "invisible": 2708, 
  "Gre@@": 2709, 
  "iting": 2710, 
  "treated": 2711, 
  "operating": 2712, 
  "transform": 2713, 
  "indic@@": 2714, 
  "unk": 2715, 
  "opened": 2716, 
  "begins": 2717, 
  "iled": 2718, 
  "consumption": 2719, 
  "Wal@@": 2720, 
  "San": 2721, 
  "sy": 2722, 
  "ements": 2723, 
  "ur": 2724, 
  "majority": 2725, 
  "tiv@@": 2726, 
  "enjoy": 2727, 
  "Thanks": 2728, 
  "down@@": 2729, 
  "planning": 2730, 
  "weapons": 2731, 
  "creation": 2732, 
  "slowly": 2733, 
  "layer": 2734, 
  "izing": 2735, 
  "copy": 2736, 
  "steps": 2737, 
  "&apos;@@": 2738, 
  "dem@@": 2739, 
  "ean": 2740, 
  "European": 2741, 
  "believed": 2742, 
  "ath": 2743, 
  "photo": 2744, 
  "concerned": 2745, 
  "civilization": 2746, 
  "offer": 2747, 
  "perfectly": 2748, 
  "Did": 2749, 
  "rel@@": 2750, 
  "eline": 2751, 
  "Iran": 2752, 
  "everyday": 2753, 
  "soci@@": 2754, 
  "400": 2755, 
  "See": 2756, 
  "adults": 2757, 
  "cy@@": 2758, 
  "block": 2759, 
  "swe@@": 2760, 
  "radi@@": 2761, 
  "surprise": 2762, 
  "mathematics": 2763, 
  "followed": 2764, 
  "Washington": 2765, 
  "limited": 2766, 
  "mit": 2767, 
  "compared": 2768, 
  "ir": 2769, 
  "bread": 2770, 
  "cli@@": 2771, 
  "Vi@@": 2772, 
  "tionally": 2773, 
  "tain": 2774, 
  "sequ@@": 2775, 
  "def@@": 2776, 
  "sudden": 2777, 
  "sy@@": 2778, 
  "catch": 2779, 
  "faith": 2780, 
  "lands": 2781, 
  "arr@@": 2782, 
  "alternative": 2783, 
  "three-@@": 2784, 
  "ome@@": 2785, 
  "roll": 2786, 
  "He@@": 2787, 
  "rac@@": 2788, 
  "due": 2789, 
  "heads": 2790, 
  "despite": 2791, 
  "wealth": 2792, 
  "warming": 2793, 
  "lay": 2794, 
  "damage": 2795, 
  "ham@@": 2796, 
  "foreign": 2797, 
  "hate": 2798, 
  "tough": 2799, 
  "gation": 2800, 
  "angle": 2801, 
  "dia": 2802, 
  "hidden": 2803, 
  "tens": 2804, 
  "brilliant": 2805, 
  "report": 2806, 
  "ket": 2807, 
  "fill": 2808, 
  "station": 2809, 
  "tile": 2810, 
  "Bill": 2811, 
  "ous@@": 2812, 
  "compos@@": 2813, 
  "dreams": 2814, 
  "poli@@": 2815, 
  "iz@@": 2816, 
  "moon": 2817, 
  "pra@@": 2818, 
  "ym@@": 2819, 
  "More": 2820, 
  "principles": 2821, 
  "belief": 2822, 
  "eth@@": 2823, 
  "X@@": 2824, 
  "arms": 2825, 
  "studied": 2826, 
  "toward": 2827, 
  "lim@@": 2828, 
  "solved": 2829, 
  "nor@@": 2830, 
  "not@@": 2831, 
  "commercial": 2832, 
  "equal": 2833, 
  "unfortunately": 2834, 
  "deliver": 2835, 
  "meat": 2836, 
  "generate": 2837, 
  "kn@@": 2838, 
  "mothers": 2839, 
  "high@@": 2840, 
  "article": 2841, 
  "paint": 2842, 
  "argue": 2843, 
  "aries": 2844, 
  "fold": 2845, 
  "spirit": 2846, 
  "link": 2847, 
  "designing": 2848, 
  "rooms": 2849, 
  "count": 2850, 
  "U.K.": 2851, 
  "gall@@": 2852, 
  "driven": 2853, 
  "Go": 2854, 
  "However": 2855, 
  "CO2": 2856, 
  "th-@@": 2857, 
  "soil": 2858, 
  "pounds": 2859, 
  "ordinary": 2860, 
  "Big": 2861, 
  "evil": 2862, 
  "my@@": 2863, 
  "Mexico": 2864, 
  "MIT": 2865, 
  "Twitter": 2866, 
  "bus": 2867, 
  "eries": 2868, 
  "Ju@@": 2869, 
  "professional": 2870, 
  "names": 2871, 
  "pages": 2872, 
  "viol@@": 2873, 
  "constantly": 2874, 
  "ges": 2875, 
  "affect": 2876, 
  "childhood": 2877, 
  "lu@@": 2878, 
  "2,000": 2879, 
  "ie": 2880, 
  "signal": 2881, 
  "enc@@": 2882, 
  "ple@@": 2883, 
  "disaster": 2884, 
  "email": 2885, 
  "shor@@": 2886, 
  "strategy": 2887, 
  "wear": 2888, 
  "opening": 2889, 
  "que": 2890, 
  "advantage": 2891, 
  "sister": 2892, 
  "sch@@": 2893, 
  "exploration": 2894, 
  "mentioned": 2895, 
  "keeping": 2896, 
  "fir@@": 2897, 
  "tici@@": 2898, 
  "rela@@": 2899, 
  "bio@@": 2900, 
  "infor@@": 2901, 
  "gar@@": 2902, 
  "dinner": 2903, 
  "construction": 2904, 
  "dness": 2905, 
  "interaction": 2906, 
  "husband": 2907, 
  "ton@@": 2908, 
  "managed": 2909, 
  "liber@@": 2910, 
  "brother": 2911, 
  "protein": 2912, 
  "engineers": 2913, 
  "breast": 2914, 
  "bar": 2915, 
  "covered": 2916, 
  "ov@@": 2917, 
  "fields": 2918, 
  "weird": 2919, 
  "prop@@": 2920, 
  "lit@@": 2921, 
  "distribution": 2922, 
  "Sha@@": 2923, 
  "circle": 2924, 
  "failed": 2925, 
  "pay@@": 2926, 
  "ka": 2927, 
  "letter": 2928, 
  "bon@@": 2929, 
  "bank": 2930, 
  "shes": 2931, 
  "labor": 2932, 
  "plane": 2933, 
  "collective": 2934, 
  "graduate": 2935, 
  "desire": 2936, 
  "operate": 2937, 
  "wearing": 2938, 
  "invest": 2939, 
  "represent": 2940, 
  "lock": 2941, 
  "languages": 2942, 
  "mouth": 2943, 
  "Q@@": 2944, 
  "increasingly": 2945, 
  "Hi@@": 2946, 
  "to-@@": 2947, 
  "define": 2948, 
  "molecule": 2949, 
  "airplane": 2950, 
  "survival": 2951, 
  "wave": 2952, 
  "ath@@": 2953, 
  "Tur@@": 2954, 
  "ce@@": 2955, 
  "whom": 2956, 
  "ti": 2957, 
  "atory": 2958, 
  "chemistry": 2959, 
  "nam@@": 2960, 
  "magazine": 2961, 
  "jump": 2962, 
  "prevent": 2963, 
  "fying": 2964, 
  "intelligent": 2965, 
  "sexual": 2966, 
  "proud": 2967, 
  "houses": 2968, 
  "ol": 2969, 
  "compu@@": 2970, 
  "wide": 2971, 
  "George": 2972, 
  "exists": 2973, 
  "multiple": 2974, 
  "views": 2975, 
  "joy": 2976, 
  "dou@@": 2977, 
  "tioning": 2978, 
  "lar@@": 2979, 
  "normally": 2980, 
  "Over": 2981, 
  "Times": 2982, 
  "closed": 2983, 
  "dic@@": 2984, 
  "stim@@": 2985, 
  "equivalent": 2986, 
  "Israel": 2987, 
  "drawing": 2988, 
  "harder": 2989, 
  "mid@@": 2990, 
  "married": 2991, 
  "rational": 2992, 
  "principle": 2993, 
  "far@@": 2994, 
  "viruses": 2995, 
  "ond": 2996, 
  "testing": 2997, 
  "ins@@": 2998, 
  "ani@@": 2999, 
  "Au@@": 3000, 
  "Qu@@": 3001, 
  "sup@@": 3002, 
  "paying": 3003, 
  "mortality": 3004, 
  "fun@@": 3005, 
  "interface": 3006, 
  "Three": 3007, 
  "rural": 3008, 
  "homes": 3009, 
  "bet": 3010, 
  "Each": 3011, 
  "mig@@": 3012, 
  "thr@@": 3013, 
  "businesses": 3014, 
  "otherwise": 3015, 
  "Michael": 3016, 
  "signals": 3017, 
  "campaign": 3018, 
  "Everything": 3019, 
  "acc@@": 3020, 
  "oned": 3021, 
  "classroom": 3022, 
  "shop": 3023, 
  "justice": 3024, 
  "appear": 3025, 
  "Sp@@": 3026, 
  "3D": 3027, 
  "seriously": 3028, 
  "finger": 3029, 
  "low-@@": 3030, 
  "universal": 3031, 
  "university": 3032, 
  "iness": 3033, 
  "vo@@": 3034, 
  "milli@@": 3035, 
  "sad": 3036, 
  "clinical": 3037, 
  "direct": 3038, 
  "hopefully": 3039, 
  "hell": 3040, 
  "avoid": 3041, 
  "0-@@": 3042, 
  "spon@@": 3043, 
  "Charles": 3044, 
  "thin@@": 3045, 
  "shoes": 3046, 
  "mel@@": 3047, 
  "contr@@": 3048, 
  "details": 3049, 
  "movies": 3050, 
  "debate": 3051, 
  "shapes": 3052, 
  "losing": 3053, 
  "analy@@": 3054, 
  "currently": 3055, 
  "threat": 3056, 
  "detail": 3057, 
  "exp@@": 3058, 
  "aged": 3059, 
  "worried": 3060, 
  "organized": 3061, 
  "galaxies": 3062, 
  "plus": 3063, 
  "vehicle": 3064, 
  "fic@@": 3065, 
  "property": 3066, 
  "controlled": 3067, 
  "tual": 3068, 
  "Or@@": 3069, 
  "35": 3070, 
  "generations": 3071, 
  "ff": 3072, 
  "caused": 3073, 
  "grown": 3074, 
  "lon@@": 3075, 
  "Einstein": 3076, 
  "rain": 3077, 
  "suggests": 3078, 
  "frame": 3079, 
  "ili@@": 3080, 
  "negoti@@": 3081, 
  "ought": 3082, 
  "J": 3083, 
  "producing": 3084, 
  "bit@@": 3085, 
  "din@@": 3086, 
  "motion": 3087, 
  "random": 3088, 
  "berg": 3089, 
  "det@@": 3090, 
  "mes": 3091, 
  "Would": 3092, 
  "sex@@": 3093, 
  "tim@@": 3094, 
  "feedback": 3095, 
  "hy@@": 3096, 
  "chain": 3097, 
  "seat": 3098, 
  "ambi@@": 3099, 
  "sm": 3100, 
  "hasn": 3101, 
  "Come": 3102, 
  "tations": 3103, 
  "voices": 3104, 
  "ock": 3105, 
  "metaphor": 3106, 
  "anger": 3107, 
  "invited": 3108, 
  "pros@@": 3109, 
  "match": 3110, 
  "described": 3111, 
  "Audience": 3112, 
  "dimensions": 3113, 
  "player": 3114, 
  "del@@": 3115, 
  "li": 3116, 
  "highest": 3117, 
  "deli@@": 3118, 
  "refl@@": 3119, 
  "galaxy": 3120, 
  "soldiers": 3121, 
  "r": 3122, 
  "leg": 3123, 
  "conver@@": 3124, 
  "trac@@": 3125, 
  "res@@": 3126, 
  "mile": 3127, 
  "lif@@": 3128, 
  "fail": 3129, 
  "Bo@@": 3130, 
  "illness": 3131, 
  "electrical": 3132, 
  "essential": 3133, 
  "gate": 3134, 
  "spec@@": 3135, 
  "scene": 3136, 
  "wake": 3137, 
  "compare": 3138, 
  "Go@@": 3139, 
  "ulated": 3140, 
  "Mal@@": 3141, 
  "13@@": 3142, 
  "transportation": 3143, 
  "Hu@@": 3144, 
  "contact": 3145, 
  "oted": 3146, 
  "leader": 3147, 
  "account": 3148, 
  "roc@@": 3149, 
  "continent": 3150, 
  "196@@": 3151, 
  "experts": 3152, 
  "researchers": 3153, 
  "switch": 3154, 
  "nervous": 3155, 
  "expression": 3156, 
  "rates": 3157, 
  "Sun": 3158, 
  "197@@": 3159, 
  "consequences": 3160, 
  "smell": 3161, 
  "Ni@@": 3162, 
  "spot": 3163, 
  "nu@@": 3164, 
  "chan@@": 3165, 
  "ger@@": 3166, 
  "inner": 3167, 
  "surprised": 3168, 
  "unless": 3169, 
  "gain": 3170, 
  "emotion": 3171, 
  "develop@@": 3172, 
  "launched": 3173, 
  "killing": 3174, 
  "fell": 3175, 
  "vol@@": 3176, 
  "fourth": 3177, 
  "connections": 3178, 
  "awful": 3179, 
  "ney": 3180, 
  "lab@@": 3181, 
  "qui@@": 3182, 
  "20th": 3183, 
  "honest": 3184, 
  "trials": 3185, 
  "section": 3186, 
  "holes": 3187, 
  "lessons": 3188, 
  "ric@@": 3189, 
  "Inter@@": 3190, 
  "cultures": 3191, 
  "pol@@": 3192, 
  "Mil@@": 3193, 
  "sentence": 3194, 
  "philosophy": 3195, 
  "dealing": 3196, 
  "1,@@": 3197, 
  "an-@@": 3198, 
  "desert": 3199, 
  "grandmother": 3200, 
  "demand": 3201, 
  "remote": 3202, 
  "de-@@": 3203, 
  "river": 3204, 
  "eless": 3205, 
  "selling": 3206, 
  "nations": 3207, 
  "setting": 3208, 
  "artificial": 3209, 
  "electr@@": 3210, 
  "ration": 3211, 
  "stun@@": 3212, 
  "add@@": 3213, 
  "dynamic": 3214, 
  "itation": 3215, 
  "bear": 3216, 
  "tomorrow": 3217, 
  "independent": 3218, 
  "Ri@@": 3219, 
  "heavy": 3220, 
  "emerging": 3221, 
  "characters": 3222, 
  "equipment": 3223, 
  "100,000": 3224, 
  "letters": 3225, 
  "storytelling": 3226, 
  "Canada": 3227, 
  "sources": 3228, 
  "dig@@": 3229, 
  "experienced": 3230, 
  "acks": 3231, 
  "kilometers": 3232, 
  "Tr@@": 3233, 
  "amp@@": 3234, 
  "players": 3235, 
  "leaves": 3236, 
  "folks": 3237, 
  "accident": 3238, 
  "muscle": 3239, 
  "profit": 3240, 
  "Japanese": 3241, 
  "stat@@": 3242, 
  "chemicals": 3243, 
  "Pr@@": 3244, 
  "ail@@": 3245, 
  "analysis": 3246, 
  "users": 3247, 
  "fore@@": 3248, 
  "Britain": 3249, 
  "imag@@": 3250, 
  "weather": 3251, 
  "thri@@": 3252, 
  "budget": 3253, 
  "Wi@@": 3254, 
  "kets": 3255, 
  "ables": 3256, 
  "farm": 3257, 
  "accoun@@": 3258, 
  "associated": 3259, 
  "formed": 3260, 
  "ave": 3261, 
  "pre-@@": 3262, 
  "waves": 3263, 
  "ecting": 3264, 
  "coal": 3265, 
  "spar@@": 3266, 
  "served": 3267, 
  "Jo@@": 3268, 
  "saved": 3269, 
  "99": 3270, 
  "collect": 3271, 
  "bright": 3272, 
  "relevant": 3273, 
  "ster@@": 3274, 
  "double": 3275, 
  "eled": 3276, 
  "ries": 3277, 
  "Australia": 3278, 
  "repe@@": 3279, 
  "pe": 3280, 
  "pressed": 3281, 
  "cas@@": 3282, 
  "aled": 3283, 
  "main@@": 3284, 
  "feelings": 3285, 
  "struggle": 3286, 
  "dry": 3287, 
  "importance": 3288, 
  "aming": 3289, 
  "eds": 3290, 
  "poetry": 3291, 
  "technical": 3292, 
  "rely": 3293, 
  "No@@": 3294, 
  "cloud": 3295, 
  "violent": 3296, 
  "trip": 3297, 
  "Women": 3298, 
  "iling": 3299, 
  "regular": 3300, 
  "Does": 3301, 
  "sho@@": 3302, 
  "Arab": 3303, 
  "dian": 3304, 
  "metal": 3305, 
  "island": 3306, 
  "chair": 3307, 
  "Je@@": 3308, 
  "comb@@": 3309, 
  "sett@@": 3310, 
  "tter": 3311, 
  "existence": 3312, 
  "istic": 3313, 
  "president": 3314, 
  "ours": 3315, 
  "facing": 3316, 
  "warm": 3317, 
  "lob@@": 3318, 
  "finish": 3319, 
  "roughly": 3320, 
  "st-@@": 3321, 
  "tex@@": 3322, 
  "hos@@": 3323, 
  "daily": 3324, 
  "ood@@": 3325, 
  "productive": 3326, 
  "status": 3327, 
  "dots": 3328, 
  "conf@@": 3329, 
  "ama": 3330, 
  "molecular": 3331, 
  "ues": 3332, 
  "Could": 3333, 
  "thoughts": 3334, 
  "wise": 3335, 
  "Por@@": 3336, 
  "resource": 3337, 
  "considered": 3338, 
  "worldwide": 3339, 
  "Street": 3340, 
  "variety": 3341, 
  "20@@": 3342, 
  "techniques": 3343, 
  "prove": 3344, 
  "aci@@": 3345, 
  "vote": 3346, 
  "nose": 3347, 
  "maps": 3348, 
  "till": 3349, 
  "maker": 3350, 
  "mark": 3351, 
  "ax@@": 3352, 
  "asks": 3353, 
  "School": 3354, 
  "method": 3355, 
  "empty": 3356, 
  "practical": 3357, 
  "picked": 3358, 
  "hadn": 3359, 
  "tal": 3360, 
  "enjo@@": 3361, 
  "management": 3362, 
  "yesterday": 3363, 
  "platform": 3364, 
  "valuable": 3365, 
  "nan@@": 3366, 
  "processes": 3367, 
  "driver": 3368, 
  "mani@@": 3369, 
  "intellectual": 3370, 
  "-to-@@": 3371, 
  "Institute": 3372, 
  "di": 3373, 
  "eding": 3374, 
  "anti-@@": 3375, 
  "collabor@@": 3376, 
  "target": 3377, 
  "ene@@": 3378, 
  "Their": 3379, 
  "NASA": 3380, 
  "location": 3381, 
  "Ph@@": 3382, 
  "Center": 3383, 
  "gift": 3384, 
  "oes": 3385, 
  "Mu@@": 3386, 
  "epidemic": 3387, 
  "Please": 3388, 
  "stry": 3389, 
  "adult": 3390, 
  "cho@@": 3391, 
  "cards": 3392, 
  "possibilities": 3393, 
  "mathematical": 3394, 
  "Sch@@": 3395, 
  "drink": 3396, 
  "assi@@": 3397, 
  "specifically": 3398, 
  "programm@@": 3399, 
  "spectrum": 3400, 
  "teeth": 3401, 
  "150": 3402, 
  "manage": 3403, 
  "eng@@": 3404, 
  "pleasure": 3405, 
  "sides": 3406, 
  "liked": 3407, 
  "carefully": 3408, 
  "spe@@": 3409, 
  "advanced": 3410, 
  "identify": 3411, 
  "scri@@": 3412, 
  "fat": 3413, 
  "199@@": 3414, 
  "reaction": 3415, 
  "mate": 3416, 
  "defined": 3417, 
  "eu@@": 3418, 
  "ook": 3419, 
  "play@@": 3420, 
  "lunch": 3421, 
  "docum@@": 3422, 
  "tons": 3423, 
  "N": 3424, 
  "tumor": 3425, 
  "load": 3426, 
  "convinced": 3427, 
  "forced": 3428, 
  "comfortable": 3429, 
  "England": 3430, 
  "evolutionary": 3431, 
  "sensitive": 3432, 
  "grand@@": 3433, 
  "As@@": 3434, 
  "underneath": 3435, 
  "arrived": 3436, 
  "James": 3437, 
  "wards": 3438, 
  "ty@@": 3439, 
  "perception": 3440, 
  "lin@@": 3441, 
  "person@@": 3442, 
  "tries": 3443, 
  "-": 3444, 
  "Steve": 3445, 
  "voc@@": 3446, 
  "introduced": 3447, 
  "trick": 3448, 
  "ab": 3449, 
  "45": 3450, 
  "Sa@@": 3451, 
  "radical": 3452, 
  "eral": 3453, 
  "mix": 3454, 
  "master": 3455, 
  "deeper": 3456, 
  "healthcare": 3457, 
  "ships": 3458, 
  "spoke": 3459, 
  "via": 3460, 
  "Harvard": 3461, 
  "ive": 3462, 
  "celebr@@": 3463, 
  "sustainability": 3464, 
  "stable": 3465, 
  "dinosaurs": 3466, 
  "avi@@": 3467, 
  "marketing": 3468, 
  "sight": 3469, 
  "sively": 3470, 
  "restaurant": 3471, 
  "Nigeria": 3472, 
  "suggest": 3473, 
  "fewer": 3474, 
  "stood": 3475, 
  "satis@@": 3476, 
  "sim@@": 3477, 
  "ams": 3478, 
  "breath": 3479, 
  "spring": 3480, 
  "addition": 3481, 
  "expected": 3482, 
  "connec@@": 3483, 
  "ank": 3484, 
  "organs": 3485, 
  "Stu@@": 3486, 
  "absolute": 3487, 
  "ene": 3488, 
  "phot@@": 3489, 
  "essed": 3490, 
  "requires": 3491, 
  "plays": 3492, 
  "mention": 3493, 
  "writer": 3494, 
  "igh@@": 3495, 
  "eling": 3496, 
  "affected": 3497, 
  "express": 3498, 
  "user": 3499, 
  "Bab@@": 3500, 
  "bel@@": 3501, 
  "promise": 3502, 
  "ac": 3503, 
  "Lu@@": 3504, 
  "unusual": 3505, 
  "sets": 3506, 
  "according": 3507, 
  "battery": 3508, 
  "pet": 3509, 
  "photographs": 3510, 
  "Brazil": 3511, 
  "hur@@": 3512, 
  "198@@": 3513, 
  "Pro@@": 3514, 
  "transformation": 3515, 
  "ah@@": 3516, 
  "ak@@": 3517, 
  "hyper@@": 3518, 
  "2008": 3519, 
  "efficiency": 3520, 
  "bottle": 3521, 
  "partner": 3522, 
  "effectively": 3523, 
  "fication": 3524, 
  "bia": 3525, 
  "Am@@": 3526, 
  "ests": 3527, 
  "cure": 3528, 
  "factor": 3529, 
  "lying": 3530, 
  "credit": 3531, 
  "vulnerable": 3532, 
  "definitely": 3533, 
  "appe@@": 3534, 
  "south": 3535, 
  "buying": 3536, 
  "roads": 3537, 
  "cross": 3538, 
  "photography": 3539, 
  "medium": 3540, 
  "al-@@": 3541, 
  "protected": 3542, 
  "ade": 3543, 
  "broke": 3544, 
  "require": 3545, 
  "exercise": 3546, 
  "sending": 3547, 
  "curious": 3548, 
  "professor": 3549, 
  "steel": 3550, 
  "sugar": 3551, 
  "lifetime": 3552, 
  "divi@@": 3553, 
  "relatively": 3554, 
  "ank@@": 3555, 
  "coral": 3556, 
  "biom@@": 3557, 
  "increasing": 3558, 
  "theme": 3559, 
  "appropriate": 3560, 
  "components": 3561, 
  "accept": 3562, 
  "display": 3563, 
  "radiation": 3564, 
  "mented": 3565, 
  "Te@@": 3566, 
  "computing": 3567, 
  "Thomas": 3568, 
  "runs": 3569, 
  "new@@": 3570, 
  "democratic": 3571, 
  "click": 3572, 
  "represents": 3573, 
  "convince": 3574, 
  "long-term": 3575, 
  "vaccine": 3576, 
  "strength": 3577, 
  "makers": 3578, 
  "post-@@": 3579, 
  "compar@@": 3580, 
  "dar@@": 3581, 
  "plate": 3582, 
  "calling": 3583, 
  "ride": 3584, 
  "reward": 3585, 
  "wat@@": 3586, 
  "cameras": 3587, 
  "thers": 3588, 
  "safety": 3589, 
  "Pa@@": 3590, 
  "ind@@": 3591, 
  "gap": 3592, 
  "goods": 3593, 
  "fellow": 3594, 
  "spac@@": 3595, 
  "emissions": 3596, 
  "awareness": 3597, 
  "fresh": 3598, 
  "stupid": 3599, 
  "dent": 3600, 
  "75": 3601, 
  "ere": 3602, 
  "ital": 3603, 
  "centers": 3604, 
  "col@@": 3605, 
  "otic": 3606, 
  "kin@@": 3607, 
  "President": 3608, 
  "passionate": 3609, 
  "lat@@": 3610, 
  "release": 3611, 
  "stand@@": 3612, 
  "mom@@": 3613, 
  "sle@@": 3614, 
  "3,000": 3615, 
  "north": 3616, 
  "Francisco": 3617, 
  "50,000": 3618, 
  "ecosystem": 3619, 
  "replace": 3620, 
  "received": 3621, 
  "Anyway": 3622, 
  "H": 3623, 
  "atr@@": 3624, 
  "ful@@": 3625, 
  "tradition": 3626, 
  "introduce": 3627, 
  "watched": 3628, 
  "solving": 3629, 
  "invent": 3630, 
  "Fre@@": 3631, 
  "wire": 3632, 
  "added": 3633, 
  "Dan": 3634, 
  "the-@@": 3635, 
  "Last": 3636, 
  "ost": 3637, 
  "ape": 3638, 
  "El@@": 3639, 
  "presentation": 3640, 
  "omes": 3641, 
  "bubble": 3642, 
  "fol@@": 3643, 
  "na": 3644, 
  "hydrogen": 3645, 
  "blocks": 3646, 
  "Mi@@": 3647, 
  "marriage": 3648, 
  "ession": 3649, 
  "diagnos@@": 3650, 
  "coast": 3651, 
  "Kenya": 3652, 
  "exchange": 3653, 
  "crash": 3654, 
  "van": 3655, 
  "roll@@": 3656, 
  "hero": 3657, 
  "carrying": 3658, 
  "alists": 3659, 
  "Gr@@": 3660, 
  "atic": 3661, 
  "omy": 3662, 
  "flat": 3663, 
  "sees": 3664, 
  "battle": 3665, 
  "sharks": 3666, 
  "diet": 3667, 
  "atoms": 3668, 
  "rare": 3669, 
  "mal": 3670, 
  "ption": 3671, 
  "explains": 3672, 
  "ight": 3673, 
  "lady": 3674, 
  "victims": 3675, 
  "applied": 3676, 
  "previous": 3677, 
  "liter@@": 3678, 
  "videos": 3679, 
  "acqui@@": 3680, 
  "tem@@": 3681, 
  "apping": 3682, 
  "Germany": 3683, 
  "bro@@": 3684, 
  "resi@@": 3685, 
  "rapidly": 3686, 
  "2000": 3687, 
  "Al": 3688, 
  "discussion": 3689, 
  "tow@@": 3690, 
  "ition": 3691, 
  "mistakes": 3692, 
  "ki@@": 3693, 
  "zone": 3694, 
  "whenever": 3695, 
  "ograph@@": 3696, 
  "sophisticated": 3697, 
  "dish": 3698, 
  "Wow": 3699, 
  "organ": 3700, 
  "newspaper": 3701, 
  "wea@@": 3702, 
  "fossil": 3703, 
  "anced": 3704, 
  "lish": 3705, 
  "prof@@": 3706, 
  "grid": 3707, 
  "musical": 3708, 
  "Robert": 3709, 
  "clos@@": 3710, 
  "generally": 3711, 
  "situations": 3712, 
  "adap@@": 3713, 
  "serv@@": 3714, 
  "breaking": 3715, 
  "que@@": 3716, 
  "piano": 3717, 
  "ghts": 3718, 
  "cutting": 3719, 
  "mirror": 3720, 
  "instrument": 3721, 
  "prepared": 3722, 
  "alism": 3723, 
  "primary": 3724, 
  "motor": 3725, 
  "environments": 3726, 
  "movements": 3727, 
  "free@@": 3728, 
  "memor@@": 3729, 
  "tie": 3730, 
  "trillion": 3731, 
  "alist": 3732, 
  "properties": 3733, 
  "visible": 3734, 
  "2010": 3735, 
  "ray": 3736, 
  "le-@@": 3737, 
  "ental": 3738, 
  "mur@@": 3739, 
  "hospitals": 3740, 
  "capture": 3741, 
  "run@@": 3742, 
  "pot@@": 3743, 
  "tered": 3744, 
  "shing": 3745, 
  "tured": 3746, 
  "Bra@@": 3747, 
  "Vir@@": 3748, 
  "architect": 3749, 
  "lin": 3750, 
  "195@@": 3751, 
  "U.N.": 3752, 
  "kil@@": 3753, 
  "behaviors": 3754, 
  "senses": 3755, 
  "election": 3756, 
  "gradu@@": 3757, 
  "Wikipedia": 3758, 
  "YouTube": 3759, 
  "wondering": 3760, 
  "cortex": 3761, 
  "innovative": 3762, 
  "los@@": 3763, 
  "shoot": 3764, 
  "alities": 3765, 
  "Mat@@": 3766, 
  "nic@@": 3767, 
  "literature": 3768, 
  "Pacific": 3769, 
  "tech": 3770, 
  "she@@": 3771, 
  "hurt": 3772, 
  "land@@": 3773, 
  "owed": 3774, 
  "Sim@@": 3775, 
  "gravity": 3776, 
  "tests": 3777, 
  "funding": 3778, 
  "signed": 3779, 
  "estimate": 3780, 
  "gay": 3781, 
  "elt": 3782, 
  "liquid": 3783, 
  "infected": 3784, 
  "dered": 3785, 
  "goals": 3786, 
  "ises": 3787, 
  "former": 3788, 
  "conduc@@": 3789, 
  "hear@@": 3790, 
  "perform": 3791, 
  "arity": 3792, 
  "mistake": 3793, 
  "Islam": 3794, 
  "inst@@": 3795, 
  "visu@@": 3796, 
  "algorithms": 3797, 
  "library": 3798, 
  "personally": 3799, 
  "ective": 3800, 
  "string": 3801, 
  "inher@@": 3802, 
  "prev@@": 3803, 
  "discus@@": 3804, 
  "ama@@": 3805, 
  "bin@@": 3806, 
  "gold": 3807, 
  "suit": 3808, 
  "are@@": 3809, 
  "raising": 3810, 
  "ock@@": 3811, 
  "ef@@": 3812, 
  "Yet": 3813, 
  "shall": 3814, 
  "Gol@@": 3815, 
  "consum@@": 3816, 
  "mess@@": 3817, 
  "style": 3818, 
  "aps": 3819, 
  "mas@@": 3820, 
  "600": 3821, 
  "osp@@": 3822, 
  "abilities": 3823, 
  "mm@@": 3824, 
  "ump": 3825, 
  "ght@@": 3826, 
  "satellite": 3827, 
  "designs": 3828, 
  "hal@@": 3829, 
  "dev@@": 3830, 
  "Du@@": 3831, 
  "hits": 3832, 
  "flowers": 3833, 
  "open-source": 3834, 
  "risks": 3835, 
  "technological": 3836, 
  "wine": 3837, 
  "jud@@": 3838, 
  "GDP": 3839, 
  "depends": 3840, 
  "mountains": 3841, 
  "liver": 3842, 
  "Ser@@": 3843, 
  "hi": 3844, 
  "21": 3845, 
  "groun@@": 3846, 
  "motiv@@": 3847, 
  "dogs": 3848, 
  "Darwin": 3849, 
  "struc@@": 3850, 
  "gender": 3851, 
  "brea@@": 3852, 
  "suppose": 3853, 
  "ted@@": 3854, 
  "member": 3855, 
  "surg@@": 3856, 
  "actors": 3857, 
  "employees": 3858, 
  "honor": 3859, 
  "vehicles": 3860, 
  "shaped": 3861, 
  "naturally": 3862, 
  "roof": 3863, 
  "hoping": 3864, 
  "accurate": 3865, 
  "To@@": 3866, 
  "tested": 3867, 
  "perc@@": 3868, 
  "organism": 3869, 
  "protection": 3870, 
  "unit": 3871, 
  "sing@@": 3872, 
  "ority": 3873, 
  "pollution": 3874, 
  "deci@@": 3875, 
  "ki": 3876, 
  "chip": 3877, 
  "chi@@": 3878, 
  "conc@@": 3879, 
  "amounts": 3880, 
  "rever@@": 3881, 
  "novel": 3882, 
  "eption": 3883, 
  "include": 3884, 
  "ual": 3885, 
  "signs": 3886, 
  "silk": 3887, 
  "ancy": 3888, 
  "hon@@": 3889, 
  "mini@@": 3890, 
  "Scot@@": 3891, 
  "21st": 3892, 
  "fish@@": 3893, 
  "confidence": 3894, 
  "gers": 3895, 
  "singing": 3896, 
  "mates": 3897, 
  "presence": 3898, 
  "typically": 3899, 
  "claim": 3900, 
  "pulled": 3901, 
  "sn@@": 3902, 
  "increased": 3903, 
  "axis": 3904, 
  "percentage": 3905, 
  "occurred": 3906, 
  "oring": 3907, 
  "Science": 3908, 
  "suc@@": 3909, 
  "laptop": 3910, 
  "gg@@": 3911, 
  "eas@@": 3912, 
  "circumstances": 3913, 
  "Wor@@": 3914, 
  "interests": 3915, 
  "performing": 3916, 
  "chest": 3917, 
  "cing": 3918, 
  "eria": 3919, 
  "institution": 3920, 
  "inc@@": 3921, 
  "finance": 3922, 
  "opinion": 3923, 
  "ored": 3924, 
  "destruction": 3925, 
  "ultimate": 3926, 
  "aring": 3927, 
  "swim": 3928, 
  "encourage": 3929, 
  "fishing": 3930, 
  "sty": 3931, 
  "rop@@": 3932, 
  "combination": 3933, 
  "explanation": 3934, 
  "released": 3935, 
  "py": 3936, 
  "doubt": 3937, 
  "hol@@": 3938, 
  "tious": 3939, 
  "absor@@": 3940, 
  "ref@@": 3941, 
  "boring": 3942, 
  "burning": 3943, 
  "politicians": 3944, 
  "alter@@": 3945, 
  "bo": 3946, 
  "foundation": 3947, 
  "collapse": 3948, 
  "keeps": 3949, 
  "traveling": 3950, 
  "neighbors": 3951, 
  "kitchen": 3952, 
  "contain@@": 3953, 
  "Valley": 3954, 
  "aspect": 3955, 
  "Char@@": 3956, 
  "mos@@": 3957, 
  "processing": 3958, 
  "thanks": 3959, 
  "overwhel@@": 3960, 
  "exam@@": 3961, 
  "peak": 3962, 
  "II": 3963, 
  "tape": 3964, 
  "powered": 3965, 
  "mechanism": 3966, 
  "cooking": 3967, 
  "ops": 3968, 
  "winter": 3969, 
  "factors": 3970, 
  "ek": 3971, 
  "eness": 3972, 
  "horse": 3973, 
  "tracking": 3974, 
  "Prize": 3975, 
  "skill": 3976, 
  "alization": 3977, 
  "wal@@": 3978, 
  "transition": 3979, 
  "five-@@": 3980, 
  "however": 3981, 
  "zy": 3982, 
  "nal": 3983, 
  "narrative": 3984, 
  "smile": 3985, 
  "correct": 3986, 
  "son@@": 3987, 
  "activities": 3988, 
  "relative": 3989, 
  "roots": 3990, 
  "port": 3991, 
  "quest": 3992, 
  "dre@@": 3993, 
  "ographic": 3994, 
  "ood": 3995, 
  "east": 3996, 
  "regi@@": 3997, 
  "transport": 3998, 
  "acted": 3999, 
  "drives": 4000, 
  "frequ@@": 4001, 
  "fund": 4002, 
  "yed": 4003, 
  "fundamentally": 4004, 
  "afternoon": 4005, 
  "notes": 4006, 
  "Five": 4007, 
  "Since": 4008, 
  "garden": 4009, 
  "adop@@": 4010, 
  "studio": 4011, 
  "2007": 4012, 
  "placed": 4013, 
  "figures": 4014, 
  "and-@@": 4015, 
  "functions": 4016, 
  "invol@@": 4017, 
  "reas@@": 4018, 
  "memories": 4019, 
  "iest": 4020, 
  "rup@@": 4021, 
  "lear@@": 4022, 
  "ken": 4023, 
  "Bank": 4024, 
  "gentlemen": 4025, 
  "ounds": 4026, 
  "deaths": 4027, 
  "Repub@@": 4028, 
  "quanti@@": 4029, 
  "dropped": 4030, 
  "joke": 4031, 
  "bag": 4032, 
  "topic": 4033, 
  "Fin@@": 4034, 
  "amed": 4035, 
  "nec@@": 4036, 
  "bers": 4037, 
  "ai": 4038, 
  "ures": 4039, 
  "GPS": 4040, 
  "odd": 4041, 
  "attempt": 4042, 
  "falling": 4043, 
  "worlds": 4044, 
  "band": 4045, 
  "Also": 4046, 
  "ancestors": 4047, 
  "wars": 4048, 
  "insight": 4049, 
  "coordin@@": 4050, 
  "gun": 4051, 
  "ment@@": 4052, 
  "mad": 4053, 
  "quiet": 4054, 
  "bomb": 4055, 
  "participate": 4056, 
  "predat@@": 4057, 
  "predic@@": 4058, 
  "creature": 4059, 
  "chicken": 4060, 
  "three-dimensional": 4061, 
  "proteins": 4062, 
  "Her@@": 4063, 
  "empathy": 4064, 
  "proof": 4065, 
  "sports": 4066, 
  "holds": 4067, 
  "remain": 4068, 
  "relate": 4069, 
  "Day": 4070, 
  "existing": 4071, 
  "grain": 4072, 
  "V": 4073, 
  "imple@@": 4074, 
  "bert": 4075, 
  "clip": 4076, 
  "reached": 4077, 
  "King": 4078, 
  "outcome": 4079, 
  "Rob@@": 4080, 
  "Jer@@": 4081, 
  "fake": 4082, 
  "Man": 4083, 
  "Boston": 4084, 
  "explained": 4085, 
  "economists": 4086, 
  "cow": 4087, 
  "fingers": 4088, 
  "meaningful": 4089, 
  "manufacturing": 4090, 
  "secure": 4091, 
  "director": 4092, 
  "progres@@": 4093, 
  "sunlight": 4094, 
  "eggs": 4095, 
  "closely": 4096, 
  "ades": 4097, 
  "walks": 4098, 
  "engaged": 4099, 
  "gue": 4100, 
  "deser@@": 4101, 
  "recorded": 4102, 
  "chec@@": 4103, 
  "ino": 4104, 
  "trop@@": 4105, 
  "burn": 4106, 
  "collection": 4107, 
  "ati@@": 4108, 
  "pollen": 4109, 
  "entrepreneurs": 4110, 
  "Project": 4111, 
  "required": 4112, 
  "fuels": 4113, 
  "replic@@": 4114, 
  "num@@": 4115, 
  "milk": 4116, 
  "kid@@": 4117, 
  "ples": 4118, 
  "consumer": 4119, 
  "coo@@": 4120, 
  "implications": 4121, 
  "September": 4122, 
  "somewhat": 4123, 
  "While": 4124, 
  "ini@@": 4125, 
  "Her": 4126, 
  "framework": 4127, 
  "technique": 4128, 
  "reverse": 4129, 
  "educational": 4130, 
  "subjects": 4131, 
  "law@@": 4132, 
  "hel@@": 4133, 
  "exact": 4134, 
  "instruments": 4135, 
  "nur@@": 4136, 
  "films": 4137, 
  "Gal@@": 4138, 
  "boxes": 4139, 
  "dramatic": 4140, 
  "ica": 4141, 
  "sample": 4142, 
  "ang": 4143, 
  "eff@@": 4144, 
  "Perhaps": 4145, 
  "continued": 4146, 
  "xing": 4147, 
  "whi@@": 4148, 
  "quantum": 4149, 
  "ign": 4150, 
  "patent": 4151, 
  "behavioral": 4152, 
  "thin": 4153, 
  "rocket": 4154, 
  "terrorism": 4155, 
  "dependence": 4156, 
  "day@@": 4157, 
  "custom@@": 4158, 
  "pas@@": 4159, 
  "Pi@@": 4160, 
  "conclusion": 4161, 
  "val": 4162, 
  "ris@@": 4163, 
  "mamm@@": 4164, 
  "features": 4165, 
  "umin@@": 4166, 
  "Pre@@": 4167, 
  "experim@@": 4168, 
  "stations": 4169, 
  "respec@@": 4170, 
  "ared": 4171, 
  "sphere": 4172, 
  "operation": 4173, 
  "F": 4174, 
  "bike": 4175, 
  "microbes": 4176, 
  "camp": 4177, 
  "now@@": 4178, 
  "constant": 4179, 
  "marine": 4180, 
  "pub@@": 4181, 
  "Des@@": 4182, 
  "church": 4183, 
  "bee": 4184, 
  "soul": 4185, 
  "recei@@": 4186, 
  "occur": 4187, 
  "pack": 4188, 
  "prime": 4189, 
  "wireless": 4190, 
  "messages": 4191, 
  "element": 4192, 
  "accomp@@": 4193, 
  "applications": 4194, 
  "Ros@@": 4195, 
  "spir@@": 4196, 
  "electronic": 4197, 
  "cat": 4198, 
  "pal@@": 4199, 
  "comfort": 4200, 
  "secon@@": 4201, 
  "esses": 4202, 
  "internal": 4203, 
  "swimming": 4204, 
  "false": 4205, 
  "tion-@@": 4206, 
  "attacks": 4207, 
  "Cor@@": 4208, 
  "expert": 4209, 
  "Only": 4210, 
  "spi@@": 4211, 
  "launch": 4212, 
  "sym@@": 4213, 
  "Museum": 4214, 
  "Chicago": 4215, 
  "serving": 4216, 
  "entary": 4217, 
  "taste": 4218, 
  "potentially": 4219, 
  "interview": 4220, 
  "combine": 4221, 
  "plans": 4222, 
  "ole": 4223, 
  "distributed": 4224, 
  "Pe@@": 4225, 
  "cast": 4226, 
  "title": 4227, 
  "shark": 4228, 
  "Man@@": 4229, 
  "bow": 4230, 
  "bal": 4231, 
  "plac@@": 4232, 
  "Dar@@": 4233, 
  "elev@@": 4234, 
  "iPhone": 4235, 
  "busy": 4236, 
  "physically": 4237, 
  "Pakistan": 4238, 
  "ency": 4239, 
  "Congress": 4240, 
  "challenging": 4241, 
  "Gen@@": 4242, 
  "largely": 4243, 
  "lish@@": 4244, 
  "fire@@": 4245, 
  "fli@@": 4246, 
  "volume": 4247, 
  "Bur@@": 4248, 
  "fic": 4249, 
  "mir@@": 4250, 
  "demonstr@@": 4251, 
  "linked": 4252, 
  "embarrass@@": 4253, 
  "surgeon": 4254, 
  "mul@@": 4255, 
  "length": 4256, 
  "Ci@@": 4257, 
  "State": 4258, 
  "staff": 4259, 
  "remind": 4260, 
  "error": 4261, 
  "birthday": 4262, 
  "fle@@": 4263, 
  "Ti@@": 4264, 
  "institu@@": 4265, 
  "tube": 4266, 
  "curve": 4267, 
  "ef": 4268, 
  "crowd": 4269, 
  "oms": 4270, 
  "clock": 4271, 
  "inspiration": 4272, 
  "gam@@": 4273, 
  "1.@@": 4274, 
  "mind@@": 4275, 
  "teams": 4276, 
  "dense": 4277, 
  "elimin@@": 4278, 
  "manag@@": 4279, 
  "19": 4280, 
  "sul@@": 4281, 
  "pop": 4282, 
  "Cam@@": 4283, 
  "wil@@": 4284, 
  "medic@@": 4285, 
  "Ke@@": 4286, 
  "intuitive": 4287, 
  "architects": 4288, 
  "determine": 4289, 
  "transformed": 4290, 
  "fla@@": 4291, 
  "Art": 4292, 
  "Nobody": 4293, 
  "well-being": 4294, 
  "continu@@": 4295, 
  "reference": 4296, 
  "resistance": 4297, 
  "insi@@": 4298, 
  "diplom@@": 4299, 
  "cool@@": 4300, 
  "conventional": 4301, 
  "wondered": 4302, 
  "cha@@": 4303, 
  "penguins": 4304, 
  "ham": 4305, 
  "typ@@": 4306, 
  "paradigm": 4307, 
  "option": 4308, 
  "younger": 4309, 
  "blu@@": 4310, 
  "survi@@": 4311, 
  "recycl@@": 4312, 
  "attle": 4313, 
  "author": 4314, 
  "detect": 4315, 
  "disp@@": 4316, 
  "corporate": 4317, 
  "cam@@": 4318, 
  "severe": 4319, 
  "advice": 4320, 
  "ate@@": 4321, 
  "onal": 4322, 
  "Muslim": 4323, 
  "icians": 4324, 
  "ually": 4325, 
  "solid": 4326, 
  "decline": 4327, 
  "selection": 4328, 
  "-and-@@": 4329, 
  "fiction": 4330, 
  "ing-@@": 4331, 
  "lay@@": 4332, 
  "hop@@": 4333, 
  "Egypt": 4334, 
  "Pen@@": 4335, 
  "housing": 4336, 
  "touched": 4337, 
  "Ha@@": 4338, 
  "fortunate": 4339, 
  "cents": 4340, 
  "admit": 4341, 
  "options": 4342, 
  "feature": 4343, 
  "tain@@": 4344, 
  "fan": 4345, 
  "circul@@": 4346, 
  "inations": 4347, 
  "raw": 4348, 
  "communic@@": 4349, 
  "dependent": 4350, 
  "locked": 4351, 
  "falls": 4352, 
  "X": 4353, 
  "Tit@@": 4354, 
  "nel": 4355, 
  "cave": 4356, 
  "determin@@": 4357, 
  "tonight": 4358, 
  "ong@@": 4359, 
  "ector": 4360, 
  "blog@@": 4361, 
  "Den@@": 4362, 
  "Coun@@": 4363, 
  "abstract": 4364, 
  "elec@@": 4365, 
  "measured": 4366, 
  "evening": 4367, 
  "generated": 4368, 
  "esp@@": 4369, 
  "phase": 4370, 
  "combined": 4371, 
  "dancing": 4372, 
  "ied": 4373, 
  "blog": 4374, 
  "Em@@": 4375, 
  "uck": 4376, 
  "nor": 4377, 
  "Korea": 4378, 
  "propos@@": 4379, 
  "pass@@": 4380, 
  "ore@@": 4381, 
  "statement": 4382, 
  "crow@@": 4383, 
  "unknown": 4384, 
  "len@@": 4385, 
  "Basically": 4386, 
  "pair": 4387, 
  "list@@": 4388, 
  "hide": 4389, 
  "religions": 4390, 
  "partners": 4391, 
  "clothes": 4392, 
  "rit@@": 4393, 
  "disc@@": 4394, 
  "obsessed": 4395, 
  "immune": 4396, 
  "villages": 4397, 
  "iss": 4398, 
  "grand": 4399, 
  "sons": 4400, 
  "water@@": 4401, 
  "measuring": 4402, 
  "va": 4403, 
  "Gulf": 4404, 
  "estion": 4405, 
  "60s": 4406, 
  "providing": 4407, 
  "wired": 4408, 
  "Health": 4409, 
  "unlike": 4410, 
  "remove": 4411, 
  "Nat@@": 4412, 
  "stands": 4413, 
  "ub@@": 4414, 
  "jum@@": 4415, 
  "22": 4416, 
  "feeding": 4417, 
  "Union": 4418, 
  "expand": 4419, 
  "Hum@@": 4420, 
  "Dis@@": 4421, 
  "Unfortunately": 4422, 
  "ased": 4423, 
  "split": 4424, 
  "usive": 4425, 
  "enh@@": 4426, 
  "emerg@@": 4427, 
  "unexpected": 4428, 
  "deep@@": 4429, 
  "bones": 4430, 
  "lied": 4431, 
  "neutr@@": 4432, 
  "flower": 4433, 
  "faced": 4434, 
  "regions": 4435, 
  "Will": 4436, 
  "anim@@": 4437, 
  "New@@": 4438, 
  "dings": 4439, 
  "twi@@": 4440, 
  "frankly": 4441, 
  "bili@@": 4442, 
  "Ab@@": 4443, 
  "explor@@": 4444, 
  "2005": 4445, 
  "chol@@": 4446, 
  "Ah": 4447, 
  "cyber@@": 4448, 
  "ems": 4449, 
  "ter-@@": 4450, 
  "yer": 4451, 
  "argu@@": 4452, 
  "itable": 4453, 
  "pocket": 4454, 
  "any@@": 4455, 
  "atten@@": 4456, 
  "simplicity": 4457, 
  "bus@@": 4458, 
  "grows": 4459, 
  "Los": 4460, 
  "tom@@": 4461, 
  "concrete": 4462, 
  "input": 4463, 
  "breathe": 4464, 
  "Gi@@": 4465, 
  "stronger": 4466, 
  "cat@@": 4467, 
  "About": 4468, 
  "lung": 4469, 
  "productivity": 4470, 
  "ols": 4471, 
  "c": 4472, 
  "reli@@": 4473, 
  ".C.": 4474, 
  "ame": 4475, 
  "multi-@@": 4476, 
  "laboratory": 4477, 
  "functional": 4478, 
  "interpre@@": 4479, 
  "parking": 4480, 
  "tary": 4481, 
  "nos@@": 4482, 
  "sus@@": 4483, 
  "ko": 4484, 
  "asing": 4485, 
  "70s": 4486, 
  "Sol@@": 4487, 
  "poem": 4488, 
  "cros@@": 4489, 
  "funded": 4490, 
  "arti@@": 4491, 
  "tro@@": 4492, 
  "trend": 4493, 
  "bles": 4494, 
  "ros@@": 4495, 
  "eck": 4496, 
  "enable": 4497, 
  "great@@": 4498, 
  "usion": 4499, 
  "ake": 4500, 
  "concer@@": 4501, 
  "remains": 4502, 
  "ories": 4503, 
  "root": 4504, 
  "wherever": 4505, 
  "Other": 4506, 
  "transl@@": 4507, 
  "embrace": 4508, 
  "desper@@": 4509, 
  "hotel": 4510, 
  "toler@@": 4511, 
  "toxic": 4512, 
  "causing": 4513, 
  "compl@@": 4514, 
  "loop": 4515, 
  "interven@@": 4516, 
  "upper": 4517, 
  "scared": 4518, 
  "agreed": 4519, 
  "Something": 4520, 
  "unclear": 4521, 
  "gin": 4522, 
  "outcomes": 4523, 
  "ician": 4524, 
  "horrible": 4525, 
  "German": 4526, 
  "clever": 4527, 
  "pure": 4528, 
  "France": 4529, 
  "connecting": 4530, 
  "logic": 4531, 
  "desk": 4532, 
  "allowing": 4533, 
  "classes": 4534, 
  "innov@@": 4535, 
  "entrepreneur": 4536, 
  "collected": 4537, 
  "usi@@": 4538, 
  "Bon@@": 4539, 
  "proj@@": 4540, 
  "worker": 4541, 
  "vor@@": 4542, 
  "Bri@@": 4543, 
  "latest": 4544, 
  "limits": 4545, 
  "-like": 4546, 
  "95": 4547, 
  "pit@@": 4548, 
  "dering": 4549, 
  "consi@@": 4550, 
  "scan": 4551, 
  "itarian": 4552, 
  "ann@@": 4553, 
  "gro@@": 4554, 
  "silence": 4555, 
  "ote": 4556, 
  "sweet": 4557, 
  "gang": 4558, 
  "heroes": 4559, 
  "climb": 4560, 
  "careful": 4561, 
  "2009": 4562, 
  "puzzle": 4563, 
  "anded": 4564, 
  "chose": 4565, 
  "mechanical": 4566, 
  "ised": 4567, 
  "exploring": 4568, 
  "monkeys": 4569, 
  "army": 4570, 
  "legi@@": 4571, 
  "illusion": 4572, 
  "Paris": 4573, 
  "Tw@@": 4574, 
  "dozen": 4575, 
  "fed": 4576, 
  "27": 4577, 
  "lovely": 4578, 
  "Wil@@": 4579, 
  "od": 4580, 
  "danger": 4581, 
  "addic@@": 4582, 
  "owned": 4583, 
  "Russia": 4584, 
  "increases": 4585, 
  "Willi@@": 4586, 
  "gged": 4587, 
  "paintings": 4588, 
  "illegal": 4589, 
  "Do@@": 4590, 
  "interactive": 4591, 
  "miss": 4592, 
  "65": 4593, 
  "Chi@@": 4594, 
  "Everyone": 4595, 
  "grab": 4596, 
  "component": 4597, 
  "sensors": 4598, 
  "resolution": 4599, 
  "bloo@@": 4600, 
  "inn@@": 4601, 
  "ski@@": 4602, 
  "papers": 4603, 
  "slides": 4604, 
  "tte": 4605, 
  "neuroscience": 4606, 
  "lifestyle": 4607, 
  "wheel": 4608, 
  "Apple": 4609, 
  "bility": 4610, 
  "nest": 4611, 
  "forests": 4612, 
  "biodiversity": 4613, 
  "exten@@": 4614, 
  "ist@@": 4615, 
  "flo@@": 4616, 
  "appreciate": 4617, 
  "presented": 4618, 
  "formation": 4619, 
  "centuries": 4620, 
  "stu@@": 4621, 
  "Foundation": 4622, 
  "dep@@": 4623, 
  "treating": 4624, 
  "concepts": 4625, 
  "shoulder": 4626, 
  "pher@@": 4627, 
  "verse": 4628, 
  "tric": 4629, 
  "sus": 4630, 
  "ben@@": 4631, 
  "existed": 4632, 
  "globe": 4633, 
  "ference": 4634, 
  "Obama": 4635, 
  "vege@@": 4636, 
  "hot@@": 4637, 
  "automatically": 4638, 
  "process@@": 4639, 
  "overall": 4640, 
  "moder@@": 4641, 
  "records": 4642, 
  "rough": 4643, 
  "gray": 4644, 
  "lighting": 4645, 
  "xes": 4646, 
  "conservation": 4647, 
  "protoc@@": 4648, 
  "sible": 4649, 
  "19th": 4650, 
  "nit@@": 4651, 
  "truck": 4652, 
  "scan@@": 4653, 
  "obesity": 4654, 
  "zoom": 4655, 
  "investi@@": 4656, 
  "Tra@@": 4657, 
  "shake": 4658, 
  "drawn": 4659, 
  "zes": 4660, 
  "nets": 4661, 
  "disa@@": 4662, 
  "spoken": 4663, 
  "arian": 4664, 
  "Really": 4665, 
  "sculp@@": 4666, 
  "bucks": 4667, 
  "equation": 4668, 
  "whales": 4669, 
  "printing": 4670, 
  "handle": 4671, 
  "divided": 4672, 
  "windows": 4673, 
  "assume": 4674, 
  "Juli@@": 4675, 
  "flew": 4676, 
  "represented": 4677, 
  "Sar@@": 4678, 
  "equally": 4679, 
  "pile": 4680, 
  "polio": 4681, 
  "autom@@": 4682, 
  "powers": 4683, 
  "doors": 4684, 
  "directions": 4685, 
  "actor": 4686, 
  "floating": 4687, 
  "accum@@": 4688, 
  "laugh": 4689, 
  "carried": 4690, 
  "esti@@": 4691, 
  "vessels": 4692, 
  "lea@@": 4693, 
  "ool": 4694, 
  "conversations": 4695, 
  "greenhouse": 4696, 
  "gging": 4697, 
  "tery": 4698, 
  "separ@@": 4699, 
  "Peter": 4700, 
  "ata": 4701, 
  "May": 4702, 
  "underst@@": 4703, 
  "Cal@@": 4704, 
  "authority": 4705, 
  "eradic@@": 4706, 
  "Haiti": 4707, 
  "conv@@": 4708, 
  "week@@": 4709, 
  "fru@@": 4710, 
  "clouds": 4711, 
  "sky@@": 4712, 
  "standards": 4713, 
  "evolve": 4714, 
  "fur@@": 4715, 
  "zz@@": 4716, 
  "clinic": 4717, 
  "season": 4718, 
  "cartoon": 4719, 
  "inspiring": 4720, 
  "tent": 4721, 
  "post": 4722, 
  "morality": 4723, 
  "Park": 4724, 
  "weigh@@": 4725, 
  "Moun@@": 4726, 
  "pts": 4727, 
  "all-@@": 4728, 
  "atch": 4729, 
  "shame": 4730, 
  "dest@@": 4731, 
  "credi@@": 4732, 
  "We@@": 4733, 
  "introduc@@": 4734, 
  "26": 4735, 
  "Comm@@": 4736, 
  "instinc@@": 4737, 
  "ya": 4738, 
  "disorders": 4739, 
  "underwater": 4740, 
  "phrase": 4741, 
  "Before": 4742, 
  "fron@@": 4743, 
  "rist": 4744, 
  "psychological": 4745, 
  "eller": 4746, 
  "robotic": 4747, 
  "bacter@@": 4748, 
  "ush": 4749, 
  "barri@@": 4750, 
  "gest": 4751, 
  "swit@@": 4752, 
  "soft": 4753, 
  "sna@@": 4754, 
  "Bush": 4755, 
  "identical": 4756, 
  "monkey": 4757, 
  "loud": 4758, 
  "associ@@": 4759, 
  "tan@@": 4760, 
  "pushing": 4761, 
  "sla@@": 4762, 
  "classic": 4763, 
  "cour@@": 4764, 
  "struck": 4765, 
  "modi@@": 4766, 
  "youth": 4767, 
  "ena": 4768, 
  "yn@@": 4769, 
  "Get": 4770, 
  "scary": 4771, 
  "borders": 4772, 
  "recomm@@": 4773, 
  "tax": 4774, 
  "prices": 4775, 
  "density": 4776, 
  "advertising": 4777, 
  "jail": 4778, 
  "dan": 4779, 
  "stayed": 4780, 
  "vir@@": 4781, 
  "tall": 4782, 
  "Phili@@": 4783, 
  "floo@@": 4784, 
  "ert": 4785, 
  "prize": 4786, 
  "breathing": 4787, 
  "co-@@": 4788, 
  "integr@@": 4789, 
  "maintain": 4790, 
  "prescri@@": 4791, 
  "repair": 4792, 
  "ign@@": 4793, 
  "populations": 4794, 
  "genu@@": 4795, 
  "appreci@@": 4796, 
  "enemy": 4797, 
  "ladies": 4798, 
  "ulating": 4799, 
  "but@@": 4800, 
  "Lin@@": 4801, 
  "optimistic": 4802, 
  "Bay": 4803, 
  "recording": 4804, 
  "Remember": 4805, 
  "nowhere": 4806, 
  "balloon": 4807, 
  "Next": 4808, 
  "emp@@": 4809, 
  "ota": 4810, 
  "tals": 4811, 
  "seed": 4812, 
  "enni@@": 4813, 
  "ced": 4814, 
  "embedded": 4815, 
  "ex": 4816, 
  "web@@": 4817, 
  "magnetic": 4818, 
  "32": 4819, 
  "pregnant": 4820, 
  "quarter": 4821, 
  "arguments": 4822, 
  "depressed": 4823, 
  "circuit": 4824, 
  "Tom": 4825, 
  "Tor@@": 4826, 
  "journalist": 4827, 
  "pil@@": 4828, 
  "tar": 4829, 
  "rising": 4830, 
  "repor@@": 4831, 
  "tour": 4832, 
  "dust": 4833, 
  "happ@@": 4834, 
  "tting": 4835, 
  "tm@@": 4836, 
  "parent": 4837, 
  "grandfather": 4838, 
  "crea@@": 4839, 
  "direc@@": 4840, 
  "ace@@": 4841, 
  "extinct": 4842, 
  "esh": 4843, 
  "sum": 4844, 
  "sou@@": 4845, 
  "inequality": 4846, 
  "button": 4847, 
  "Finally": 4848, 
  "Olym@@": 4849, 
  "Revolution": 4850, 
  "brief": 4851, 
  "scar@@": 4852, 
  "summar@@": 4853, 
  "genius": 4854, 
  "joined": 4855, 
  "cher": 4856, 
  "aircraft": 4857, 
  "Sk@@": 4858, 
  "cook": 4859, 
  "precisely": 4860, 
  "ola": 4861, 
  "surrounded": 4862, 
  "foot@@": 4863, 
  "license": 4864, 
  "offered": 4865, 
  "half-@@": 4866, 
  "dum@@": 4867, 
  "fam@@": 4868, 
  "anda": 4869, 
  "commun@@": 4870, 
  "thi@@": 4871, 
  "songs": 4872, 
  "aspects": 4873, 
  "refer@@": 4874, 
  "spreading": 4875, 
  "20,000": 4876, 
  "lift": 4877, 
  "4,000": 4878, 
  "Christmas": 4879, 
  "80s": 4880, 
  "fixed": 4881, 
  "uri@@": 4882, 
  "fare": 4883, 
  "disappear": 4884, 
  "organize": 4885, 
  "sculpture": 4886, 
  "Hun@@": 4887, 
  "tea": 4888, 
  "clim@@": 4889, 
  "entation": 4890, 
  "score": 4891, 
  "oning": 4892, 
  "teen@@": 4893, 
  "encies": 4894, 
  "hip": 4895, 
  "surve@@": 4896, 
  "beach": 4897, 
  "Africans": 4898, 
  "shif@@": 4899, 
  "pose": 4900, 
  "Any": 4901, 
  "academic": 4902, 
  "hunger": 4903, 
  "gui@@": 4904, 
  "suicide": 4905, 
  "pin@@": 4906, 
  "stic@@": 4907, 
  "friendly": 4908, 
  "tori@@": 4909, 
  "usual": 4910, 
  "pip@@": 4911, 
  "happier": 4912, 
  "transc@@": 4913, 
  "tricks": 4914, 
  "wel@@": 4915, 
  "Adam": 4916, 
  "application": 4917, 
  "Pal@@": 4918, 
  "Texas": 4919, 
  "bom@@": 4920, 
  "drinking": 4921, 
  "lation": 4922, 
  "pire": 4923, 
  "erg@@": 4924, 
  "tit@@": 4925, 
  "seven@@": 4926, 
  "theless": 4927, 
  "furniture": 4928, 
  "Latin": 4929, 
  "toy": 4930, 
  "intense": 4931, 
  "economies": 4932, 
  "survey": 4933, 
  "sket@@": 4934, 
  "Sy@@": 4935, 
  "poorest": 4936, 
  "infinite": 4937, 
  "samples": 4938, 
  "camp@@": 4939, 
  "incentives": 4940, 
  "consumers": 4941, 
  "by-@@": 4942, 
  "involves": 4943, 
  "relation": 4944, 
  "suffer": 4945, 
  "chart": 4946, 
  "parallel": 4947, 
  "depend": 4948, 
  "charity": 4949, 
  "spiritual": 4950, 
  "controlling": 4951, 
  "san@@": 4952, 
  "height": 4953, 
  "chem@@": 4954, 
  "2004": 4955, 
  "ily": 4956, 
  "educ@@": 4957, 
  "prototype": 4958, 
  "reaching": 4959, 
  "blow": 4960, 
  "occu@@": 4961, 
  "thesis": 4962, 
  "provides": 4963, 
  "corn": 4964, 
  "curiosity": 4965, 
  "replac@@": 4966, 
  "Sweden": 4967, 
  "savings": 4968, 
  "wid@@": 4969, 
  "entr@@": 4970, 
  "statis@@": 4971, 
  "ologically": 4972, 
  "infl@@": 4973, 
  "provided": 4974, 
  "terri@@": 4975, 
  "mess": 4976, 
  "tian": 4977, 
  "polic@@": 4978, 
  "brothers": 4979, 
  "ential": 4980, 
  "Frank": 4981, 
  "Mos@@": 4982, 
  "channel": 4983, 
  "carb@@": 4984, 
  "anticip@@": 4985, 
  "mystery": 4986, 
  "Muslims": 4987, 
  "diagram": 4988, 
  "fat@@": 4989, 
  "extent": 4990, 
  "origami": 4991, 
  "Stanford": 4992, 
  "celebrate": 4993, 
  "accessible": 4994, 
  "microscope": 4995, 
  "recogn@@": 4996, 
  "plenty": 4997, 
  "produc@@": 4998, 
  "wanting": 4999, 
  "anthrop@@": 5000, 
  "commitment": 5001, 
  "syste@@": 5002, 
  "White": 5003, 
  "Cha@@": 5004, 
  "ami@@": 5005, 
  "attached": 5006, 
  "degra@@": 5007, 
  "volunteers": 5008, 
  "Island": 5009, 
  "dents": 5010, 
  "The@@": 5011, 
  "Pri@@": 5012, 
  "ady": 5013, 
  "elly": 5014, 
  "Some@@": 5015, 
  "therap@@": 5016, 
  "usions": 5017, 
  "dy@@": 5018, 
  "doc@@": 5019, 
  "assum@@": 5020, 
  "offers": 5021, 
  "23": 5022, 
  "ri": 5023, 
  "translate": 5024, 
  "shooting": 5025, 
  "dimensional": 5026, 
  "border": 5027, 
  "mitted": 5028, 
  "department": 5029, 
  "empha@@": 5030, 
  "cardi@@": 5031, 
  "Four": 5032, 
  "symmetry": 5033, 
  "autism": 5034, 
  "behave": 5035, 
  "disorder": 5036, 
  "icked": 5037, 
  "univer@@": 5038, 
  "appears": 5039, 
  "particle": 5040, 
  "appeared": 5041, 
  "tag": 5042, 
  "ile": 5043, 
  "leg@@": 5044, 
  "ox": 5045, 
  "Mac@@": 5046, 
  "elling": 5047, 
  "sor": 5048, 
  "stock": 5049, 
  "grass": 5050, 
  "candi@@": 5051, 
  "chromos@@": 5052, 
  "tility": 5053, 
  "ide": 5054, 
  "puni@@": 5055, 
  "frozen": 5056, 
  "escence": 5057, 
  "meetings": 5058, 
  "Islamic": 5059, 
  "dirty": 5060, 
  "Ken@@": 5061, 
  "year-olds": 5062, 
  "shut": 5063, 
  "frequency": 5064, 
  "virtu@@": 5065, 
  "tied": 5066, 
  "symbol": 5067, 
  "Never": 5068, 
  "exhibition": 5069, 
  "power@@": 5070, 
  "yard": 5071, 
  "units": 5072, 
  "Eastern": 5073, 
  "poly@@": 5074, 
  "spr@@": 5075, 
  "symptoms": 5076, 
  "abuse": 5077, 
  "cooperation": 5078, 
  "diff@@": 5079, 
  "snow": 5080, 
  "laser": 5081, 
  "angry": 5082, 
  "painful": 5083, 
  "dioxide": 5084, 
  "org@@": 5085, 
  "tative": 5086, 
  "philosoph@@": 5087, 
  ",@@": 5088, 
  "tragedy": 5089, 
  "idi@@": 5090, 
  "agenda": 5091, 
  "practices": 5092, 
  "long@@": 5093, 
  "innovations": 5094, 
  "orph@@": 5095, 
  "dignity": 5096, 
  "cry": 5097, 
  "succeed": 5098, 
  "psychiat@@": 5099, 
  "zo@@": 5100, 
  "habit@@": 5101, 
  "so-called": 5102, 
  "seeds": 5103, 
  "relations": 5104, 
  "ee": 5105, 
  "tasks": 5106, 
  "killer": 5107, 
  "treatments": 5108, 
  "harm": 5109, 
  "Red": 5110, 
  "tele@@": 5111, 
  "telephone": 5112, 
  "layers": 5113, 
  "mid-@@": 5114, 
  "yo": 5115, 
  "full-@@": 5116, 
  "Sur@@": 5117, 
  "ere@@": 5118, 
  "polar": 5119, 
  "stores": 5120, 
  "2006": 5121, 
  "aches": 5122, 
  "Martin": 5123, 
  "activ@@": 5124, 
  "dates": 5125, 
  "Nothing": 5126, 
  "essing": 5127, 
  "letting": 5128, 
  "wit@@": 5129, 
  "May@@": 5130, 
  "breaks": 5131, 
  "irs": 5132, 
  "recognition": 5133, 
  "ques@@": 5134, 
  "oun@@": 5135, 
  "achieved": 5136, 
  "persu@@": 5137, 
  "divide": 5138, 
  "pen": 5139, 
  "tle": 5140, 
  "bum@@": 5141, 
  "bi": 5142, 
  "ard@@": 5143, 
  "sheep": 5144, 
  "domin@@": 5145, 
  "life-@@": 5146, 
  "hall": 5147, 
  "cock@@": 5148, 
  "spider": 5149, 
  "mining": 5150, 
  "depending": 5151, 
  "co": 5152, 
  "neuron": 5153, 
  "Manhattan": 5154, 
  "diver@@": 5155, 
  "tis@@": 5156, 
  "correspon@@": 5157, 
  "weak": 5158, 
  "properly": 5159, 
  "smoke": 5160, 
  "capitalism": 5161, 
  ".com": 5162, 
  "destroyed": 5163, 
  "Green@@": 5164, 
  "lium": 5165, 
  "Ear@@": 5166, 
  "distant": 5167, 
  "Congo": 5168, 
  "bold": 5169, 
  "whist@@": 5170, 
  "imagined": 5171, 
  "opposed": 5172, 
  "diabetes": 5173, 
  "sized": 5174, 
  "defense": 5175, 
  "House": 5176, 
  "herself": 5177, 
  "elli@@": 5178, 
  "backwards": 5179, 
  "orbit": 5180, 
  "kins": 5181, 
  "Bible": 5182, 
  "entered": 5183, 
  "cheaper": 5184, 
  "dot": 5185, 
  "recognized": 5186, 
  "symme@@": 5187, 
  "boundaries": 5188, 
  "demonstrate": 5189, 
  "script": 5190, 
  "muscles": 5191, 
  "speakers": 5192, 
  "SA": 5193, 
  "monitor": 5194, 
  "reflect": 5195, 
  "mic": 5196, 
  "va@@": 5197, 
  "dramatically": 5198, 
  "spots": 5199, 
  "habitat": 5200, 
  "ridiculous": 5201, 
  "dedicated": 5202, 
  "illi@@": 5203, 
  "ideal": 5204, 
  "Voice": 5205, 
  "crying": 5206, 
  "nd": 5207, 
  "critici@@": 5208, 
  "colli@@": 5209, 
  "forming": 5210, 
  "destroy": 5211, 
  "Iran@@": 5212, 
  "facial": 5213, 
  "Ru@@": 5214, 
  "abund@@": 5215, 
  "ethical": 5216, 
  "encoura@@": 5217, 
  "BC": 5218, 
  "dding": 5219, 
  "constitu@@": 5220, 
  "session": 5221, 
  "tus": 5222, 
  "Sal@@": 5223, 
  "needle": 5224, 
  "timate": 5225, 
  "Mas@@": 5226, 
  "educated": 5227, 
  "bias": 5228, 
  "Amazon": 5229, 
  "ung": 5230, 
  "personality": 5231, 
  "contains": 5232, 
  "interacting": 5233, 
  "life@@": 5234, 
  "overcome": 5235, 
  "afterwards": 5236, 
  "adding": 5237, 
  "Bang": 5238, 
  "proce@@": 5239, 
  "simil@@": 5240, 
  "crash@@": 5241, 
  "drove": 5242, 
  "mentally": 5243, 
  "Number": 5244, 
  "demo": 5245, 
  "reci@@": 5246, 
  "tab@@": 5247, 
  "bicycle": 5248, 
  "Microsoft": 5249, 
  "footage": 5250, 
  "hero@@": 5251, 
  "aside": 5252, 
  "Hy@@": 5253, 
  "affordable": 5254, 
  "hardware": 5255, 
  "evalu@@": 5256, 
  "earthquake": 5257, 
  "pers": 5258, 
  "hearts": 5259, 
  "Rom@@": 5260, 
  "Give": 5261, 
  "tune": 5262, 
  "four-@@": 5263, 
  "Mag@@": 5264, 
  "elsewhere": 5265, 
  "lam@@": 5266, 
  "tiles": 5267, 
  "contrast": 5268, 
  "omics": 5269, 
  "hang": 5270, 
  "athle@@": 5271, 
  "improvement": 5272, 
  "virtually": 5273, 
  "linear": 5274, 
  "firm": 5275, 
  "minister": 5276, 
  "zer@@": 5277, 
  "recovery": 5278, 
  "integrated": 5279, 
  "sely": 5280, 
  "diagnosed": 5281, 
  "passing": 5282, 
  "ema@@": 5283, 
  "Gra@@": 5284, 
  "asive": 5285, 
  "clean@@": 5286, 
  "courage": 5287, 
  "fascinated": 5288, 
  "She@@": 5289, 
  "athe@@": 5290, 
  "oldest": 5291, 
  "Uganda": 5292, 
  "audi@@": 5293, 
  "of@@": 5294, 
  "Swe@@": 5295, 
  "grateful": 5296, 
  "influ@@": 5297, 
  "Ben@@": 5298, 
  "ty-@@": 5299, 
  "links": 5300, 
  "prefer": 5301, 
  "CA@@": 5302, 
  "ingredients": 5303, 
  "archy": 5304, 
  "continues": 5305, 
  "discipl@@": 5306, 
  "headed": 5307, 
  "crops": 5308, 
  "shore": 5309, 
  "electronics": 5310, 
  "adapt": 5311, 
  "rocks": 5312, 
  "tran@@": 5313, 
  "aria": 5314, 
  "privilege": 5315, 
  "purch@@": 5316, 
  "Be": 5317, 
  "tail@@": 5318, 
  "distinc@@": 5319, 
  "Goo@@": 5320, 
  "Rec@@": 5321, 
  "adol@@": 5322, 
  "art@@": 5323, 
  "random@@": 5324, 
  "evol@@": 5325, 
  "flip": 5326, 
  "gent@@": 5327, 
  "uck@@": 5328, 
  "whale": 5329, 
  "produces": 5330, 
  "ink@@": 5331, 
  "inspire": 5332, 
  "escape": 5333, 
  "pon@@": 5334, 
  "reson@@": 5335, 
  "reported": 5336, 
  "astonishing": 5337, 
  "boun@@": 5338, 
  "collecting": 5339, 
  "Jim": 5340, 
  "sticks": 5341, 
  "probability": 5342, 
  "Nature": 5343, 
  "January": 5344, 
  "vels": 5345, 
  "da@@": 5346, 
  "apartment": 5347, 
  "mony": 5348, 
  "estab@@": 5349, 
  "engagement": 5350, 
  "hire": 5351, 
  "post@@": 5352, 
  "cryst@@": 5353, 
  "contribute": 5354, 
  "west": 5355, 
  "transi@@": 5356, 
  "aj@@": 5357, 
  "hungry": 5358, 
  "official": 5359, 
  "Higgs": 5360, 
  "disappeared": 5361, 
  "toilet": 5362, 
  "bars": 5363, 
  "exposed": 5364, 
  "pool": 5365, 
  "winning": 5366, 
  "func@@": 5367, 
  "Ap@@": 5368, 
  "historical": 5369, 
  "ison": 5370, 
  "mot@@": 5371, 
  "preser@@": 5372, 
  "mation": 5373, 
  "85": 5374, 
  "dominant": 5375, 
  "asi@@": 5376, 
  "engaging": 5377, 
  "lou@@": 5378, 
  "elephant": 5379, 
  "gonna": 5380, 
  "host": 5381, 
  "mail": 5382, 
  "chocolate": 5383, 
  "pig": 5384, 
  "controls": 5385, 
  "transforma@@": 5386, 
  "tired": 5387, 
  "advoc@@": 5388, 
  "awesome": 5389, 
  "earn": 5390, 
  "attribu@@": 5391, 
  "mice": 5392, 
  "simpli@@": 5393, 
  "motivation": 5394, 
  "lens": 5395, 
  "iles": 5396, 
  "adventure": 5397, 
  "ading": 5398, 
  "output": 5399, 
  "DH": 5400, 
  "Mad@@": 5401, 
  "quarters": 5402, 
  "governance": 5403, 
  "neither": 5404, 
  "traveled": 5405, 
  "stroke": 5406, 
  "dynamics": 5407, 
  "eli@@": 5408, 
  "pup@@": 5409, 
  "monit@@": 5410, 
  "port@@": 5411, 
  "prototyp@@": 5412, 
  "gram": 5413, 
  "bloc@@": 5414, 
  "pun@@": 5415, 
  "femin@@": 5416, 
  "Pole": 5417, 
  "disappe@@": 5418, 
  "knee": 5419, 
  "inch": 5420, 
  "ces": 5421, 
  "Rwanda": 5422, 
  "ope@@": 5423, 
  "BF": 5424, 
  "tually": 5425, 
  "discoveries": 5426, 
  "calculate": 5427, 
  "orange": 5428, 
  "fiber": 5429, 
  "mainly": 5430, 
  "shock": 5431, 
  "thy": 5432, 
  "bab@@": 5433, 
  "MRI": 5434, 
  "shopping": 5435, 
  "receive": 5436, 
  "stages": 5437, 
  "fri@@": 5438, 
  "Wall": 5439, 
  "fluid": 5440, 
  "concern": 5441, 
  "mean@@": 5442, 
  "planted": 5443, 
  "elled": 5444, 
  "ket@@": 5445, 
  "diverse": 5446, 
  "iron": 5447, 
  "surely": 5448, 
  "au": 5449, 
  "agricultural": 5450, 
  "ush@@": 5451, 
  "Fe@@": 5452, 
  "physicist": 5453, 
  "gments": 5454, 
  "fer": 5455, 
  "schol@@": 5456, 
  "shr@@": 5457, 
  "school@@": 5458, 
  "Mor@@": 5459, 
  "jun@@": 5460, 
  "thrown": 5461, 
  "reduction": 5462, 
  "arre@@": 5463, 
  "maxim@@": 5464, 
  "lethal": 5465, 
  "super-@@": 5466, 
  "variation": 5467, 
  "pled": 5468, 
  "sey": 5469, 
  "pyramid": 5470, 
  "capita": 5471, 
  "aded": 5472, 
  "ish": 5473, 
  "by@@": 5474, 
  "atter@@": 5475, 
  "permanent": 5476, 
  "heaven": 5477, 
  "improvi@@": 5478, 
  "facility": 5479, 
  "abs": 5480, 
  "conflicts": 5481, 
  "break@@": 5482, 
  "30s": 5483, 
  "U": 5484, 
  "banks": 5485, 
  "glasses": 5486, 
  "legacy": 5487, 
  "Derek": 5488, 
  "uration": 5489, 
  "encing": 5490, 
  "cute": 5491, 
  "eld": 5492, 
  "open@@": 5493, 
  "preci@@": 5494, 
  "viral": 5495, 
  "Central": 5496, 
  "ani": 5497, 
  "laid": 5498, 
  "efforts": 5499, 
  "Angeles": 5500, 
  "informed": 5501, 
  "chapter": 5502, 
  "whereas": 5503, 
  "extract": 5504, 
  "emergency": 5505, 
  "captured": 5506, 
  "vation": 5507, 
  "stere@@": 5508, 
  "ecosystems": 5509, 
  "astic": 5510, 
  "Boy": 5511, 
  "tank": 5512, 
  "ari": 5513, 
  "eda": 5514, 
  "rescue": 5515, 
  "predictable": 5516, 
  "opens": 5517, 
  "amongst": 5518, 
  "iP@@": 5519, 
  "ired": 5520, 
  "danc@@": 5521, 
  "Green": 5522, 
  "ignore": 5523, 
  "47": 5524, 
  "Long": 5525, 
  "visit@@": 5526, 
  "character@@": 5527, 
  "northern": 5528, 
  "Mom": 5529, 
  "animation": 5530, 
  "ugly": 5531, 
  "capit@@": 5532, 
  ".m.": 5533, 
  "long-@@": 5534, 
  "app": 5535, 
  "90s": 5536, 
  "likes": 5537, 
  "focusing": 5538, 
  "gotta": 5539, 
  "revolu@@": 5540, 
  "attem@@": 5541, 
  "limit": 5542, 
  "accidents": 5543, 
  "sugg@@": 5544, 
  "gan@@": 5545, 
  "speaker": 5546, 
  "tac@@": 5547, 
  "beliefs": 5548, 
  "accep@@": 5549, 
  "intended": 5550, 
  "aster": 5551, 
  "29": 5552, 
  "osis": 5553, 
  "pulling": 5554, 
  "left-@@": 5555, 
  "qualities": 5556, 
  "granted": 5557, 
  "ales": 5558, 
  "bud@@": 5559, 
  "Y": 5560, 
  "represen@@": 5561, 
  "lis@@": 5562, 
  "storm": 5563, 
  "footprint": 5564, 
  "fruit": 5565, 
  "constructed": 5566, 
  "fears": 5567, 
  "brown": 5568, 
  "Ghana": 5569, 
  "hanging": 5570, 
  "Hi": 5571, 
  "consume": 5572, 
  "General": 5573, 
  "apple": 5574, 
  "Jewish": 5575, 
  "ury": 5576, 
  "persi@@": 5577, 
  "protecting": 5578, 
  "ply": 5579, 
  "Ben": 5580, 
  "thou@@": 5581, 
  "methods": 5582, 
  "genetics": 5583, 
  "seats": 5584, 
  "bow@@": 5585, 
  "naked": 5586, 
  "smallpox": 5587, 
  "Department": 5588, 
  "located": 5589, 
  "gover@@": 5590, 
  "circles": 5591, 
  "architectural": 5592, 
  "compan@@": 5593, 
  "repeat": 5594, 
  "strategies": 5595, 
  "2003": 5596, 
  "beer": 5597, 
  "dges": 5598, 
  "unch": 5599, 
  "mou@@": 5600, 
  "bath@@": 5601, 
  "stre@@": 5602, 
  "colleague": 5603, 
  "golf": 5604, 
  "flexible": 5605, 
  "ric": 5606, 
  "arly": 5607, 
  "oll": 5608, 
  "Alzheimer": 5609, 
  "International": 5610, 
  "micr@@": 5611, 
  "pes@@": 5612, 
  "June": 5613, 
  "rays": 5614, 
  "shirt": 5615, 
  "lecture": 5616, 
  "synthetic": 5617, 
  "expectations": 5618, 
  "dys@@": 5619, 
  "landed": 5620, 
  "spectacular": 5621, 
  "ags": 5622, 
  "contract": 5623, 
  "darkness": 5624, 
  "reads": 5625, 
  "pace": 5626, 
  "philanthropy": 5627, 
  "mammals": 5628, 
  "right-@@": 5629, 
  "ums": 5630, 
  "Lib@@": 5631, 
  ",000": 5632, 
  "Oxford": 5633, 
  "football": 5634, 
  "includes": 5635, 
  "ames": 5636, 
  "jac@@": 5637, 
  "aks": 5638, 
  "Eric": 5639, 
  "net@@": 5640, 
  "neural": 5641, 
  "abo@@": 5642, 
  "sty@@": 5643, 
  "biologists": 5644, 
  "commodi@@": 5645, 
  "low@@": 5646, 
  "ium": 5647, 
  "trick@@": 5648, 
  "thick": 5649, 
  "tioned": 5650, 
  "ini": 5651, 
  "with@@": 5652, 
  "identi@@": 5653, 
  "sheet": 5654, 
  "removed": 5655, 
  "trou@@": 5656, 
  "Im@@": 5657, 
  "foun@@": 5658, 
  "silent": 5659, 
  "chosen": 5660, 
  "worthy": 5661, 
  "shell": 5662, 
  "Che@@": 5663, 
  "text@@": 5664, 
  "cup": 5665, 
  "legis@@": 5666, 
  "Soviet": 5667, 
  "consequence": 5668, 
  "ato": 5669, 
  "ja@@": 5670, 
  "Nobel": 5671, 
  "lot@@": 5672, 
  "obs@@": 5673, 
  "ester@@": 5674, 
  "nurses": 5675, 
  "rom@@": 5676, 
  "ulations": 5677, 
  "chaos": 5678, 
  "tory": 5679, 
  "comprom@@": 5680, 
  "filter": 5681, 
  "Cr@@": 5682, 
  "globalization": 5683, 
  "emerged": 5684, 
  "ew": 5685, 
  "depres@@": 5686, 
  "bubbles": 5687, 
  "real-@@": 5688, 
  "refuge@@": 5689, 
  "elections": 5690, 
  "rements": 5691, 
  "apes": 5692, 
  "inging": 5693, 
  "favor@@": 5694, 
  "limb": 5695, 
  "symbols": 5696, 
  "brow@@": 5697, 
  "predictions": 5698, 
  "discuss": 5699, 
  "barre@@": 5700, 
  "articles": 5701, 
  "nutrition": 5702, 
  "distr@@": 5703, 
  "eptions": 5704, 
  "evi@@": 5705, 
  "wings": 5706, 
  "fit@@": 5707, 
  "Red@@": 5708, 
  "reminded": 5709, 
  "tag@@": 5710, 
  "apparently": 5711, 
  "stom@@": 5712, 
  "micros@@": 5713, 
  "surfaces": 5714, 
  "sav@@": 5715, 
  "ince": 5716, 
  "thirds": 5717, 
  "emerge": 5718, 
  "side@@": 5719, 
  "esis": 5720, 
  "judge": 5721, 
  "twe@@": 5722, 
  "goo@@": 5723, 
  "briefly": 5724, 
  "describes": 5725, 
  "cats": 5726, 
  "enz@@": 5727, 
  "2001": 5728, 
  "dict@@": 5729, 
  "Shi@@": 5730, 
  "seek": 5731, 
  "Saturn": 5732, 
  "micro-@@": 5733, 
  "nucle@@": 5734, 
  "precise": 5735, 
  "asm": 5736, 
  "wind@@": 5737, 
  "Children": 5738, 
  "suppor@@": 5739, 
  "near@@": 5740, 
  "Indeed": 5741, 
  "advance": 5742, 
  "ough": 5743, 
  "ressed": 5744, 
  "spin": 5745, 
  "industries": 5746, 
  "dinosaur": 5747, 
  "guil@@": 5748, 
  "romantic": 5749, 
  "cross-@@": 5750, 
  "policies": 5751, 
  "poster": 5752, 
  "graphic": 5753, 
  "skull": 5754, 
  "Mis@@": 5755, 
  "omin@@": 5756, 
  "aten": 5757, 
  "clients": 5758, 
  "Hollywood": 5759, 
  "W": 5760, 
  "globally": 5761, 
  "boards": 5762, 
  "es.html": 5763, 
  "mol@@": 5764, 
  "rapid": 5765, 
  "transparency": 5766, 
  "convic@@": 5767, 
  "alien": 5768, 
  "govern@@": 5769, 
  "tely": 5770, 
  "escent": 5771, 
  "ais@@": 5772, 
  "seas": 5773, 
  "ora": 5774, 
  "revol@@": 5775, 
  "debt": 5776, 
  "incl@@": 5777, 
  "pain@@": 5778, 
  "react": 5779, 
  "interactions": 5780, 
  "ram@@": 5781, 
  "distur@@": 5782, 
  "Atlantic": 5783, 
  "remar@@": 5784, 
  "ven": 5785, 
  "Make": 5786, 
  "vertical": 5787, 
  "separated": 5788, 
  "rats": 5789, 
  "Mark": 5790, 
  "succe@@": 5791, 
  "lled": 5792, 
  "coc@@": 5793, 
  "realm": 5794, 
  "30,000": 5795, 
  "ultra@@": 5796, 
  "pleas@@": 5797, 
  "ices": 5798, 
  "reputation": 5799, 
  "damag@@": 5800, 
  "shifting": 5801, 
  "Ba@@": 5802, 
  "underlying": 5803, 
  "finds": 5804, 
  "painted": 5805, 
  "Sea": 5806, 
  "sian": 5807, 
  "gather": 5808, 
  "Time": 5809, 
  "customers": 5810, 
  "vulnerability": 5811, 
  "talent": 5812, 
  "honest@@": 5813, 
  "tability": 5814, 
  "dence": 5815, 
  "comedy": 5816, 
  "shu@@": 5817, 
  "vibr@@": 5818, 
  "deploy@@": 5819, 
  "filling": 5820, 
  "offic@@": 5821, 
  "route": 5822, 
  "jour@@": 5823, 
  "og": 5824, 
  "frac@@": 5825, 
  "chimpanzees": 5826, 
  "missed": 5827, 
  "Italy": 5828, 
  "rab@@": 5829, 
  "anonym@@": 5830, 
  "searching": 5831, 
  "fts": 5832, 
  "ander": 5833, 
  "vital": 5834, 
  "extre@@": 5835, 
  "copyright": 5836, 
  "entrepreneur@@": 5837, 
  "announced": 5838, 
  "temp@@": 5839, 
  "figuring": 5840, 
  "han@@": 5841, 
  "acr@@": 5842, 
  "algae": 5843, 
  "uring": 5844, 
  "assumptions": 5845, 
  "yr@@": 5846, 
  "guide": 5847, 
  "laugh@@": 5848, 
  "daughters": 5849, 
  "mem@@": 5850, 
  "vot@@": 5851, 
  "journ@@": 5852, 
  "cord": 5853, 
  "programming": 5854, 
  "luc@@": 5855, 
  "1990s": 5856, 
  "musicians": 5857, 
  "characteristics": 5858, 
  "stored": 5859, 
  "Air@@": 5860, 
  "48": 5861, 
  "hardly": 5862, 
  "sin": 5863, 
  "tip": 5864, 
  "belon@@": 5865, 
  "initial": 5866, 
  "algorithm": 5867, 
  "perceive": 5868, 
  "ord": 5869, 
  "sales": 5870, 
  "failing": 5871, 
  "Ter@@": 5872, 
  "stairs": 5873, 
  "yours": 5874, 
  "temper@@": 5875, 
  "buried": 5876, 
  "ult": 5877, 
  "Me": 5878, 
  "250": 5879, 
  "determined": 5880, 
  "perpe@@": 5881, 
  "astronom@@": 5882, 
  "rebuild": 5883, 
  "contain": 5884, 
  "Howard": 5885, 
  "ians": 5886, 
  "arri@@": 5887, 
  "Tell": 5888, 
  "stag@@": 5889, 
  "drill": 5890, 
  "trends": 5891, 
  "antly": 5892, 
  "til@@": 5893, 
  "eal@@": 5894, 
  "ph": 5895, 
  "rat": 5896, 
  "sil@@": 5897, 
  "trucks": 5898, 
  "mixed": 5899, 
  "Act": 5900, 
  "dialogue": 5901, 
  "hydr@@": 5902, 
  "ounded": 5903, 
  "Cap@@": 5904, 
  "nia": 5905, 
  "frog": 5906, 
  "underground": 5907, 
  "fifth": 5908, 
  "colony": 5909, 
  "oting": 5910, 
  "refriger@@": 5911, 
  "ode": 5912, 
  "sche@@": 5913, 
  "barely": 5914, 
  "cil": 5915, 
  "toys": 5916, 
  "mill@@": 5917, 
  "red@@": 5918, 
  "unlikely": 5919, 
  "lec@@": 5920, 
  "quar@@": 5921, 
  "hen@@": 5922, 
  "writers": 5923, 
  "contam@@": 5924, 
  "vaccines": 5925, 
  "hey": 5926, 
  "Six": 5927, 
  "proper": 5928, 
  "erian": 5929, 
  "shots": 5930, 
  "frontal": 5931, 
  "pum@@": 5932, 
  "prob@@": 5933, 
  "SW": 5934, 
  "atta@@": 5935, 
  "scales": 5936, 
  "pilot": 5937, 
  "picking": 5938, 
  "achiev@@": 5939, 
  "aking": 5940, 
  "plot": 5941, 
  "economist": 5942, 
  "thir@@": 5943, 
  "gency": 5944, 
  "turing": 5945, 
  "Bal@@": 5946, 
  "beg@@": 5947, 
  "inches": 5948, 
  "gor@@": 5949, 
  "committed": 5950, 
  "relief": 5951, 
  "ican": 5952, 
  "graphics": 5953, 
  "cus": 5954, 
  "observ@@": 5955, 
  "collaborative": 5956, 
  "embrac@@": 5957, 
  "pushed": 5958, 
  "volcan@@": 5959, 
  "returned": 5960, 
  "sub-@@": 5961, 
  "construc@@": 5962, 
  "meal": 5963, 
  "explaining": 5964, 
  "contemporary": 5965, 
  "shelter": 5966, 
  "delivered": 5967, 
  "ura": 5968, 
  "concei@@": 5969, 
  "reduced": 5970, 
  "witn@@": 5971, 
  "mind-@@": 5972, 
  "sciences": 5973, 
  "extended": 5974, 
  "Isn": 5975, 
  "grass@@": 5976, 
  "n-@@": 5977, 
  "Gates": 5978, 
  "color@@": 5979, 
  "accur@@": 5980, 
  "currency": 5981, 
  "originally": 5982, 
  "chairs": 5983, 
  "organizing": 5984, 
  "ports": 5985, 
  "surprisingly": 5986, 
  "some@@": 5987, 
  "pink": 5988, 
  "ural": 5989, 
  "sleeping": 5990, 
  "Tre@@": 5991, 
  "teenagers": 5992, 
  "tap": 5993, 
  "Indi@@": 5994, 
  "origin": 5995, 
  "posi@@": 5996, 
  "ok@@": 5997, 
  "dig": 5998, 
  "Res@@": 5999, 
  "pound": 6000, 
  "visited": 6001, 
  "shine": 6002, 
  "28": 6003, 
  "rent": 6004, 
  "Ten": 6005, 
  "ser": 6006, 
  "film@@": 6007, 
  "artistic": 6008, 
  "Kor@@": 6009, 
  "prints": 6010, 
  "impro@@": 6011, 
  "Organ@@": 6012, 
  "tize": 6013, 
  "stration": 6014, 
  "lawyers": 6015, 
  "reports": 6016, 
  "reason@@": 6017, 
  "positions": 6018, 
  "baseball": 6019, 
  "tribes": 6020, 
  "Law": 6021, 
  "measu@@": 6022, 
  "strangers": 6023, 
  "construct": 6024, 
  "lined": 6025, 
  "ype": 6026, 
  "prepare": 6027, 
  "experimental": 6028, 
  "realiz@@": 6029, 
  "practic@@": 6030, 
  "immediate": 6031, 
  "oxytocin": 6032, 
  "800": 6033, 
  "fted": 6034, 
  "mall": 6035, 
  "sport": 6036, 
  "photographed": 6037, 
  "rati@@": 6038, 
  "encounter": 6039, 
  "Cre@@": 6040, 
  "mode": 6041, 
  "soc@@": 6042, 
  "neighbor": 6043, 
  "expres@@": 6044, 
  "Jesus": 6045, 
  "ula": 6046, 
  "Steven": 6047, 
  "crucial": 6048, 
  "Democr@@": 6049, 
  "hitting": 6050, 
  "pitch": 6051, 
  "Somebody": 6052, 
  "consciously": 6053, 
  "care@@": 6054, 
  "tax@@": 6055, 
  "v": 6056, 
  "oven": 6057, 
  "gal@@": 6058, 
  "cartoons": 6059, 
  "Mus@@": 6060, 
  "adly": 6061, 
  "arrive": 6062, 
  "Wol@@": 6063, 
  "luck": 6064, 
  "drivers": 6065, 
  "Rome": 6066, 
  "emen": 6067, 
  "Hal@@": 6068, 
  "33": 6069, 
  "bizarre": 6070, 
  "condi@@": 6071, 
  "Northern": 6072, 
  "RB": 6073, 
  "invite": 6074, 
  "accepted": 6075, 
  "glad": 6076, 
  "Christi@@": 6077, 
  "expen@@": 6078, 
  "skep@@": 6079, 
  "founded": 6080, 
  "bill": 6081, 
  "transparent": 6082, 
  "conclude": 6083, 
  "super": 6084, 
  "otyp@@": 6085, 
  "predicted": 6086, 
  "premi@@": 6087, 
  "Carol@@": 6088, 
  "Cambridge": 6089, 
  "diag@@": 6090, 
  "photograph@@": 6091, 
  "batt@@": 6092, 
  "criminals": 6093, 
  "diving": 6094, 
  "Nig@@": 6095, 
  "dal": 6096, 
  "Ethiopia": 6097, 
  "assembly": 6098, 
  "stance": 6099, 
  "pump": 6100, 
  "dimension": 6101, 
  "photographer": 6102, 
  "psycho@@": 6103, 
  "shops": 6104, 
  "depth": 6105, 
  "sensory": 6106, 
  "pression": 6107, 
  "perform@@": 6108, 
  "clay": 6109, 
  "atar": 6110, 
  "My@@": 6111, 
  "weapon": 6112, 
  "successfully": 6113, 
  "stops": 6114, 
  "inevitable": 6115, 
  "forgotten": 6116, 
  "Pl@@": 6117, 
  "essence": 6118, 
  "sharp": 6119, 
  "domestic": 6120, 
  "attract": 6121, 
  "favor": 6122, 
  "folding": 6123, 
  "suggested": 6124, 
  "Human": 6125, 
  "rams": 6126, 
  "elected": 6127, 
  "miracle": 6128, 
  "aca@@": 6129, 
  "yn": 6130, 
  "ticity": 6131, 
  "drones": 6132, 
  "transfer": 6133, 
  "expectancy": 6134, 
  "chips": 6135, 
  "liament": 6136, 
  "participants": 6137, 
  "y.html": 6138, 
  "farmer": 6139, 
  "clic@@": 6140, 
  "brain@@": 6141, 
  "Should": 6142, 
  "execu@@": 6143, 
  "fabulous": 6144, 
  "chron@@": 6145, 
  "after@@": 6146, 
  "cial": 6147, 
  "hat@@": 6148, 
  "cle@@": 6149, 
  "alty": 6150, 
  "particip@@": 6151, 
  "resilience": 6152, 
  "Sup@@": 6153, 
  "initi@@": 6154, 
  "vic@@": 6155, 
  "dozens": 6156, 
  "cement": 6157, 
  "Fri@@": 6158, 
  "black@@": 6159, 
  "exponential": 6160, 
  "mon": 6161, 
  "quot@@": 6162, 
  "document": 6163, 
  "izes": 6164, 
  "gut": 6165, 
  "demo@@": 6166, 
  "Nations": 6167, 
  "expanding": 6168, 
  "Design": 6169, 
  "activism": 6170, 
  "regime": 6171, 
  "fair@@": 6172, 
  "Andrew": 6173, 
  "gathering": 6174, 
  "viewing": 6175, 
  "extinction": 6176, 
  "observation": 6177, 
  "subtle": 6178, 
  "dress": 6179, 
  "Star@@": 6180, 
  "caring": 6181, 
  "tains": 6182, 
  "transmission": 6183, 
  "spinal": 6184, 
  "Hel@@": 6185, 
  "700": 6186, 
  "classical": 6187, 
  "fits": 6188, 
  "kable": 6189, 
  "Ford": 6190, 
  "myth": 6191, 
  "review": 6192, 
  "pill@@": 6193, 
  "ox@@": 6194, 
  "investig@@": 6195, 
  "openness": 6196, 
  "insect": 6197, 
  "anci@@": 6198, 
  "like@@": 6199, 
  "unbelievable": 6200, 
  "Arab@@": 6201, 
  "crossing": 6202, 
  "struggling": 6203, 
  "criminal": 6204, 
  "fabric": 6205, 
  "author@@": 6206, 
  "Ed@@": 6207, 
  "Mer@@": 6208, 
  "inary": 6209, 
  "pleasant": 6210, 
  "Jos@@": 6211, 
  "esthesia": 6212, 
  "suggesting": 6213, 
  "descri@@": 6214, 
  "pandemic": 6215, 
  "confident": 6216, 
  "gon@@": 6217, 
  "October": 6218, 
  "stones": 6219, 
  "reve@@": 6220, 
  "retin@@": 6221, 
  "mines": 6222, 
  "responses": 6223, 
  "identified": 6224, 
  "Things": 6225, 
  "angles": 6226, 
  "leverage": 6227, 
  "universities": 6228, 
  "ball@@": 6229, 
  "bags": 6230, 
  "AR@@": 6231, 
  "diam@@": 6232, 
  "retro@@": 6233, 
  "nurse": 6234, 
  "capability": 6235, 
  "begun": 6236, 
  "graph@@": 6237, 
  "cro@@": 6238, 
  "distin@@": 6239, 
  "optimism": 6240, 
  "neighborhoods": 6241, 
  "vest@@": 6242, 
  "recep@@": 6243, 
  "anic": 6244, 
  "ron": 6245, 
  "tale": 6246, 
  "Whether": 6247, 
  "gence": 6248, 
  "inning": 6249, 
  "Rus@@": 6250, 
  "PM": 6251, 
  "rul@@": 6252, 
  "bears": 6253, 
  "asy": 6254, 
  "paralyzed": 6255, 
  "enthusi@@": 6256, 
  "synthe@@": 6257, 
  "ier": 6258, 
  "jec@@": 6259, 
  "chief": 6260, 
  "tears": 6261, 
  "outer": 6262, 
  "gent": 6263, 
  "horri@@": 6264, 
  "ali": 6265, 
  "disappo@@": 6266, 
  "tili@@": 6267, 
  "autonomous": 6268, 
  "imm@@": 6269, 
  "Florida": 6270, 
  "extr@@": 6271, 
  "hier@@": 6272, 
  "extrac@@": 6273, 
  "epi@@": 6274, 
  "owner": 6275, 
  "rob@@": 6276, 
  "minim@@": 6277, 
  "choos@@": 6278, 
  "agency": 6279, 
  "foods": 6280, 
  "golden": 6281, 
  "injury": 6282, 
  "generating": 6283, 
  "interestingly": 6284, 
  "regret": 6285, 
  "Space": 6286, 
  "gely": 6287, 
  "eded": 6288, 
  "Girl": 6289, 
  "attrac@@": 6290, 
  "tribe": 6291, 
  "historic": 6292, 
  "rarely": 6293, 
  "fathers": 6294, 
  "pointed": 6295, 
  "court": 6296, 
  "ution": 6297, 
  "upset": 6298, 
  "arrang@@": 6299, 
  "eve": 6300, 
  "imit@@": 6301, 
  "hack@@": 6302, 
  "traditions": 6303, 
  "cash": 6304, 
  "é@@": 6305, 
  "blame": 6306, 
  "theories": 6307, 
  "moun@@": 6308, 
  "owers": 6309, 
  "X-ray": 6310, 
  "communications": 6311, 
  "analyze": 6312, 
  "parties": 6313, 
  "fig@@": 6314, 
  "assem@@": 6315, 
  "operations": 6316, 
  "ense": 6317, 
  "gible": 6318, 
  "washing": 6319, 
  "vor": 6320, 
  "Ocean": 6321, 
  "climbing": 6322, 
  "fortune": 6323, 
  "scores": 6324, 
  "dive": 6325, 
  "instructions": 6326, 
  "imaging": 6327, 
  "tracks": 6328, 
  "richer": 6329, 
  "00,000": 6330, 
  "swi@@": 6331, 
  "reliable": 6332, 
  "orchestra": 6333, 
  "fes@@": 6334, 
  "crack": 6335, 
  "eigh@@": 6336, 
  "plat@@": 6337, 
  "concep@@": 6338, 
  "1960": 6339, 
  "distribu@@": 6340, 
  "rep@@": 6341, 
  "icks": 6342, 
  "ste": 6343, 
  "squar@@": 6344, 
  "ire": 6345, 
  "wheelchair": 6346, 
  "whatsoever": 6347, 
  "viewed": 6348, 
  "presi@@": 6349, 
  "pione@@": 6350, 
  "Egyp@@": 6351, 
  "ancing": 6352, 
  "subsi@@": 6353, 
  "Lit@@": 6354, 
  "gol@@": 6355, 
  "viewer": 6356, 
  "adv@@": 6357, 
  "obli@@": 6358, 
  "osity": 6359, 
  "reveal": 6360, 
  "sits": 6361, 
  "Jac@@": 6362, 
  "engineered": 6363, 
  "Es@@": 6364, 
  "ject": 6365, 
  "cess": 6366, 
  "fraction": 6367, 
  "oid": 6368, 
  "reform": 6369, 
  "streng@@": 6370, 
  "blogs": 6371, 
  "fur": 6372, 
  "insurance": 6373, 
  "tuna": 6374, 
  "peer": 6375, 
  "restore": 6376, 
  "Square": 6377, 
  "clear@@": 6378, 
  "cent": 6379, 
  "jellyfish": 6380, 
  "harvest": 6381, 
  "CD": 6382, 
  "fusion": 6383, 
  "quir@@": 6384, 
  "dentally": 6385, 
  "Sing@@": 6386, 
  "flowing": 6387, 
  "investing": 6388, 
  "cab@@": 6389, 
  "Joe": 6390, 
  "impacts": 6391, 
  "yrus": 6392, 
  "kily": 6393, 
  "discipline": 6394, 
  "oids": 6395, 
  "supported": 6396, 
  "kes@@": 6397, 
  "gal": 6398, 
  "aspi@@": 6399, 
  "automo@@": 6400, 
  "researcher": 6401, 
  "ba": 6402, 
  "cheese": 6403, 
  "methane": 6404, 
  "Luc@@": 6405, 
  "pursue": 6406, 
  "rest@@": 6407, 
  "domain": 6408, 
  "printer": 6409, 
  "Hello": 6410, 
  "theore@@": 6411, 
  "federal": 6412, 
  "trajectory": 6413, 
  "prison@@": 6414, 
  "Back": 6415, 
  "cake": 6416, 
  "flows": 6417, 
  "ville": 6418, 
  "permission": 6419, 
  "threw": 6420, 
  "Moore": 6421, 
  "promote": 6422, 
  "rolling": 6423, 
  "cycles": 6424, 
  "eks": 6425, 
  "centi@@": 6426, 
  "Watch": 6427, 
  "mechanisms": 6428, 
  "wash": 6429, 
  "econ@@": 6430, 
  "profits": 6431, 
  "Cra@@": 6432, 
  "tments": 6433, 
  "gas@@": 6434, 
  "drone": 6435, 
  "watts": 6436, 
  "gli@@": 6437, 
  "robust": 6438, 
  "techn@@": 6439, 
  "privacy": 6440, 
  "narrow": 6441, 
  "hoo@@": 6442, 
  "common@@": 6443, 
  "onia": 6444, 
  "ceiling": 6445, 
  "lawyer": 6446, 
  "silly": 6447, 
  "Pol@@": 6448, 
  "Smith": 6449, 
  "computation": 6450, 
  "tan": 6451, 
  "ignorance": 6452, 
  "terror": 6453, 
  "open-@@": 6454, 
  "sig@@": 6455, 
  "roof@@": 6456, 
  "external": 6457, 
  "Ger@@": 6458, 
  "projec@@": 6459, 
  "measures": 6460, 
  "shadow": 6461, 
  "winds": 6462, 
  "neat": 6463, 
  "garage": 6464, 
  "Greek": 6465, 
  "glamorous": 6466, 
  "aining": 6467, 
  "skelet@@": 6468, 
  "Christian": 6469, 
  "soli@@": 6470, 
  "parad@@": 6471, 
  "armed": 6472, 
  "plain": 6473, 
  "Buil@@": 6474, 
  "fought": 6475, 
  "rough@@": 6476, 
  "answered": 6477, 
  "alizing": 6478, 
  "gment": 6479, 
  "equality": 6480, 
  "remembered": 6481, 
  "ain@@": 6482, 
  "reef": 6483, 
  "Obviously": 6484, 
  "transplant": 6485, 
  "Ver@@": 6486, 
  "urs": 6487, 
  "reminds": 6488, 
  "ened": 6489, 
  "ener@@": 6490, 
  "55": 6491, 
  "Bronx": 6492, 
  "mosquito": 6493, 
  "belong": 6494, 
  "inated": 6495, 
  "cable": 6496, 
  "portion": 6497, 
  "None": 6498, 
  "atives": 6499, 
  "Super@@": 6500, 
  "deri@@": 6501, 
  "light@@": 6502, 
  "tends": 6503, 
  "healthier": 6504, 
  "Fr@@": 6505, 
  "sheets": 6506, 
  "compassionate": 6507, 
  "inking": 6508, 
  "dom@@": 6509, 
  "tized": 6510, 
  "closing": 6511, 
  "anging": 6512, 
  "consistent": 6513, 
  "fault": 6514, 
  "Ph.D.": 6515, 
  "fires": 6516, 
  "liberal": 6517, 
  "rogen": 6518, 
  "mapping": 6519, 
  "array": 6520, 
  "ager": 6521, 
  "covering": 6522, 
  "consul@@": 6523, 
  "Tony": 6524, 
  "tty": 6525, 
  "halluc@@": 6526, 
  "broad": 6527, 
  "February": 6528, 
  "bai": 6529, 
  "ghtly": 6530, 
  "icon": 6531, 
  "confron@@": 6532, 
  "50s": 6533, 
  "Research": 6534, 
  "cope": 6535, 
  "Fu@@": 6536, 
  "demonstration": 6537, 
  "ens@@": 6538, 
  "cere@@": 6539, 
  "humili@@": 6540, 
  "-of-@@": 6541, 
  "replicate": 6542, 
  "Without": 6543, 
  "plug": 6544, 
  "concentr@@": 6545, 
  "burgh": 6546, 
  "loves": 6547, 
  "static": 6548, 
  "Tes@@": 6549, 
  "inventing": 6550, 
  "dispos@@": 6551, 
  "revenue": 6552, 
  "wider": 6553, 
  "perf@@": 6554, 
  "panels": 6555, 
  "will@@": 6556, 
  "edges": 6557, 
  "immer@@": 6558, 
  "11@@": 6559, 
  "estimated": 6560, 
  "bly": 6561, 
  "builds": 6562, 
  "compe@@": 6563, 
  "adays": 6564, 
  "curriculum": 6565, 
  "tension": 6566, 
  "Gore": 6567, 
  "1970s": 6568, 
  "pack@@": 6569, 
  "Tri@@": 6570, 
  "sear@@": 6571, 
  "2,@@": 6572, 
  "shrimp": 6573, 
  "dear": 6574, 
  "abili@@": 6575, 
  "KB": 6576, 
  "kills": 6577, 
  "shocking": 6578, 
  "itting": 6579, 
  "ght": 6580, 
  "Mother": 6581, 
  "Within": 6582, 
  "bottles": 6583, 
  "River": 6584, 
  "grandchildren": 6585, 
  "CEO": 6586, 
  "appar@@": 6587, 
  "alt": 6588, 
  "Ca@@": 6589, 
  "brush": 6590, 
  "continuous": 6591, 
  "boo@@": 6592, 
  "oa": 6593, 
  "connects": 6594, 
  "buil@@": 6595, 
  "tips": 6596, 
  "leep": 6597, 
  "mic@@": 6598, 
  "house@@": 6599, 
  "mayor": 6600, 
  "compete": 6601, 
  "earning": 6602, 
  "category": 6603, 
  "vac@@": 6604, 
  "Bre@@": 6605, 
  "champi@@": 6606, 
  "sacrif@@": 6607, 
  "entially": 6608, 
  "senior": 6609, 
  "detection": 6610, 
  "staying": 6611, 
  "agencies": 6612, 
  "cles": 6613, 
  "teach@@": 6614, 
  "ograp@@": 6615, 
  "infection": 6616, 
  "angiogen@@": 6617, 
  "Don@@": 6618, 
  "printed": 6619, 
  "depend@@": 6620, 
  "lessly": 6621, 
  "radically": 6622, 
  "corru@@": 6623, 
  "Yorker": 6624, 
  "adopted": 6625, 
  "syndrome": 6626, 
  "72": 6627, 
  "tant": 6628, 
  "Cour@@": 6629, 
  "Lee": 6630, 
  "ague": 6631, 
  "vacuum": 6632, 
  "subway": 6633, 
  "dial": 6634, 
  "shel@@": 6635, 
  "resistant": 6636, 
  "consider@@": 6637, 
  "bound": 6638, 
  "tendency": 6639, 
  "nat@@": 6640, 
  "poet": 6641, 
  "southern": 6642, 
  "insights": 6643, 
  "enabled": 6644, 
  "hypothesis": 6645, 
  "2011": 6646, 
  "announ@@": 6647, 
  "description": 6648, 
  "hill": 6649, 
  "Brown": 6650, 
  "Econ@@": 6651, 
  "chim@@": 6652, 
  "bug": 6653, 
  "smooth": 6654, 
  "Henry": 6655, 
  "Minister": 6656, 
  "Arthur": 6657, 
  "sisters": 6658, 
  "laughing": 6659, 
  "Council": 6660, 
  "helicop@@": 6661, 
  "nerve": 6662, 
  "sentences": 6663, 
  "pole": 6664, 
  "primitive": 6665, 
  "scrap@@": 6666, 
  "Pan@@": 6667, 
  "intuition": 6668, 
  "flash@@": 6669, 
  "fined": 6670, 
  "translated": 6671, 
  "ectors": 6672, 
  "lor@@": 6673, 
  "commis@@": 6674, 
  "cham@@": 6675, 
  "aug@@": 6676, 
  "males": 6677, 
  "solu@@": 6678, 
  "centr@@": 6679, 
  "Blue": 6680, 
  "lions": 6681, 
  "lap": 6682, 
  "enced": 6683, 
  "angu@@": 6684, 
  "6,000": 6685, 
  "zero-sum": 6686, 
  "part@@": 6687, 
  "Put": 6688, 
  "dary": 6689, 
  "tumors": 6690, 
  "preserve": 6691, 
  "pretend": 6692, 
  "salt": 6693, 
  "Jack": 6694, 
  "airport": 6695, 
  "Hon@@": 6696, 
  "admi@@": 6697, 
  "za": 6698, 
  "affects": 6699, 
  "extend": 6700, 
  "insul@@": 6701, 
  "suspect": 6702, 
  "enables": 6703, 
  "internet": 6704, 
  "immen@@": 6705, 
  "spor@@": 6706, 
  "Peace": 6707, 
  "gen": 6708, 
  "secrets": 6709, 
  "agreement": 6710, 
  "tiz@@": 6711, 
  "territ@@": 6712, 
  "prediction": 6713, 
  "boom": 6714, 
  "dropping": 6715, 
  "expansion": 6716, 
  "49": 6717, 
  "pigs": 6718, 
  "uncertainty": 6719, 
  "rivers": 6720, 
  "slavery": 6721, 
  "osphere": 6722, 
  "planes": 6723, 
  "fant@@": 6724, 
  "36": 6725, 
  "comment": 6726, 
  "flag": 6727, 
  "collapsed": 6728, 
  "deserve": 6729, 
  "pairs": 6730, 
  "simulation": 6731, 
  "smarter": 6732, 
  "ll@@": 6733, 
  "tering": 6734, 
  "delivery": 6735, 
  "garbage": 6736, 
  "primarily": 6737, 
  "uncomfortable": 6738, 
  "deliber@@": 6739, 
  "bes": 6740, 
  "Lou@@": 6741, 
  "trains": 6742, 
  "orb@@": 6743, 
  "ego": 6744, 
  "1980s": 6745, 
  "expertise": 6746, 
  "temporary": 6747, 
  "Saudi": 6748, 
  "audio": 6749, 
  "secre@@": 6750, 
  "airplanes": 6751, 
  "shit": 6752, 
  "Ds": 6753, 
  "copes": 6754, 
  "recon@@": 6755, 
  "recover": 6756, 
  "gaps": 6757, 
  "vement": 6758, 
  "ectively": 6759, 
  "dele@@": 6760, 
  "amate@@": 6761, 
  "individu@@": 6762, 
  "ushed": 6763, 
  "dated": 6764, 
  "aqu@@": 6765, 
  "physi@@": 6766, 
  "sauce": 6767, 
  "kick": 6768, 
  "esting": 6769, 
  "apar@@": 6770, 
  "bla@@": 6771, 
  "bor": 6772, 
  "reducing": 6773, 
  "intr@@": 6774, 
  "ece": 6775, 
  "instantly": 6776, 
  "SS": 6777, 
  "elderly": 6778, 
  "resp@@": 6779, 
  "improving": 6780, 
  "rement": 6781, 
  "tu": 6782, 
  "certi@@": 6783, 
  "waters": 6784, 
  "ban": 6785, 
  "tar@@": 6786, 
  "vice": 6787, 
  "ecological": 6788, 
  "usti@@": 6789, 
  "jew@@": 6790, 
  "wildlife": 6791, 
  "entering": 6792, 
  "adver@@": 6793, 
  "backs": 6794, 
  "si": 6795, 
  "kie": 6796, 
  "substance": 6797, 
  "Tu@@": 6798, 
  "Bob": 6799, 
  "opera": 6800, 
  "trical": 6801, 
  "heart@@": 6802, 
  "club": 6803, 
  "ela": 6804, 
  "magical": 6805, 
  "Russian": 6806, 
  "fragile": 6807, 
  "Phil@@": 6808, 
  "blah": 6809, 
  "atomic": 6810, 
  "ca": 6811, 
  "paras@@": 6812, 
  "Same": 6813, 
  "hunting": 6814, 
  "Pow@@": 6815, 
  "0.@@": 6816, 
  "sal": 6817, 
  "kin": 6818, 
  "translation": 6819, 
  "restric@@": 6820, 
  "bombs": 6821, 
  "Arctic": 6822, 
  "lap@@": 6823, 
  "reti@@": 6824, 
  "mus@@": 6825, 
  "ustice": 6826, 
  "tox@@": 6827, 
  "Fif@@": 6828, 
  "Lincoln": 6829, 
  "Rio": 6830, 
  "attractive": 6831, 
  "Gar@@": 6832, 
  "PA": 6833, 
  "fe": 6834, 
  "fi": 6835, 
  "I.@@": 6836, 
  "throwing": 6837, 
  "offices": 6838, 
  "acle": 6839, 
  "horiz@@": 6840, 
  "factories": 6841, 
  "Talks": 6842, 
  "portra@@": 6843, 
  "sour@@": 6844, 
  "charges": 6845, 
  "quit": 6846, 
  "lion": 6847, 
  "US": 6848, 
  "arities": 6849, 
  "dio": 6850, 
  "versions": 6851, 
  "echnology": 6852, 
  "Bas@@": 6853, 
  "bomb@@": 6854, 
  "reasonable": 6855, 
  "e.html": 6856, 
  "unity": 6857, 
  "proposed": 6858, 
  "Kar@@": 6859, 
  "mysterious": 6860, 
  "representation": 6861, 
  "compelling": 6862, 
  "suffered": 6863, 
  "benef@@": 6864, 
  "phantom": 6865, 
  "econom@@": 6866, 
  "occurs": 6867, 
  "homework": 6868, 
  "tempor@@": 6869, 
  "edly": 6870, 
  "apor@@": 6871, 
  "imagery": 6872, 
  "valu@@": 6873, 
  "ensure": 6874, 
  "trash": 6875, 
  "stret@@": 6876, 
  "parti@@": 6877, 
  "Medic@@": 6878, 
  "skeleton": 6879, 
  "asteroid": 6880, 
  "Eng@@": 6881, 
  "teen": 6882, 
  "girl@@": 6883, 
  "agent": 6884, 
  "unprecedented": 6885, 
  "experiencing": 6886, 
  "ownership": 6887, 
  "ent-@@": 6888, 
  "tackle": 6889, 
  "40@@": 6890, 
  "acies": 6891, 
  "hypothe@@": 6892, 
  "merely": 6893, 
  "exception": 6894, 
  "conven@@": 6895, 
  "ellow": 6896, 
  "vely": 6897, 
  "onathan": 6898, 
  "elephants": 6899, 
  "aching": 6900, 
  "quali@@": 6901, 
  "eman": 6902, 
  "fulness": 6903, 
  "destro@@": 6904, 
  "innocent": 6905, 
  "correc@@": 6906, 
  "threshold": 6907, 
  "intervention": 6908, 
  "employment": 6909, 
  "defe@@": 6910, 
  "restaurants": 6911, 
  "recru@@": 6912, 
  "esthe@@": 6913, 
  "unable": 6914, 
  "ued": 6915, 
  "server": 6916, 
  "widely": 6917, 
  "Listen": 6918, 
  "cin@@": 6919, 
  "vel": 6920, 
  "Turkey": 6921, 
  "Neander@@": 6922, 
  "biologist": 6923, 
  "gradually": 6924, 
  "discovering": 6925, 
  "interpretation": 6926, 
  "hil@@": 6927, 
  "memes": 6928, 
  "engines": 6929, 
  "Stephen": 6930, 
  "need@@": 6931, 
  "offici@@": 6932, 
  "fab@@": 6933, 
  "aggre@@": 6934, 
  "Prot@@": 6935, 
  "susta@@": 6936, 
  "drawings": 6937, 
  "demands": 6938, 
  "facilities": 6939, 
  "vy": 6940, 
  "labs": 6941, 
  "prostate": 6942, 
  "wee@@": 6943, 
  "suffici@@": 6944, 
  "shocked": 6945, 
  "37": 6946, 
  "Lar@@": 6947, 
  "rol@@": 6948, 
  "disgu@@": 6949, 
  "opping": 6950, 
  "procedure": 6951, 
  "osh": 6952, 
  "lihood": 6953, 
  "client": 6954, 
  "Fran@@": 6955, 
  "physician": 6956, 
  "genocide": 6957, 
  "sacred": 6958, 
  "rice": 6959, 
  "Colum@@": 6960, 
  "tower": 6961, 
  "Cu@@": 6962, 
  "warning": 6963, 
  "alls": 6964, 
  "arily": 6965, 
  "shelf": 6966, 
  "manufactur@@": 6967, 
  "dom": 6968, 
  "enterpri@@": 6969, 
  "pie": 6970, 
  "arm@@": 6971, 
  "Mich@@": 6972, 
  "god": 6973, 
  "Vic@@": 6974, 
  "conducted": 6975, 
  "120": 6976, 
  "technolog@@": 6977, 
  "attitude": 6978, 
  "cienti@@": 6979, 
  "fro@@": 6980, 
  "US@@": 6981, 
  "eans": 6982, 
  "elite": 6983, 
  "handed": 6984, 
  "rush": 6985, 
  "mobility": 6986, 
  "contin@@": 6987, 
  "wealthy": 6988, 
  "deb@@": 6989, 
  "vers@@": 6990, 
  "illed": 6991, 
  "ressing": 6992, 
  "hip@@": 6993, 
  "tubes": 6994, 
  "lice": 6995, 
  "las@@": 6996, 
  "2002": 6997, 
  "detailed": 6998, 
  "finger@@": 6999, 
  "audiences": 7000, 
  "wart": 7001, 
  "soup": 7002, 
  "eaten": 7003, 
  "balls": 7004, 
  "gie": 7005, 
  "clo@@": 7006, 
  "colon@@": 7007, 
  "homeless": 7008, 
  "oming": 7009, 
  "database": 7010, 
  "posed": 7011, 
  "catal@@": 7012, 
  "disability": 7013, 
  "covers": 7014, 
  "priv@@": 7015, 
  "plum@@": 7016, 
  "caves": 7017, 
  "astr@@": 7018, 
  "Ven@@": 7019, 
  "conservative": 7020, 
  "Tim": 7021, 
  "prefer@@": 7022, 
  "ver-@@": 7023, 
  "Moon": 7024, 
  "tier": 7025, 
  "competi@@": 7026, 
  "ints": 7027, 
  "burden": 7028, 
  "youn@@": 7029, 
  "dism@@": 7030, 
  "nin@@": 7031, 
  "realizing": 7032, 
  "contem@@": 7033, 
  "flouri@@": 7034, 
  "billi@@": 7035, 
  "mm": 7036, 
  "commit@@": 7037, 
  "rele@@": 7038, 
  "Antarctica": 7039, 
  "tained": 7040, 
  "Point": 7041, 
  "gest@@": 7042, 
  "lean@@": 7043, 
  "seas@@": 7044, 
  "tone": 7045, 
  "command": 7046, 
  "assumption": 7047, 
  "woke": 7048, 
  "ecu@@": 7049, 
  "han": 7050, 
  "mass@@": 7051, 
  "substanti@@": 7052, 
  "stability": 7053, 
  "jugg@@": 7054, 
  "tissues": 7055, 
  "E.@@": 7056, 
  "pir@@": 7057, 
  "contradic@@": 7058, 
  "marks": 7059, 
  "ull": 7060, 
  "Dou@@": 7061, 
  "Santa": 7062, 
  "dose": 7063, 
  "San@@": 7064, 
  "download": 7065, 
  "gathered": 7066, 
  "refer": 7067, 
  "channels": 7068, 
  "December": 7069, 
  "Leonardo": 7070, 
  "blin@@": 7071, 
  "Stop": 7072, 
  "professionals": 7073, 
  "marke@@": 7074, 
  "lit": 7075, 
  "suck": 7076, 
  "Brian": 7077, 
  "cub@@": 7078, 
  "significantly": 7079, 
  "agos": 7080, 
  "devil": 7081, 
  "tsunami": 7082, 
  "eni@@": 7083, 
  "telescope": 7084, 
  "Far@@": 7085, 
  "CE@@": 7086, 
  "gard@@": 7087, 
  "welcome": 7088, 
  "bye": 7089, 
  "symbo@@": 7090, 
  "chr@@": 7091, 
  "grow@@": 7092, 
  "keyboard": 7093, 
  "dressed": 7094, 
  "chances": 7095, 
  "Bl@@": 7096, 
  "judgment": 7097, 
  "uality": 7098, 
  "breakfast": 7099, 
  "Third": 7100, 
  "remaining": 7101, 
  "beneath": 7102, 
  "pets": 7103, 
  "Global": 7104, 
  "fear@@": 7105, 
  "dex": 7106, 
  "habit": 7107, 
  "renew@@": 7108, 
  "generous": 7109, 
  "genetically": 7110, 
  "reveals": 7111, 
  "publish": 7112, 
  "inal": 7113, 
  "motor@@": 7114, 
  "band@@": 7115, 
  "jumped": 7116, 
  "Technology": 7117, 
  "explosion": 7118, 
  "optimi@@": 7119, 
  "anxiety": 7120, 
  "ache": 7121, 
  "mentation": 7122, 
  "initially": 7123, 
  "bulb": 7124, 
  "impul@@": 7125, 
  "extension": 7126, 
  "ooth@@": 7127, 
  "profoundly": 7128, 
  "incentive": 7129, 
  "fresh@@": 7130, 
  "Dutch": 7131, 
  "Ray": 7132, 
  "20-@@": 7133, 
  "beating": 7134, 
  "Koran": 7135, 
  "ularly": 7136, 
  "mega@@": 7137, 
  "presents": 7138, 
  "Talk": 7139, 
  "obs": 7140, 
  "uplo@@": 7141, 
  "Mur@@": 7142, 
  "titude": 7143, 
  "terribly": 7144, 
  "besides": 7145, 
  "inate": 7146, 
  "Sunday": 7147, 
  "acre": 7148, 
  "lighten@@": 7149, 
  "illustrate": 7150, 
  "Daniel": 7151, 
  "Homo": 7152, 
  "incre@@": 7153, 
  "vegetables": 7154, 
  "provi@@": 7155, 
  "worms": 7156, 
  "targets": 7157, 
  "spher@@": 7158, 
  "friend@@": 7159, 
  "fibers": 7160, 
  "phys@@": 7161, 
  "influenced": 7162, 
  "wan@@": 7163, 
  "deaf": 7164, 
  "canopy": 7165, 
  "witness": 7166, 
  "Johnson": 7167, 
  "forgot": 7168, 
  "rations": 7169, 
  "capabilities": 7170, 
  "passenger": 7171, 
  "comparison": 7172, 
  "short@@": 7173, 
  "uncle": 7174, 
  "know@@": 7175, 
  "pockets": 7176, 
  "slic@@": 7177, 
  "Sir": 7178, 
  "farming": 7179, 
  "pointing": 7180, 
  "knoc@@": 7181, 
  "ptions": 7182, 
  "Was": 7183, 
  "puzzles": 7184, 
  "bed@@": 7185, 
  "phony": 7186, 
  "V-@@": 7187, 
  "College": 7188, 
  "distor@@": 7189, 
  "stine": 7190, 
  "agre@@": 7191, 
  "odds": 7192, 
  "Whereas": 7193, 
  "gger": 7194, 
  "cel@@": 7195, 
  "badly": 7196, 
  "oli@@": 7197, 
  "fastest": 7198, 
  "dir@@": 7199, 
  "exhi@@": 7200, 
  "Shanghai": 7201, 
  "accounts": 7202, 
  "aer@@": 7203, 
  "ona": 7204, 
  "cuts": 7205, 
  "10-@@": 7206, 
  "sandwich": 7207, 
  "crit@@": 7208, 
  "guns": 7209, 
  "terrorists": 7210, 
  "bats": 7211, 
  "terrifying": 7212, 
  "miserable": 7213, 
  "amaz@@": 7214, 
  "Lab": 7215, 
  "egg": 7216, 
  "potent": 7217, 
  "funds": 7218, 
  "Gover@@": 7219, 
  "habits": 7220, 
  "boats": 7221, 
  "auth@@": 7222, 
  "tragic": 7223, 
  "timacy": 7224, 
  "advi@@": 7225, 
  "aters": 7226, 
  "damn": 7227, 
  "forest@@": 7228, 
  "tate": 7229, 
  "coura@@": 7230, 
  "cosmic": 7231, 
  "short-@@": 7232, 
  "Off@@": 7233, 
  "storage": 7234, 
  "entropy": 7235, 
  "repres@@": 7236, 
  "ende@@": 7237, 
  "seeking": 7238, 
  "believes": 7239, 
  "partly": 7240, 
  "steal": 7241, 
  "simul@@": 7242, 
  "performed": 7243, 
  "demographic": 7244, 
  "nee@@": 7245, 
  "ising": 7246, 
  "ree": 7247, 
  "reven@@": 7248, 
  "Phot@@": 7249, 
  "altitude": 7250, 
  "commerci@@": 7251, 
  "analogy": 7252, 
  "of-@@": 7253, 
  "victim": 7254, 
  "jected": 7255, 
  "environ@@": 7256, 
  "reflection": 7257, 
  "grandparents": 7258, 
  "gorgeous": 7259, 
  "defining": 7260, 
  "venture": 7261, 
  "chn@@": 7262, 
  "geometry": 7263, 
  "ott@@": 7264, 
  "tational": 7265, 
  "book@@": 7266, 
  "Sen@@": 7267, 
  "Vietnam": 7268, 
  "nar@@": 7269, 
  "profile": 7270, 
  "documents": 7271, 
  "less@@": 7272, 
  "quad@@": 7273, 
  "burned": 7274, 
  "guid@@": 7275, 
  "established": 7276, 
  "semin@@": 7277, 
  "freely": 7278, 
  "authorities": 7279, 
  "adapted": 7280, 
  "gentleman": 7281, 
  "lad@@": 7282, 
  "approaches": 7283, 
  "phenomena": 7284, 
  "simultaneously": 7285, 
  "impression": 7286, 
  "philosopher": 7287, 
  "pursuit": 7288, 
  "mast@@": 7289, 
  "participation": 7290, 
  "sci@@": 7291, 
  "highway": 7292, 
  "leather": 7293, 
  "Sher@@": 7294, 
  "oo": 7295, 
  "Taliban": 7296, 
  "tural": 7297, 
  "vable": 7298, 
  "Secondly": 7299, 
  "strongly": 7300, 
  "first-@@": 7301, 
  "urge": 7302, 
  "Can@@": 7303, 
  "mature": 7304, 
  "improved": 7305, 
  "instant": 7306, 
  "resc@@": 7307, 
  "exha@@": 7308, 
  "opa@@": 7309, 
  "origins": 7310, 
  "earliest": 7311, 
  "prisoners": 7312, 
  "Sorry": 7313, 
  "esia": 7314, 
  "isolated": 7315, 
  "inted": 7316, 
  "manipul@@": 7317, 
  "demy": 7318, 
  "prac@@": 7319, 
  "rings": 7320, 
  "hydro@@": 7321, 
  "kinson": 7322, 
  "objective": 7323, 
  "emo@@": 7324, 
  "bile": 7325, 
  "sia": 7326, 
  "strateg@@": 7327, 
  "98": 7328, 
  "smallest": 7329, 
  "fund@@": 7330, 
  "estimates": 7331, 
  "propose": 7332, 
  "administration": 7333, 
  "comic": 7334, 
  "threatened": 7335, 
  "endangered": 7336, 
  "unhappy": 7337, 
  "Jeff": 7338, 
  "arguing": 7339, 
  "medication": 7340, 
  "confused": 7341, 
  "tum@@": 7342, 
  "aband@@": 7343, 
  "schizophrenia": 7344, 
  "interior": 7345, 
  "included": 7346, 
  "cancers": 7347, 
  "convenient": 7348, 
  "compre@@": 7349, 
  "Spanish": 7350, 
  ",000-@@": 7351, 
  "nuts": 7352, 
  "destiny": 7353, 
  "shment": 7354, 
  "realistic": 7355, 
  "clothing": 7356, 
  "locks": 7357, 
  "Sam@@": 7358, 
  "supplies": 7359, 
  "aim@@": 7360, 
  "Benjamin": 7361, 
  "mand@@": 7362, 
  "vering": 7363, 
  "empowered": 7364, 
  "bureauc@@": 7365, 
  "yourselves": 7366, 
  "packed": 7367, 
  "eping": 7368, 
  "rimin@@": 7369, 
  "Prob@@": 7370, 
  "tap@@": 7371, 
  "honey": 7372, 
  "loaded": 7373, 
  "craw@@": 7374, 
  "thre@@": 7375, 
  "enty-@@": 7376, 
  "ashed": 7377, 
  "fos@@": 7378, 
  "nutrients": 7379, 
  "public@@": 7380, 
  "signature": 7381, 
  "exposure": 7382, 
  "trigg@@": 7383, 
  "bend": 7384, 
  "mill": 7385, 
  "Cur@@": 7386, 
  "Hong": 7387, 
  "previously": 7388, 
  "alistic": 7389, 
  "Nelson": 7390, 
  "reefs": 7391, 
  "jet": 7392, 
  "surgeons": 7393, 
  "traits": 7394, 
  "pric@@": 7395, 
  "Dad": 7396, 
  "cylin@@": 7397, 
  "ploy": 7398, 
  "NGOs": 7399, 
  "drew": 7400, 
  "Kevin": 7401, 
  "optim@@": 7402, 
  "beautifully": 7403, 
  "Ari@@": 7404, 
  "buc@@": 7405, 
  "Develop@@": 7406, 
  "rig@@": 7407, 
  "Italian": 7408, 
  "lished": 7409, 
  "Bos@@": 7410, 
  "spea@@": 7411, 
  "epide@@": 7412, 
  "icking": 7413, 
  "iter": 7414, 
  "mathematicians": 7415, 
  "bat": 7416, 
  "anding": 7417, 
  "cious": 7418, 
  "Delhi": 7419, 
  "someday": 7420, 
  "Secre@@": 7421, 
  "fancy": 7422, 
  "intensive": 7423, 
  "helpful": 7424, 
  "remained": 7425, 
  "plates": 7426, 
  "inven@@": 7427, 
  "&apos;clock": 7428, 
  "esthetic": 7429, 
  "prosthetic": 7430, 
  "six@@": 7431, 
  "dos@@": 7432, 
  "Mary": 7433, 
  "colored": 7434, 
  "lex@@": 7435, 
  "soldier": 7436, 
  "gods": 7437, 
  "ature": 7438, 
  "rub@@": 7439, 
  "excl@@": 7440, 
  "iler": 7441, 
  "Zero": 7442, 
  "fashi@@": 7443, 
  "drop@@": 7444, 
  "tum": 7445, 
  "ignored": 7446, 
  "corporations": 7447, 
  "spill": 7448, 
  "bial": 7449, 
  "invest@@": 7450, 
  "time-@@": 7451, 
  "obstacles": 7452, 
  "ubiquitous": 7453, 
  "assets": 7454, 
  "ounding": 7455, 
  "190@@": 7456, 
  "infections": 7457, 
  "tables": 7458, 
  "errors": 7459, 
  "20s": 7460, 
  "dominated": 7461, 
  "Bel@@": 7462, 
  "proven": 7463, 
  "branch": 7464, 
  "dist@@": 7465, 
  "claims": 7466, 
  "blown": 7467, 
  "terrain": 7468, 
  "courses": 7469, 
  "convert": 7470, 
  "lining": 7471, 
  "conductor": 7472, 
  "gases": 7473, 
  "Detro@@": 7474, 
  "threats": 7475, 
  "ala": 7476, 
  "approaching": 7477, 
  "Friday": 7478, 
  "IS@@": 7479, 
  "embr@@": 7480, 
  "squee@@": 7481, 
  "nearby": 7482, 
  "span": 7483, 
  "Aristot@@": 7484, 
  "despair": 7485, 
  "navigate": 7486, 
  "bun@@": 7487, 
  "matically": 7488, 
  "Up": 7489, 
  "butt@@": 7490, 
  "illustr@@": 7491, 
  "counting": 7492, 
  "wash@@": 7493, 
  "proportion": 7494, 
  "occasionally": 7495, 
  "visions": 7496, 
  "volunteer": 7497, 
  "ety": 7498, 
  "competitive": 7499, 
  "ria": 7500, 
  "ound@@": 7501, 
  "peoples": 7502, 
  "grasp": 7503, 
  "Sil@@": 7504, 
  "juven@@": 7505, 
  "Ko@@": 7506, 
  "len": 7507, 
  "proble@@": 7508, 
  "categories": 7509, 
  "reactor": 7510, 
  "decre@@": 7511, 
  "cele@@": 7512, 
  "preparing": 7513, 
  "circuits": 7514, 
  "civilizations": 7515, 
  "vagina": 7516, 
  "96": 7517, 
  "leap": 7518, 
  "district": 7519, 
  "dating": 7520, 
  "lake": 7521, 
  "frustrated": 7522, 
  "Wait": 7523, 
  "40,000": 7524, 
  "met@@": 7525, 
  "ticket": 7526, 
  "Hol@@": 7527, 
  "anity": 7528, 
  "explored": 7529, 
  "annual": 7530, 
  "voting": 7531, 
  "Spain": 7532, 
  "troops": 7533, 
  "Feynman": 7534, 
  "sensor": 7535, 
  "shy": 7536, 
  "Med@@": 7537, 
  "parenting": 7538, 
  "ar-@@": 7539, 
  "sors": 7540, 
  "Mike": 7541, 
  "Sus@@": 7542, 
  "mix@@": 7543, 
  "approved": 7544, 
  "rais@@": 7545, 
  "appearance": 7546, 
  "wandering": 7547, 
  "ouring": 7548, 
  "pig@@": 7549, 
  "urable": 7550, 
  "electro@@": 7551, 
  "sizes": 7552, 
  "corpor@@": 7553, 
  "ester": 7554, 
  "farms": 7555, 
  "phosphorus": 7556, 
  "knowle@@": 7557, 
  "lists": 7558, 
  "g-@@": 7559, 
  "wheels": 7560, 
  "strike": 7561, 
  "six-@@": 7562, 
  "On@@": 7563, 
  "-based": 7564, 
  "fertiliz@@": 7565, 
  "ski": 7566, 
  "dential": 7567, 
  "cotton": 7568, 
  "Mul@@": 7569, 
  "fem@@": 7570, 
  "founder": 7571, 
  "Gand@@": 7572, 
  "Q": 7573, 
  "ld": 7574, 
  "challenged": 7575, 
  "correctly": 7576, 
  "pause": 7577, 
  "oral": 7578, 
  "termin@@": 7579, 
  "eyed": 7580, 
  "difficulty": 7581, 
  "package": 7582, 
  "dopamine": 7583, 
  "immig@@": 7584, 
  "expecting": 7585, 
  "subur@@": 7586, 
  "lli@@": 7587, 
  "posted": 7588, 
  "hired": 7589, 
  "claim@@": 7590, 
  "les@@": 7591, 
  "scenario": 7592, 
  "asses": 7593, 
  "31": 7594, 
  "straightforward": 7595, 
  "vil": 7596, 
  "passive": 7597, 
  "glamour": 7598, 
  "landscapes": 7599, 
  "file": 7600, 
  "wheat": 7601, 
  "pizza": 7602, 
  "colonies": 7603, 
  "30-@@": 7604, 
  "rot": 7605, 
  "occup@@": 7606, 
  "hormone": 7607, 
  "continents": 7608, 
  "Stage": 7609, 
  "anni@@": 7610, 
  "dor": 7611, 
  "silver": 7612, 
  "queen": 7613, 
  "controversial": 7614, 
  "perceived": 7615, 
  "bored": 7616, 
  "suspended": 7617, 
  "vors": 7618, 
  "ids": 7619, 
  "dged": 7620, 
  "carto@@": 7621, 
  "ods": 7622, 
  "sni@@": 7623, 
  "neys": 7624, 
  "200@@": 7625, 
  "April": 7626, 
  "invested": 7627, 
  "personalized": 7628, 
  "glob@@": 7629, 
  "34": 7630, 
  "elementary": 7631, 
  "achievement": 7632, 
  "interviewed": 7633, 
  "transforming": 7634, 
  "installed": 7635, 
  "Franc@@": 7636, 
  "hybri@@": 7637, 
  "Air": 7638, 
  "rupt": 7639, 
  "dictionary": 7640, 
  "astronomy": 7641, 
  "Loo@@": 7642, 
  "kel@@": 7643, 
  "managers": 7644, 
  "conserv@@": 7645, 
  "horizon": 7646, 
  "Fer@@": 7647, 
  "lication": 7648, 
  "blank": 7649, 
  "ecology": 7650, 
  "Hans": 7651, 
  "sustain": 7652, 
  "yield": 7653, 
  "pigeon": 7654, 
  "ttle": 7655, 
  "neck": 7656, 
  "transpor@@": 7657, 
  "explic@@": 7658, 
  "esday": 7659, 
  "vivi@@": 7660, 
  "veter@@": 7661, 
  "ascul@@": 7662, 
  "Until": 7663, 
  "anal@@": 7664, 
  "Arabic": 7665, 
  "stepped": 7666, 
  "tast@@": 7667, 
  "buses": 7668, 
  "completed": 7669, 
  "world@@": 7670, 
  "La": 7671, 
  "kidney": 7672, 
  "inventor": 7673, 
  "toes": 7674, 
  "supporting": 7675, 
  "dot@@": 7676, 
  "reha@@": 7677, 
  "rous": 7678, 
  "Coke": 7679, 
  "ritu@@": 7680, 
  "addy": 7681, 
  "hemisphere": 7682, 
  "lanes": 7683, 
  "een": 7684, 
  "dilemma": 7685, 
  "doms": 7686, 
  "gear": 7687, 
  "assemble": 7688, 
  "peaceful": 7689, 
  "Ale@@": 7690, 
  "label": 7691, 
  "resses": 7692, 
  "machin@@": 7693, 
  "penguin": 7694, 
  "scanning": 7695, 
  "aim": 7696, 
  "unic@@": 7697, 
  "kably": 7698, 
  "uba": 7699, 
  "precious": 7700, 
  "propag@@": 7701, 
  "3.@@": 7702, 
  "ecraft": 7703, 
  "over-@@": 7704, 
  "fallen": 7705, 
  "column": 7706, 
  "motivated": 7707, 
  "anten@@": 7708, 
  "whol@@": 7709, 
  "Afgh@@": 7710, 
  "labor@@": 7711, 
  "constraints": 7712, 
  "applying": 7713, 
  "there@@": 7714, 
  "controll@@": 7715, 
  "ethnic": 7716, 
  "Am": 7717, 
  "them@@": 7718, 
  "pride": 7719, 
  "mim@@": 7720, 
  "middle-@@": 7721, 
  "metaboli@@": 7722, 
  "zones": 7723, 
  "cooper@@": 7724, 
  "Pra@@": 7725, 
  "prevention": 7726, 
  "nerves": 7727, 
  "Professor": 7728, 
  "pap@@": 7729, 
  "worrying": 7730, 
  "excitement": 7731, 
  "appro@@": 7732, 
  "bin": 7733, 
  "check@@": 7734, 
  "Hawai@@": 7735, 
  "atter": 7736, 
  "essions": 7737, 
  "resem@@": 7738, 
  "Mandela": 7739, 
  "Spr@@": 7740, 
  "cosm@@": 7741, 
  "cand@@": 7742, 
  "remot@@": 7743, 
  "Haw@@": 7744, 
  "survived": 7745, 
  "verage": 7746, 
  "Using": 7747, 
  "limitations": 7748, 
  "structural": 7749, 
  "headlines": 7750, 
  "terror@@": 7751, 
  "failures": 7752, 
  "continuing": 7753, 
  "64": 7754, 
  "aph@@": 7755, 
  "St.": 7756, 
  "believing": 7757, 
  "bedroom": 7758, 
  "hat": 7759, 
  "ima@@": 7760, 
  "thetic": 7761, 
  "dium": 7762, 
  "historically": 7763, 
  "Tasman@@": 7764, 
  "nob@@": 7765, 
  "Indon@@": 7766, 
  "household": 7767, 
  "ongoing": 7768, 
  "Love": 7769, 
  "native": 7770, 
  "world-@@": 7771, 
  "closest": 7772, 
  "pling": 7773, 
  "sir": 7774, 
  "frightening": 7775, 
  "wooden": 7776, 
  "ambigu@@": 7777, 
  "requi@@": 7778, 
  "sibility": 7779, 
  "folds": 7780, 
  "Islands": 7781, 
  "Min@@": 7782, 
  "branches": 7783, 
  "yan": 7784, 
  "sever@@": 7785, 
  "Lo@@": 7786, 
  "expressions": 7787, 
  "manipulate": 7788, 
  "pit": 7789, 
  "targe@@": 7790, 
  "log": 7791, 
  "blindness": 7792, 
  "concert": 7793, 
  "enemies": 7794, 
  "Mont@@": 7795, 
  "pale@@": 7796, 
  "abor@@": 7797, 
  "mechanics": 7798, 
  "acid": 7799, 
  "extraordinarily": 7800, 
  "ogen@@": 7801, 
  "Bor@@": 7802, 
  "mosquitos": 7803, 
  "bration": 7804, 
  "commit": 7805, 
  "camps": 7806, 
  "matrix": 7807, 
  "distances": 7808, 
  "offering": 7809, 
  "Palestini@@": 7810, 
  "Whatever": 7811, 
  "woods": 7812, 
  "gained": 7813, 
  "initiative": 7814, 
  "dam": 7815, 
  "antibiotics": 7816, 
  "Archi@@": 7817, 
  "palm": 7818, 
  "lingu@@": 7819, 
  "valley": 7820, 
  "electron": 7821, 
  "fing": 7822, 
  "sof@@": 7823, 
  "employ@@": 7824, 
  "Mol@@": 7825, 
  "purposes": 7826, 
  "rhythm": 7827, 
  "Except": 7828, 
  "vessel": 7829, 
  "libr@@": 7830, 
  "orities": 7831, 
  "aggressive": 7832, 
  "bound@@": 7833, 
  "alcohol": 7834, 
  "ather": 7835, 
  "ffs": 7836, 
  "crop": 7837, 
  "expedition": 7838, 
  "pene@@": 7839, 
  "tification": 7840, 
  "nutri@@": 7841, 
  "listened": 7842, 
  "plastics": 7843, 
  "ogram": 7844, 
  "diarrhe@@": 7845, 
  "encouraging": 7846, 
  "dolphins": 7847, 
  "anna": 7848, 
  "locations": 7849, 
  "tee": 7850, 
  "gras": 7851, 
  "atures": 7852, 
  "HI@@": 7853, 
  "home@@": 7854, 
  "smiling": 7855, 
  "chit@@": 7856, 
  "calories": 7857, 
  "coin": 7858, 
  "stair@@": 7859, 
  "seem@@": 7860, 
  "trace": 7861, 
  "grades": 7862, 
  "pati@@": 7863, 
  "Gor@@": 7864, 
  "+": 7865, 
  "tra": 7866, 
  "won@@": 7867, 
  "neuroscienti@@": 7868, 
  "anat@@": 7869, 
  "Abraham": 7870, 
  "powering": 7871, 
  "smoking": 7872, 
  "Star": 7873, 
  "absence": 7874, 
  "replaced": 7875, 
  "lau@@": 7876, 
  "surrounding": 7877, 
  "adequ@@": 7878, 
  "stric@@": 7879, 
  "ules": 7880, 
  "etti": 7881, 
  "hardest": 7882, 
  "cart": 7883, 
  "Queen": 7884, 
  "Pic@@": 7885, 
  "Swiss": 7886, 
  "rain@@": 7887, 
  "biolumin@@": 7888, 
  "Jones": 7889, 
  "Southern": 7890, 
  "wires": 7891, 
  "spra@@": 7892, 
  "avo@@": 7893, 
  "blowing": 7894, 
  "partnership": 7895, 
  "L.A.": 7896, 
  "Educ@@": 7897, 
  "eye@@": 7898, 
  "intrins@@": 7899, 
  "threat@@": 7900, 
  "kingdom": 7901, 
  "mushroom": 7902, 
  "nanot@@": 7903, 
  "storyt@@": 7904, 
  "lungs": 7905, 
  "ule": 7906, 
  "tism": 7907, 
  "eting": 7908, 
  "sensation": 7909, 
  "icial": 7910, 
  "magnitude": 7911, 
  "masses": 7912, 
  "sixth": 7913, 
  "actively": 7914, 
  "socially": 7915, 
  "guarantee": 7916, 
  "gos": 7917, 
  "bite": 7918, 
  "cleaning": 7919, 
  "System": 7920, 
  "citizen": 7921, 
  "dough": 7922, 
  "classi@@": 7923, 
  "vacc@@": 7924, 
  "bulbs": 7925, 
  "cliff": 7926, 
  "mos": 7927, 
  "scratch": 7928, 
  "uries": 7929, 
  "jazz": 7930, 
  "gesture": 7931, 
  "sub-Saharan": 7932, 
  "venti@@": 7933, 
  "profession": 7934, 
  "Bangladesh": 7935, 
  "newspapers": 7936, 
  "SETI": 7937, 
  "ara": 7938, 
  "arians": 7939, 
  "ousness": 7940, 
  "digi@@": 7941, 
  "age-@@": 7942, 
  "Both": 7943, 
  "Cana@@": 7944, 
  "writ@@": 7945, 
  "safer": 7946, 
  "ampli@@": 7947, 
  "ections": 7948, 
  "catching": 7949, 
  "Anyone": 7950, 
  "eight-@@": 7951, 
  "assignment": 7952, 
  "logo": 7953, 
  "physicists": 7954, 
  "Suddenly": 7955, 
  "manual": 7956, 
  "planetary": 7957, 
  "high-tech": 7958, 
  "formula": 7959, 
  "supermarket": 7960, 
  "batteries": 7961, 
  "technically": 7962, 
  "leaf": 7963, 
  "laptops": 7964, 
  "sake": 7965, 
  "Buddh@@": 7966, 
  "dawn": 7967, 
  "coat": 7968, 
  "mathematician": 7969, 
  "Larry": 7970, 
  "March": 7971, 
  "off-@@": 7972, 
  "Aca@@": 7973, 
  "susp@@": 7974, 
  "concentration": 7975, 
  "activist": 7976, 
  "itch@@": 7977, 
  "pills": 7978, 
  "bean": 7979, 
  "upside": 7980, 
  "JH": 7981, 
  "ye": 7982, 
  "competing": 7983, 
  "nonprofit": 7984, 
  "sha": 7985, 
  "luxury": 7986, 
  "myth@@": 7987, 
  "human-@@": 7988, 
  "diameter": 7989, 
  "Youn@@": 7990, 
  "cap": 7991, 
  "prepar@@": 7992, 
  "slums": 7993, 
  "unt": 7994, 
  "minimum": 7995, 
  "narratives": 7996, 
  "Silicon": 7997, 
  "activate": 7998, 
  "hard@@": 7999, 
  "large-@@": 8000, 
  "marketplace": 8001, 
  "nation@@": 8002, 
  "devi@@": 8003, 
  "November": 8004, 
  "un-@@": 8005, 
  "eg@@": 8006, 
  "Anybody": 8007, 
  "iz": 8008, 
  "bee@@": 8009, 
  "Jane": 8010, 
  "illu@@": 8011, 
  "hopes": 8012, 
  "civili@@": 8013, 
  "stretch": 8014, 
  "renewable": 8015, 
  "panel": 8016, 
  "musician": 8017, 
  "a-half": 8018, 
  "microph@@": 8019, 
  "inevitably": 8020, 
  "Hall": 8021, 
  "suff@@": 8022, 
  "decision-making": 8023, 
  "reserves": 8024, 
  "1990": 8025, 
  "downtown": 8026, 
  "athan": 8027, 
  "democr@@": 8028, 
  "elabor@@": 8029, 
  "2050": 8030, 
  "infin@@": 8031, 
  "robotics": 8032, 
  "fate": 8033, 
  "Mum@@": 8034, 
  "wore": 8035, 
  "artic@@": 8036, 
  "islands": 8037, 
  "affecting": 8038, 
  "privileg@@": 8039, 
  "div@@": 8040, 
  "50@@": 8041, 
  "Almost": 8042, 
  "trivi@@": 8043, 
  "grant": 8044, 
  "differenti@@": 8045, 
  "dang@@": 8046, 
  "organiz@@": 8047, 
  "poor@@": 8048, 
  "installation": 8049, 
  "awk@@": 8050, 
  "magne@@": 8051, 
  "thwest": 8052, 
  "pted": 8053, 
  "equi@@": 8054, 
  "smart@@": 8055, 
  "estate": 8056, 
  "nov@@": 8057, 
  "mimic": 8058, 
  "residents": 8059, 
  "ly-@@": 8060, 
  "thumb": 8061, 
  "attitudes": 8062, 
  "Compu@@": 8063, 
  "excuse": 8064, 
  "syl@@": 8065, 
  "ania": 8066, 
  "Wright": 8067, 
  "Tel@@": 8068, 
  "excellent": 8069, 
  "campaig@@": 8070, 
  "breakthrough": 8071, 
  "kness": 8072, 
  "anno@@": 8073, 
  "theast": 8074, 
  "Shar@@": 8075, 
  "tless": 8076, 
  "glacier": 8077, 
  "inge": 8078, 
  "magnificent": 8079, 
  "anny": 8080, 
  "copic": 8081, 
  "acceptable": 8082, 
  "scenes": 8083, 
  "simpler": 8084, 
  "denti@@": 8085, 
  "employed": 8086, 
  "edom": 8087, 
  "intensity": 8088, 
  "Watson": 8089, 
  "green@@": 8090, 
  "38": 8091, 
  "variations": 8092, 
  "gated": 8093, 
  "Libr@@": 8094, 
  "manufac@@": 8095, 
  "integra@@": 8096, 
  "proposal": 8097, 
  "pharmaceutical": 8098, 
  "advances": 8099, 
  "August": 8100, 
  "suits": 8101, 
  "Beijing": 8102, 
  "occurring": 8103, 
  "kindness": 8104, 
  "Camer@@": 8105, 
  "TEDTalk": 8106, 
  "Industrial": 8107, 
  "prosperity": 8108, 
  "reach@@": 8109, 
  "visualization": 8110, 
  "civic": 8111, 
  "meals": 8112, 
  "Joshua": 8113, 
  "lers": 8114, 
  "lowest": 8115, 
  "recipe": 8116, 
  "publishing": 8117, 
  "dumb": 8118, 
  "classrooms": 8119, 
  "keepers": 8120, 
  "disabled": 8121, 
  "Pit@@": 8122, 
  "catastroph@@": 8123, 
  "rail@@": 8124, 
  "July": 8125, 
  "roun@@": 8126, 
  "tel": 8127, 
  "glue": 8128, 
  "electrodes": 8129, 
  "pair@@": 8130, 
  "bos@@": 8131, 
  "lyn": 8132, 
  "healing": 8133, 
  "follows": 8134, 
  "demos": 8135, 
  "cricket": 8136, 
  "crew": 8137, 
  "calculations": 8138, 
  "phenomen@@": 8139, 
  "Icel@@": 8140, 
  "Donald": 8141, 
  "chil@@": 8142, 
  "Sel@@": 8143, 
  "del": 8144, 
  "inks": 8145, 
  "acous@@": 8146, 
  "tz": 8147, 
  "navi@@": 8148, 
  "evolving": 8149, 
  "wrap": 8150, 
  "Child": 8151, 
  "struction": 8152, 
  "harmful": 8153, 
  "cust@@": 8154, 
  "Tanzania": 8155, 
  "educate": 8156, 
  "deals": 8157, 
  "elegant": 8158, 
  "streams": 8159, 
  "vis@@": 8160, 
  "retirement": 8161, 
  "clinics": 8162, 
  "consist@@": 8163, 
  "Hor@@": 8164, 
  "foundations": 8165, 
  "texting": 8166, 
  "approxim@@": 8167, 
  "patents": 8168, 
  "additional": 8169, 
  "rainforest": 8170, 
  "Spe@@": 8171, 
  "During": 8172, 
  "senti@@": 8173, 
  "hood": 8174, 
  "loads": 8175, 
  "authentic": 8176, 
  "portrait": 8177, 
  "42": 8178, 
  "augh@@": 8179, 
  "mood": 8180, 
  "impressive": 8181, 
  "remin@@": 8182, 
  "Pu@@": 8183, 
  "comics": 8184, 
  "equations": 8185, 
  "distinct": 8186, 
  "fies": 8187, 
  "stoc@@": 8188, 
  "fortunately": 8189, 
  "pad": 8190, 
  "Ever@@": 8191, 
  "digit": 8192, 
  "44": 8193, 
  "LG": 8194, 
  "drops": 8195, 
  "Happ@@": 8196, 
  "strands": 8197, 
  "integrate": 8198, 
  "intriguing": 8199, 
  "ights": 8200, 
  "inger": 8201, 
  "Church": 8202, 
  "esi@@": 8203, 
  "ushing": 8204, 
  "Alexander": 8205, 
  "jihad": 8206, 
  "hop": 8207, 
  "pregn@@": 8208, 
  "200,000": 8209, 
  "43": 8210, 
  "donor": 8211, 
  "hope@@": 8212, 
  "ing.html": 8213, 
  "ginia": 8214, 
  "onist": 8215, 
  "shoul@@": 8216, 
  "thus": 8217, 
  "utterly": 8218, 
  "ouse": 8219, 
  "rope": 8220, 
  "infec@@": 8221, 
  "fically": 8222, 
  "rubber": 8223, 
  "anks": 8224, 
  "cigare@@": 8225, 
  "0,000": 8226, 
  "Israeli": 8227, 
  "concentrated": 8228, 
  "glimpse": 8229, 
  "Security": 8230, 
  "epis@@": 8231, 
  "low-cost": 8232, 
  "illance": 8233, 
  "probe": 8234, 
  "devastating": 8235, 
  "teles@@": 8236, 
  "dation": 8237, 
  "ultras@@": 8238, 
  "half@@": 8239, 
  "Force": 8240, 
  "lifted": 8241, 
  "sman": 8242, 
  "dun@@": 8243, 
  "estors": 8244, 
  "bottom@@": 8245, 
  "see@@": 8246, 
  "authen@@": 8247, 
  "T.": 8248, 
  "ele@@": 8249, 
  "erous": 8250, 
  "kne@@": 8251, 
  "wol@@": 8252, 
  "97": 8253, 
  "gres@@": 8254, 
  "rea@@": 8255, 
  "mush@@": 8256, 
  "marath@@": 8257, 
  "titu@@": 8258, 
  "86": 8259, 
  "bic@@": 8260, 
  "ellows": 8261, 
  "alpha@@": 8262, 
  "knife": 8263, 
  "nis": 8264, 
  "Coll@@": 8265, 
  "Clinton": 8266, 
  "é": 8267, 
  "osy@@": 8268, 
  "B.": 8269, 
  "safe@@": 8270, 
  "ig": 8271, 
  "Pub@@": 8272, 
  "even@@": 8273, 
  "yl": 8274, 
  "Whit@@": 8275, 
  "acci@@": 8276, 
  "meme": 8277, 
  "sensi@@": 8278, 
  "ignor@@": 8279, 
  "aine": 8280, 
  "test@@": 8281, 
  "War@@": 8282, 
  "lun@@": 8283, 
  "param@@": 8284, 
  "beh@@": 8285, 
  "alia": 8286, 
  "Budd@@": 8287, 
  "defend": 8288, 
  "craft": 8289, 
  "teenag@@": 8290, 
  "tice": 8291, 
  "dolph@@": 8292, 
  "bol@@": 8293, 
  "Europ@@": 8294, 
  "esc@@": 8295, 
  "signific@@": 8296, 
  "Elec@@": 8297, 
  "illa": 8298, 
  "Mex@@": 8299, 
  "foc@@": 8300, 
  "thum@@": 8301, 
  "ror": 8302, 
  "shap@@": 8303, 
  "EM": 8304, 
  "view@@": 8305, 
  "estern": 8306, 
  "curr@@": 8307, 
  "zi@@": 8308, 
  "you@@": 8309, 
  "icity": 8310, 
  "astern": 8311, 
  "ll": 8312, 
  "wis": 8313, 
  "keys": 8314, 
  "utes": 8315, 
  "I.": 8316, 
  "resear@@": 8317, 
  "2.@@": 8318, 
  "industri@@": 8319, 
  "q@@": 8320, 
  "omic": 8321, 
  "Open": 8322, 
  "60,000": 8323, 
  "aster@@": 8324, 
  "bang": 8325, 
  "a.html": 8326, 
  "che": 8327, 
  "ycl@@": 8328, 
  "bec@@": 8329, 
  "dat@@": 8330, 
  "gust": 8331, 
  "oce@@": 8332, 
  "ooth": 8333, 
  "xed": 8334, 
  "itely": 8335, 
  "stein": 8336, 
  "52": 8337, 
  "approach@@": 8338, 
  "X-@@": 8339, 
  "A-@@": 8340, 
  "flexi@@": 8341, 
  "spo@@": 8342, 
  "cau@@": 8343, 
  "expec@@": 8344, 
  "dest": 8345, 
  "Val@@": 8346, 
  "ont@@": 8347, 
  "dden": 8348, 
  "eph": 8349, 
  "ench": 8350, 
  "ami": 8351, 
  "sation": 8352, 
  "biosphere": 8353, 
  "58": 8354, 
  "Pos@@": 8355, 
  "harv@@": 8356, 
  "C.": 8357, 
  "surroun@@": 8358, 
  "stitu@@": 8359, 
  "350": 8360, 
  "ada": 8361, 
  "iny": 8362, 
  "simpl@@": 8363, 
  "Austr@@": 8364, 
  "mechan@@": 8365, 
  "yers": 8366, 
  "erson": 8367, 
  "explos@@": 8368, 
  "cogni@@": 8369, 
  "sand@@": 8370, 
  "IBM": 8371, 
  "Uni@@": 8372, 
  "cum@@": 8373, 
  "Geor@@": 8374, 
  "enorm@@": 8375, 
  "dro@@": 8376, 
  "stron@@": 8377, 
  "appl@@": 8378, 
  "visualizations": 8379, 
  "tane@@": 8380, 
  "fal@@": 8381, 
  "stro@@": 8382, 
  "ress": 8383, 
  "ston": 8384, 
  "Christ@@": 8385, 
  "une": 8386, 
  "94": 8387, 
  "reduc@@": 8388, 
  "constra@@": 8389, 
  "Any@@": 8390, 
  "let@@": 8391, 
  "2012": 8392, 
  "chap@@": 8393, 
  "toi@@": 8394, 
  "lizabeth": 8395, 
  "vag@@": 8396, 
  "princi@@": 8397, 
  "oni@@": 8398, 
  "journalism": 8399, 
  "strugg@@": 8400, 
  "1998": 8401, 
  "ingredi@@": 8402, 
  "46": 8403, 
  "foll@@": 8404, 
  "Doc@@": 8405, 
  "err@@": 8406, 
  "regre@@": 8407, 
  "gran@@": 8408, 
  "1950": 8409, 
  "gn@@": 8410, 
  "nett": 8411, 
  "year@@": 8412, 
  "blan@@": 8413, 
  "ve-@@": 8414, 
  "ee@@": 8415, 
  "conveni@@": 8416, 
  "effici@@": 8417, 
  "satelli@@": 8418, 
  "may@@": 8419, 
  ".5": 8420, 
  "sequences": 8421, 
  "osa@@": 8422, 
  "complic@@": 8423, 
  "25,000": 8424, 
  "arg@@": 8425, 
  "defin@@": 8426, 
  "clin@@": 8427, 
  "deter@@": 8428, 
  "fai@@": 8429, 
  "World@@": 8430, 
  "colum@@": 8431, 
  "figh@@": 8432, 
  "activi@@": 8433, 
  "laun@@": 8434, 
  "answ@@": 8435, 
  "materi@@": 8436, 
  "gaming": 8437, 
  "PE@@": 8438, 
  "selves": 8439, 
  "scienti@@": 8440, 
  "ions": 8441, 
  "UN@@": 8442, 
  "ew@@": 8443, 
  "At@@": 8444, 
  "50-@@": 8445, 
  "DE@@": 8446, 
  "Z": 8447, 
  "cir@@": 8448, 
  "shar@@": 8449, 
  "glo@@": 8450, 
  "install@@": 8451, 
  "museums": 8452, 
  "invent@@": 8453, 
  "ni": 8454, 
  "spectr@@": 8455, 
  "ram": 8456, 
  "gi": 8457, 
  "2020": 8458, 
  "cratic": 8459, 
  "John@@": 8460, 
  "Joh@@": 8461, 
  "intro@@": 8462, 
  "76": 8463, 
  "ald": 8464, 
  "ild": 8465, 
  "vin": 8466, 
  "8,000": 8467, 
  "fail@@": 8468, 
  "fini@@": 8469, 
  "Mini@@": 8470, 
  "1999": 8471, 
  "1980": 8472, 
  "david": 8473, 
  "Rab@@": 8474, 
  "ddle": 8475, 
  "39": 8476, 
  "hus@@": 8477, 
  "metabo@@": 8478, 
  "explan@@": 8479, 
  "NA@@": 8480, 
  "strict": 8481, 
  "fossi@@": 8482, 
  "intui@@": 8483, 
  "TEDx@@": 8484, 
  "icry": 8485, 
  "Sou@@": 8486, 
  "histor@@": 8487, 
  "ford": 8488, 
  "counter": 8489, 
  "ware": 8490, 
  "ge-@@": 8491, 
  "ouldn": 8492, 
  "hall@@": 8493, 
  "abstr@@": 8494, 
  "Ol@@": 8495, 
  "00": 8496, 
  "occas@@": 8497, 
  "PC": 8498, 
  "key@@": 8499, 
  "pow@@": 8500, 
  "56": 8501, 
  "59": 8502, 
  "ysis": 8503, 
  "mil@@": 8504, 
  "success@@": 8505, 
  "ugg@@": 8506, 
  "guitar": 8507, 
  "biotech": 8508, 
  "oke": 8509, 
  "olate": 8510, 
  "gun@@": 8511, 
  "own@@": 8512, 
  "circum@@": 8513, 
  "1,500": 8514, 
  "eci@@": 8515, 
  "wonder@@": 8516, 
  "Atlan@@": 8517, 
  "57": 8518, 
  "UC@@": 8519, 
  "isol@@": 8520, 
  "dn": 8521, 
  "expon@@": 8522, 
  "7,000": 8523, 
  "canc@@": 8524, 
  "pedi@@": 8525, 
  "plic@@": 8526, 
  "gle": 8527, 
  "TEDGlobal": 8528, 
  "marri@@": 8529, 
  "bir@@": 8530, 
  "angi@@": 8531, 
  "IM@@": 8532, 
  "ternal": 8533, 
  "myst@@": 8534, 
  "asp@@": 8535, 
  "ergy": 8536, 
  "ingdom": 8537, 
  "viron@@": 8538, 
  "xi@@": 8539, 
  "5-@@": 8540, 
  "kilome@@": 8541, 
  "traff@@": 8542, 
  "ether": 8543, 
  "rhyth@@": 8544, 
  "tician": 8545, 
  "airs": 8546, 
  "12,000": 8547, 
  "comple@@": 8548, 
  "anz@@": 8549, 
  "plas@@": 8550, 
  "recor@@": 8551, 
  "kill@@": 8552, 
  "devast@@": 8553, 
  "shad@@": 8554, 
  "53": 8555, 
  "trage@@": 8556, 
  "utionary": 8557, 
  "1994": 8558, 
  "smo@@": 8559, 
  "CA": 8560, 
  "auton@@": 8561, 
  "grap@@": 8562, 
  "enever": 8563, 
  "timately": 8564, 
  "tog@@": 8565, 
  "Satur@@": 8566, 
  "umber": 8567, 
  "treat@@": 8568, 
  "volun@@": 8569, 
  "ques": 8570, 
  "biot@@": 8571, 
  "singer": 8572, 
  "collap@@": 8573, 
  "fif@@": 8574, 
  "gene@@": 8575, 
  "stant": 8576, 
  "Jan@@": 8577, 
  "mi": 8578, 
  "defini@@": 8579, 
  "other@@": 8580, 
  "facili@@": 8581, 
  "circu@@": 8582, 
  "perspec@@": 8583, 
  "appropri@@": 8584, 
  "peace@@": 8585, 
  "ov": 8586, 
  "130": 8587, 
  "tin": 8588, 
  "tionary": 8589, 
  "00@@": 8590, 
  "ior": 8591, 
  "Braz@@": 8592, 
  "MS": 8593, 
  "bage": 8594, 
  "cess@@": 8595, 
  "Islam@@": 8596, 
  "four@@": 8597, 
  "inspi@@": 8598, 
  "Os": 8599, 
  "150,000": 8600, 
  "3,@@": 8601, 
  "para@@": 8602, 
  "bran@@": 8603, 
  "Afr@@": 8604, 
  "LED": 8605, 
  "ano": 8606, 
  "brilli@@": 8607, 
  "atur@@": 8608, 
  "poses": 8609, 
  "You@@": 8610, 
  "41": 8611, 
  "convinc@@": 8612, 
  "puzz@@": 8613, 
  "tion.html": 8614, 
  "appo@@": 8615, 
  "CT": 8616, 
  "vide@@": 8617, 
  "ob": 8618, 
  "geous": 8619, 
  "OE@@": 8620, 
  "ridic@@": 8621, 
  "sis": 8622, 
  "tops": 8623, 
  "RO@@": 8624, 
  "serves": 8625, 
  "licon": 8626, 
  "1995": 8627, 
  "meas@@": 8628, 
  "well@@": 8629, 
  "meth@@": 8630, 
  "instruc@@": 8631, 
  "astron@@": 8632, 
  "real@@": 8633, 
  "alog@@": 8634, 
  "entertain@@": 8635, 
  "im": 8636, 
  "FDA": 8637, 
  "acles": 8638, 
  "was@@": 8639, 
  "push@@": 8640, 
  "fore": 8641, 
  "tex": 8642, 
  "Chri@@": 8643, 
  "tality": 8644, 
  "adverti@@": 8645, 
  "ollywood": 8646, 
  "sign@@": 8647, 
  "through@@": 8648, 
  "scr@@": 8649, 
  "87": 8650, 
  "tish": 8651, 
  "chimpanz@@": 8652, 
  "Isra@@": 8653, 
  "1900": 8654, 
  "Rob": 8655, 
  "ulty": 8656, 
  "Sahar@@": 8657, 
  "paral@@": 8658, 
  "issu@@": 8659, 
  "wom@@": 8660, 
  "92": 8661, 
  "oul@@": 8662, 
  "hea@@": 8663, 
  "gies": 8664, 
  "ech": 8665, 
  "escap@@": 8666, 
  "tica": 8667, 
  "magaz@@": 8668, 
  "BI": 8669, 
  "propor@@": 8670, 
  "clou@@": 8671, 
  "sional": 8672, 
  "sel": 8673, 
  "ycle": 8674, 
  "manu@@": 8675, 
  "bu": 8676, 
  "bott@@": 8677, 
  "BM@@": 8678, 
  "PI@@": 8679, 
  "4-@@": 8680, 
  "liz@@": 8681, 
  "exist@@": 8682, 
  "quick@@": 8683, 
  "ulous": 8684, 
  "ington": 8685, 
  "frighten@@": 8686, 
  "resili@@": 8687, 
  "exerci@@": 8688, 
  "advant@@": 8689, 
  "91": 8690, 
  "orm@@": 8691, 
  "DVD": 8692, 
  "plu@@": 8693, 
  "nity": 8694, 
  "rainfor@@": 8695, 
  "notic@@": 8696, 
  "Hom@@": 8697, 
  "SO@@": 8698, 
  "74": 8699, 
  "15,000": 8700, 
  "opher": 8701, 
  "Wa@@": 8702, 
  "54": 8703, 
  "Wat@@": 8704, 
  "yi@@": 8705, 
  "gin@@": 8706, 
  "astoni@@": 8707, 
  "bel": 8708, 
  "ris": 8709, 
  "minist@@": 8710, 
  "jam@@": 8711, 
  "controver@@": 8712, 
  "eca@@": 8713, 
  "84": 8714, 
  "wheel@@": 8715, 
  "83": 8716, 
  "ained": 8717, 
  "IP@@": 8718, 
  "escope": 8719, 
  "small@@": 8720, 
  "concl@@": 8721, 
  "ello": 8722, 
  "class@@": 8723, 
  "oto": 8724, 
  "busin@@": 8725, 
  "rought": 8726, 
  "vill@@": 8727, 
  "meaning@@": 8728, 
  "doub@@": 8729, 
  "thema@@": 8730, 
  "pli@@": 8731, 
  "sibly": 8732, 
  "sat@@": 8733, 
  "fas@@": 8734, 
  "etary": 8735, 
  "CN@@": 8736, 
  "gar": 8737, 
  "1.5": 8738, 
  "Exc@@": 8739, 
  "pathy": 8740, 
  "2030": 8741, 
  "administ@@": 8742, 
  "dynam@@": 8743, 
  "93": 8744, 
  "82": 8745, 
  "71": 8746, 
  "89": 8747, 
  "0": 8748, 
  "cording": 8749, 
  "77": 8750, 
  "remember@@": 8751, 
  "zero-@@": 8752, 
  "beli@@": 8753, 
  "Cl@@": 8754, 
  "sem@@": 8755, 
  "child@@": 8756, 
  "Sc@@": 8757, 
  "one@@": 8758, 
  "dam@@": 8759, 
  "=": 8760, 
  "hundre@@": 8761, 
  "cent@@": 8762, 
  "chers": 8763, 
  "ED": 8764, 
  "origin@@": 8765, 
  "obst@@": 8766, 
  "inte@@": 8767, 
  "metaph@@": 8768, 
  "AC@@": 8769, 
  "rand@@": 8770, 
  "smar@@": 8771, 
  "stitute": 8772, 
  "orchestr@@": 8773, 
  "me-@@": 8774, 
  "Sor@@": 8775, 
  "strial": 8776, 
  "eleg@@": 8777, 
  "dru@@": 8778, 
  "sibilities": 8779, 
  "73": 8780, 
  "jective": 8781, 
  "dedic@@": 8782, 
  "62": 8783, 
  "ballo@@": 8784, 
  "sten": 8785, 
  "f-@@": 8786, 
  "2015": 8787, 
  "51": 8788, 
  "ember": 8789, 
  "aliz@@": 8790, 
  "loo@@": 8791, 
  "differ@@": 8792, 
  "frustr@@": 8793, 
  "occasi@@": 8794, 
  "DP": 8795, 
  "79": 8796, 
  "com": 8797, 
  "900": 8798, 
  "taneously": 8799, 
  "enty": 8800, 
  "1.2": 8801, 
  "rying": 8802, 
  "pharm@@": 8803, 
  "geome@@": 8804, 
  ".D.": 8805, 
  "embar@@": 8806, 
  "shir@@": 8807, 
  "2.0": 8808, 
  "chard": 8809, 
  "ange": 8810, 
  ",500": 8811, 
  "Ple@@": 8812, 
  "comfor@@": 8813, 
  "Pakist@@": 8814, 
  "Palest@@": 8815, 
  "AS@@": 8816, 
  "maj@@": 8817, 
  "mov@@": 8818, 
  "EG": 8819, 
  "Ob@@": 8820, 
  "Bang@@": 8821, 
  "1.3": 8822, 
  "seri@@": 8823, 
  "analog@@": 8824, 
  "ght-@@": 8825, 
  "Brit@@": 8826, 
  "1984": 8827, 
  "pha@@": 8828, 
  "Alex@@": 8829, 
  "125": 8830, 
  "affor@@": 8831, 
  "earing": 8832, 
  "300,000": 8833, 
  "raft": 8834, 
  "MoMA": 8835, 
  "certainty": 8836, 
  "ctic": 8837, 
  "ille": 8838, 
  "come@@": 8839, 
  "guaran@@": 8840, 
  "1945": 8841, 
  "doll@@": 8842, 
  "aul": 8843, 
  "ario": 8844, 
  "beha@@": 8845, 
  "á@@": 8846, 
  "preven@@": 8847, 
  "Yor@@": 8848, 
  "NG@@": 8849, 
  "philanthrop@@": 8850, 
  "weal@@": 8851, 
  "mers": 8852, 
  "conflic@@": 8853, 
  "valent": 8854, 
  "Amer@@": 8855, 
  "l-@@": 8856, 
  "onics": 8857, 
  "imes": 8858, 
  "instr@@": 8859, 
  "aggres@@": 8860, 
  "deman@@": 8861, 
  ".org": 8862, 
  "Dec@@": 8863, 
  "cy": 8864, 
  "DARPA": 8865, 
  "toc@@": 8866, 
  "scen@@": 8867, 
  "88": 8868, 
  "Gh@@": 8869, 
  "mach@@": 8870, 
  "63": 8871, 
  "relev@@": 8872, 
  "poin@@": 8873, 
  "Eur@@": 8874, 
  "140": 8875, 
  "colle@@": 8876, 
  "TEDMED": 8877, 
  "catastr@@": 8878, 
  "66": 8879, 
  "gather@@": 8880, 
  "desig@@": 8881, 
  "tistic": 8882, 
  "Demo@@": 8883, 
  "tradi@@": 8884, 
  "80,000": 8885, 
  "attr@@": 8886, 
  "thous@@": 8887, 
  "fill@@": 8888, 
  "norm@@": 8889, 
  "68": 8890, 
  "john": 8891, 
  "has@@": 8892, 
  "demon@@": 8893, 
  "stors": 8894, 
  "inci": 8895, 
  "conclu@@": 8896, 
  "kni@@": 8897, 
  "78": 8898, 
  "TEDxFeatured": 8899, 
  "hypo@@": 8900, 
  "emis@@": 8901, 
  "rem@@": 8902, 
  "poc@@": 8903, 
  "Iraq@@": 8904, 
  "400,000": 8905, 
  "elli": 8906, 
  "NA": 8907, 
  "450": 8908, 
  "FO@@": 8909, 
  "Gir@@": 8910, 
  "DA": 8911, 
  "milit@@": 8912, 
  "sam@@": 8913, 
  "datab@@": 8914, 
  "grou@@": 8915, 
  "4.@@": 8916, 
  "sities": 8917, 
  "K.": 8918, 
  "visualiz@@": 8919, 
  "tribu@@": 8920, 
  "ither": 8921, 
  "surpri@@": 8922, 
  "expos@@": 8923, 
  ".7": 8924, 
  "S.": 8925, 
  "phy@@": 8926, 
  "tremend@@": 8927, 
  "fu": 8928, 
  "icist": 8929, 
  "30@@": 8930, 
  "Is@@": 8931, 
  "Stre@@": 8932, 
  "yst@@": 8933, 
  "hem@@": 8934, 
  "ecture": 8935, 
  ".com@@": 8936, 
  "mathema@@": 8937, 
  "81": 8938, 
  "ried": 8939, 
  "21@@": 8940, 
  "volunte@@": 8941, 
  "ity.html": 8942, 
  "ture.html": 8943, 
  "thal": 8944, 
  "phr@@": 8945, 
  "resour@@": 8946, 
  "intellec@@": 8947, 
  "ardo": 8948, 
  "Oc@@": 8949, 
  "citiz@@": 8950, 
  "Del@@": 8951, 
  "oxide": 8952, 
  "tack@@": 8953, 
  "harm@@": 8954, 
  "1989": 8955, 
  "apos@@": 8956, 
  "ouri@@": 8957, 
  "alg@@": 8958, 
  "du": 8959, 
  "Every@@": 8960, 
  "refu@@": 8961, 
  "1968": 8962, 
  "orrow": 8963, 
  "categ@@": 8964, 
  "MA": 8965, 
  "prote@@": 8966, 
  "tedx": 8967, 
  "ains": 8968, 
  "Tal@@": 8969, 
  "olds": 8970, 
  "const@@": 8971, 
  "AIMS": 8972, 
  "him@@": 8973, 
  "IT": 8974, 
  "paul": 8975, 
  "rap": 8976, 
  "ancial": 8977, 
  "ou": 8978, 
  "dise@@": 8979, 
  "180": 8980, 
  "som@@": 8981, 
  "vity": 8982, 
  "antibio@@": 8983, 
  "antic": 8984, 
  "fundam@@": 8985, 
  "pi": 8986, 
  "innoc@@": 8987, 
  "acity": 8988, 
  "perman@@": 8989, 
  "disor@@": 8990, 
  "awn": 8991, 
  "hospit@@": 8992, 
  "ethn@@": 8993, 
  "avail@@": 8994, 
  "ude": 8995, 
  "nels": 8996, 
  "aniel": 8997, 
  "Stan@@": 8998, 
  "intrigu@@": 8999, 
  "tivi@@": 9000, 
  "Wiki@@": 9001, 
  "tot@@": 9002, 
  "what@@": 9003, 
  "67": 9004, 
  "Tas@@": 9005, 
  "insur@@": 9006, 
  "nex@@": 9007, 
  "deta@@": 9008, 
  "oppos@@": 9009, 
  "Mand@@": 9010, 
  "Ang@@": 9011, 
  "2.5": 9012, 
  "ation.html": 9013, 
  "py@@": 9014, 
  "mas": 9015, 
  "prin@@": 9016, 
  "tel@@": 9017, 
  "feed@@": 9018, 
  "xim@@": 9019, 
  "diffic@@": 9020, 
  "ji@@": 9021, 
  "acci": 9022, 
  "CO@@": 9023, 
  "Viet@@": 9024, 
  "61": 9025, 
  "tween": 9026, 
  "trilli@@": 9027, 
  "Imag@@": 9028, 
  "complex@@": 9029, 
  "cle": 9030, 
  "-2": 9031, 
  "esn": 9032, 
  "suspen@@": 9033, 
  "mma": 9034, 
  "Featured": 9035, 
  "GP@@": 9036, 
  "D.": 9037, 
  "mely": 9038, 
  "guar@@": 9039, 
  "mosquit@@": 9040, 
  "ellig@@": 9041, 
  "passen@@": 9042, 
  "duce": 9043, 
  "esterday": 9044, 
  "cies": 9045, 
  "lik@@": 9046, 
  "hili@@": 9047, 
  "sac@@": 9048, 
  "oxy@@": 9049, 
  "mista@@": 9050, 
  "actly": 9051, 
  "plo@@": 9052, 
  "pover@@": 9053, 
  "ander@@": 9054, 
  "cog@@": 9055, 
  "eth": 9056, 
  "pare": 9057, 
  "awar@@": 9058, 
  "profession@@": 9059, 
  "istics": 9060, 
  "spirit@@": 9061, 
  "excell@@": 9062, 
  "achi@@": 9063, 
  "ateful": 9064, 
  "avy": 9065, 
  "U.@@": 9066, 
  "extinc@@": 9067, 
  "artif@@": 9068, 
  "99@@": 9069, 
  "paint@@": 9070, 
  "Nov@@": 9071, 
  "Ama@@": 9072, 
  "otten": 9073, 
  "ament": 9074, 
  "vey": 9075, 
  "poe@@": 9076, 
  "TE@@": 9077, 
  "symp@@": 9078, 
  "illions": 9079, 
  "jects": 9080, 
  "straigh@@": 9081, 
  "esome": 9082, 
  "domes@@": 9083, 
  "coff@@": 9084, 
  "sit@@": 9085, 
  "birth@@": 9086, 
  "dable": 9087, 
  "scor@@": 9088, 
  "ev": 9089, 
  "neuros@@": 9090, 
  "impres@@": 9091, 
  "batter@@": 9092, 
  "geni@@": 9093, 
  "gative": 9094, 
  "Ox@@": 9095, 
  "story@@": 9096, 
  "oods": 9097, 
  "nuc@@": 9098, 
  "expan@@": 9099, 
  "percei@@": 9100, 
  "natur@@": 9101, 
  "wis@@": 9102, 
  "Vo@@": 9103, 
  "patter@@": 9104, 
  "ults": 9105, 
  "sent@@": 9106, 
  "sandwi@@": 9107, 
  "ength": 9108, 
  "evin": 9109, 
  "hn": 9110, 
  "health@@": 9111, 
  "SE@@": 9112, 
  "Lon@@": 9113, 
  "ird": 9114, 
  "fall@@": 9115, 
  "nerv@@": 9116, 
  "oci@@": 9117, 
  "commer@@": 9118, 
  "av": 9119, 
  "deca@@": 9120, 
  "lishing": 9121, 
  "ero": 9122, 
  "profes@@": 9123, 
  "oler@@": 9124, 
  "infra@@": 9125, 
  "ured": 9126, 
  "eter": 9127, 
  "tories": 9128, 
  "paradig@@": 9129, 
  "erious": 9130, 
  "civiliz@@": 9131, 
  "000-@@": 9132, 
  "isms": 9133, 
  "sophistic@@": 9134, 
  "ei": 9135, 
  "assign@@": 9136, 
  "onally": 9137, 
  "Smi@@": 9138, 
  "ywood": 9139, 
  "curi@@": 9140, 
  "…": 9141, 
  "A.": 9142, 
  "Antar@@": 9143, 
  "ument": 9144, 
  "mming": 9145, 
  "use@@": 9146, 
  "chestr@@": 9147, 
  "atured": 9148, 
  "spectac@@": 9149, 
  ")": 9150, 
  "rif@@": 9151, 
  "gras@@": 9152, 
  "organ@@": 9153, 
  "terr@@": 9154, 
  "heal@@": 9155, 
  "neighbor@@": 9156, 
  "extra@@": 9157, 
  "schizophren@@": 9158, 
  "chael": 9159, 
  "hoods": 9160, 
  "lightly": 9161, 
  "expedi@@": 9162, 
  "suici@@": 9163, 
  "enly": 9164, 
  "strang@@": 9165, 
  "confi@@": 9166, 
  "disc": 9167, 
  "algorith@@": 9168, 
  "thou": 9169, 
  "%": 9170, 
  "fortun@@": 9171, 
  "pse": 9172, 
  "limit@@": 9173, 
  "Jes@@": 9174, 
  "weap@@": 9175, 
  "crete": 9176, 
  "lob": 9177, 
  "preced@@": 9178, 
  "earth@@": 9179, 
  "wild@@": 9180, 
  "Chin@@": 9181, 
  "bub@@": 9182, 
  "pige@@": 9183, 
  "prou@@": 9184, 
  "efs": 9185, 
  "trem@@": 9186, 
  "uce": 9187, 
  "draw@@": 9188, 
  "slam@@": 9189, 
  "intell@@": 9190, 
  "opped": 9191, 
  "prosper@@": 9192, 
  "hemi@@": 9193, 
  "icken": 9194, 
  "copy@@": 9195, 
  "keep@@": 9196, 
  "exhibi@@": 9197, 
  "shoc@@": 9198, 
  "sels": 9199, 
  "crimin@@": 9200, 
  "MR@@": 9201, 
  "Dev@@": 9202, 
  "reless": 9203, 
  "aper": 9204, 
  "ec": 9205, 
  "DV@@": 9206, 
  "indu": 9207, 
  "pharmaceu@@": 9208, 
  "vered": 9209, 
  "lef@@": 9210, 
  "phosph@@": 9211, 
  "gic": 9212, 
  "#": 9213, 
  "opy": 9214, 
  "ould": 9215, 
  "situ@@": 9216, 
  "concent@@": 9217, 
  "titudes": 9218, 
  "onym@@": 9219, 
  "alth": 9220, 
  "vul@@": 9221, 
  "diab@@": 9222, 
  "market@@": 9223, 
  "plom@@": 9224, 
  "discover@@": 9225, 
  "pically": 9226, 
  "alu@@": 9227, 
  "ogs": 9228, 
  "–": 9229, 
  "incenti@@": 9230, 
  "illion": 9231, 
  "phen@@": 9232, 
  "omas": 9233, 
  "Lat@@": 9234, 
  "intellig@@": 9235, 
  "autonom@@": 9236, 
  "erci@@": 9237, 
  "Ethiop@@": 9238, 
  "repu@@": 9239, 
  "sustain@@": 9240, 
  "ves@@": 9241, 
  "stances": 9242, 
  "tri": 9243, 
  "rhy@@": 9244, 
  "paraly@@": 9245, 
  "camer@@": 9246, 
  "ju": 9247, 
  "hou": 9248, 
  "Resear@@": 9249, 
  "ulf": 9250, 
  "Wom@@": 9251, 
  "throp@@": 9252, 
  "BM": 9253, 
  "ews": 9254, 
  "ees": 9255, 
  "è@@": 9256, 
  "sume": 9257, 
  "dit": 9258, 
  "enter@@": 9259, 
  "Amaz@@": 9260, 
  "woo@@": 9261, 
  "necess@@": 9262, 
  "gress": 9263, 
  "compas@@": 9264, 
  "AI@@": 9265, 
  "ö@@": 9266, 
  "architec@@": 9267, 
  "choc@@": 9268, 
  "Mic@@": 9269, 
  "occurr@@": 9270, 
  "famili@@": 9271, 
  "wi": 9272, 
  "ticians": 9273, 
  "unbeliev@@": 9274, 
  "Saharan": 9275, 
  "addi@@": 9276, 
  "psy@@": 9277, 
  "agement": 9278, 
  "@": 9279, 
  "gir@@": 9280, 
  "quit@@": 9281, 
  "thes": 9282, 
  "ainst": 9283, 
  "deral": 9284, 
  "iPh@@": 9285, 
  "slow@@": 9286, 
  "enda": 9287, 
  "dically": 9288, 
  "chang@@": 9289, 
  "ext": 9290, 
  "lance": 9291, 
  "í@@": 9292, 
  "neu@@": 9293, 
  "3.5": 9294, 
  "volu@@": 9295, 
  "hosp@@": 9296, 
  "j": 9297, 
  "conn@@": 9298, 
  "desp@@": 9299, 
  "dol@@": 9300, 
  "dile@@": 9301, 
  "dency": 9302, 
  "religi@@": 9303, 
  "icul@@": 9304, 
  "-making": 9305, 
  "cott@@": 9306, 
  "timi@@": 9307, 
  "Harv@@": 9308, 
  "resident": 9309, 
  "wand@@": 9310, 
  "uments": 9311, 
  "fiel@@": 9312, 
  "so-@@": 9313, 
  "Tex@@": 9314, 
  "scul@@": 9315, 
  "demic": 9316, 
  "oc": 9317, 
  "aj": 9318, 
  "emer@@": 9319, 
  "entally": 9320, 
  "effor@@": 9321, 
  "Indu@@": 9322, 
  "earthqu@@": 9323, 
  "icans": 9324, 
  "dimen@@": 9325, 
  "intu@@": 9326, 
  "sity": 9327, 
  "www.@@": 9328, 
  "feel@@": 9329, 
  "glim@@": 9330, 
  "fascin@@": 9331, 
  "hic@@": 9332, 
  "enge": 9333, 
  "call@@": 9334, 
  "1000": 9335, 
  "guit@@": 9336, 
  "member@@": 9337, 
  "anti": 9338, 
  "forma@@": 9339, 
  "travel@@": 9340, 
  "elem@@": 9341, 
  "urity": 9342, 
  "esides": 9343, 
  "ó@@": 9344, 
  "perfec@@": 9345, 
  "magnific@@": 9346, 
  "otta": 9347, 
  "appear@@": 9348, 
  "Glob@@": 9349, 
  "000": 9350, 
  "ultr@@": 9351, 
  "ico": 9352, 
  "noon": 9353, 
  "Flor@@": 9354, 
  "Rw@@": 9355, 
  "controversi@@": 9356, 
  "helic@@": 9357, 
  "amine": 9358, 
  "believ@@": 9359, 
  "acter@@": 9360, 
  "scrap": 9361, 
  "phil@@": 9362, 
  "Sovi@@": 9363, 
  "q": 9364, 
  "frame@@": 9365, 
  "pedia": 9366, 
  "lead@@": 9367, 
  "ü@@": 9368, 
  "year-@@": 9369, 
  "(": 9370, 
  "Ital@@": 9371, 
  "frigh@@": 9372, 
  "trajec@@": 9373, 
  "Sund@@": 9374, 
  "found@@": 9375, 
  "Af@@": 9376, 
  "doc": 9377, 
  "prene@@": 9378, 
  "Doc": 9379, 
  "your@@": 9380, 
  "job@@": 9381, 
  "tware": 9382, 
  "apers": 9383, 
  "Hai@@": 9384, 
  "erable": 9385, 
  "hua": 9386, 
  "phen": 9387, 
  "mors": 9388, 
  "genoci@@": 9389, 
  "acier": 9390, 
  "Hen@@": 9391, 
  "til": 9392, 
  "alcoho@@": 9393, 
  "Twit@@": 9394, 
  "org": 9395, 
  "every@@": 9396, 
  "cience": 9397, 
  "whe@@": 9398, 
  "estim@@": 9399, 
  "fragi@@": 9400, 
  "versity": 9401, 
  "oward": 9402, 
  "roc": 9403, 
  "ci": 9404, 
  "Eg@@": 9405, 
  "certain@@": 9406, 
  "langu@@": 9407, 
  "gu": 9408, 
  "voc": 9409, 
  "soph@@": 9410, 
  "vacu@@": 9411, 
  "sec": 9412, 
  "ticip@@": 9413, 
  "angha@@": 9414, 
  "lel": 9415, 
  "supp@@": 9416, 
  "embarr@@": 9417, 
  "stain": 9418, 
  "stems": 9419, 
  "uary": 9420, 
  "eren": 9421, 
  "Squ@@": 9422, 
  "thresh@@": 9423, 
  "stud@@": 9424, 
  "wer": 9425, 
  "eler@@": 9426, 
  "figu@@": 9427, 
  "sue": 9428, 
  "rix": 9429, 
  "rst": 9430, 
  "rene@@": 9431, 
  "ept": 9432, 
  "outh": 9433, 
  "indu@@": 9434, 
  "--@@": 9435, 
  "percent@@": 9436, 
  "istan": 9437, 
  "vulner@@": 9438, 
  "eball": 9439, 
  "previ@@": 9440, 
  "DAR@@": 9441, 
  "orus": 9442, 
  "inc": 9443, 
  "dop@@": 9444, 
  "vi": 9445, 
  "azz": 9446, 
  "Leon@@": 9447, 
  "terly": 9448, 
  "lang": 9449, 
  "ordinarily": 9450, 
  "eah": 9451, 
  "Det@@": 9452, 
  "cric@@": 9453, 
  "raq": 9454, 
  "conversa@@": 9455, 
  "AID@@": 9456, 
  "Chil@@": 9457, 
  "plicity": 9458, 
  "ã@@": 9459, 
  "assion": 9460, 
  "avi": 9461, 
  "rapid@@": 9462, 
  "worl@@": 9463, 
  "pment": 9464, 
  "sensor@@": 9465, 
  "anese": 9466, 
  "ddle-@@": 9467, 
  "Angel@@": 9468, 
  "ced@@": 9469, 
  "Beij@@": 9470, 
  "chrom@@": 9471, 
  "robo@@": 9472, 
  "philos@@": 9473, 
  "symptom@@": 9474, 
  "partment": 9475, 
  "Tanz@@": 9476, 
  "Abra@@": 9477, 
  "lux@@": 9478, 
  "rar@@": 9479, 
  "kist@@": 9480, 
  "kitch@@": 9481, 
  "singly": 9482, 
  "lli": 9483, 
  "ordin@@": 9484, 
  "ä@@": 9485, 
  "tancy": 9486, 
  "neath": 9487, 
  "ploy@@": 9488, 
  "strate@@": 9489, 
  "jamin": 9490, 
  "fing@@": 9491, 
  "doz@@": 9492, 
  "Sec@@": 9493, 
  "etes": 9494, 
  "behavi@@": 9495, 
  "utch": 9496, 
  "tissu@@": 9497, 
  "eli": 9498, 
  "kay": 9499, 
  "Banglad@@": 9500, 
  "decision@@": 9501, 
  "efly": 9502, 
  "Lou": 9503, 
  "immedi@@": 9504, 
  "quid": 9505, 
  "hou@@": 9506, 
  "microb@@": 9507, 
  "incen@@": 9508, 
  "Bron@@": 9509, 
  "deed": 9510, 
  "rim@@": 9511, 
  "derly": 9512, 
  "consci@@": 9513, 
  "newsp@@": 9514, 
  "^": 9515, 
  "avid": 9516, 
  "ida": 9517, 
  "ru": 9518, 
  "Span@@": 9519, 
  "re.html": 9520, 
  "deli": 9521, 
  "nu": 9522, 
  "Whi@@": 9523, 
  "jec": 9524, 
  "experi@@": 9525, 
  "sev@@": 9526, 
  "erever": 9527, 
  "impanz@@": 9528, 
  "inevit@@": 9529, 
  "piec@@": 9530, 
  "glamor@@": 9531, 
  "omen@@": 9532, 
  "raid": 9533, 
  "bab": 9534, 
  "ubi@@": 9535, 
  "sac": 9536, 
  "hu": 9537, 
  "acces@@": 9538, 
  "contra@@": 9539, 
  "icists": 9540, 
  "transpar@@": 9541, 
  "rou": 9542, 
  "pox": 9543, 
  "anxi@@": 9544, 
  "lications": 9545, 
  "Worl@@": 9546, 
  "ucks": 9547, 
  "stead": 9548, 
  "ili": 9549, 
  "TI": 9550, 
  "dinosa@@": 9551, 
  "osph@@": 9552, 
  "primar@@": 9553, 
  "ñ@@": 9554, 
  "dialog@@": 9555, 
  "html": 9556, 
  "leader@@": 9557, 
  "N.": 9558, 
  "Secon@@": 9559, 
  "ricul@@": 9560, 
  "situ": 9561, 
  "dev": 9562, 
  "arrhe@@": 9563, 
  "hous@@": 9564, 
  "ç@@": 9565, 
  "ateg@@": 9566, 
  "Audi@@": 9567, 
  "tiliz@@": 9568, 
  "Rep@@": 9569, 
  "excit@@": 9570, 
  "peop@@": 9571, 
  "í": 9572, 
  "piz@@": 9573, 
  "tau@@": 9574, 
  "extin@@": 9575, 
  "jelly@@": 9576, 
  "thur": 9577, 
  "Micros@@": 9578, 
  "intri@@": 9579, 
  "---": 9580, 
  "tsun@@": 9581, 
  "enth@@": 9582, 
  "etings": 9583, 
  "lam": 9584, 
  "elet@@": 9585, 
  "gly": 9586, 
  "movi@@": 9587, 
  "lizab@@": 9588, 
  "vic": 9589, 
  "ww@@": 9590, 
  "vehic@@": 9591, 
  "iden@@": 9592, 
  "Face@@": 9593, 
  "fast@@": 9594, 
  "ê@@": 9595, 
  "essor": 9596, 
  "agricul@@": 9597, 
  "bey@@": 9598, 
  "stup@@": 9599, 
  "atically": 9600, 
  "shi": 9601, 
  "r.": 9602, 
  "dou": 9603, 
  "beauti@@": 9604, 
  "partic@@": 9605, 
  "help@@": 9606, 
  "orig@@": 9607, 
  "Califor@@": 9608, 
  "shrim@@": 9609, 
  "cu": 9610, 
  "tocin": 9611, 
  "dividu@@": 9612, 
  "disci@@": 9613, 
  "very@@": 9614, 
  "degre@@": 9615, 
  "Ug@@": 9616, 
  "ramid": 9617, 
  "eyn@@": 9618, 
  "chemi@@": 9619, 
  "tau": 9620, 
  "อ@@": 9621, 
  "quan@@": 9622, 
  "anni": 9623, 
  "primi@@": 9624, 
  "embed@@": 9625, 
  ".A.": 9626, 
  "enti": 9627, 
  "beau@@": 9628, 
  "ambi": 9629, 
  "elop@@": 9630, 
  "à": 9631, 
  "evi": 9632, 
  "niture": 9633, 
  "oft": 9634, 
  "*": 9635, 
  "straight@@": 9636, 
  "schizoph@@": 9637, 
  "ade@@": 9638, 
  "assi": 9639, 
  "ted.com": 9640, 
  "Wash@@": 9641, 
  "nership": 9642, 
  "burea@@": 9643, 
  "spiring": 9644, 
  "syndr@@": 9645, 
  "á": 9646, 
  "nec": 9647, 
  "hatt@@": 9648, 
  "zar@@": 9649, 
  "surge@@": 9650, 
  "happen@@": 9651, 
  "abled": 9652, 
  "TE": 9653, 
  "opport@@": 9654, 
  "techni@@": 9655, 
  "aceu@@": 9656, 
  "Tali@@": 9657, 
  "nific@@": 9658, 
  "stay@@": 9659, 
  "viously": 9660, 
  "É@@": 9661, 
  "angered": 9662, 
  "relation@@": 9663, 
  "": 9664, 
  "sco": 9665, 
  "gry": 9666, 
  "phant@@": 9667, 
  "loc": 9668, 
  "": 9669, 
  "Cali@@": 9670, 
  "â": 9671, 
  "unities": 9672, 
  "zen": 9673, 
  "w.@@": 9674, 
  "sionate": 9675, 
  "alga@@": 9676, 
  "spec": 9677, 
  "Swis@@": 9678, 
  "anta": 9679, 
  "Paci@@": 9680, 
  "landsc@@": 9681, 
  "nition": 9682, 
  "£": 9683, 
  "่": 9684, 
  "heimer": 9685, 
  "arti": 9686, 
  "ร": 9687, 
  "olumin@@": 9688, 
  "uni": 9689, 
  "engine@@": 9690, 
  "Prof@@": 9691, 
  "proced@@": 9692, 
  "bizar@@": 9693, 
  "sibili@@": 9694, 
  "subst@@": 9695, 
  "erad@@": 9696, 
  "interest@@": 9697, 
  "Christi": 9698, 
  "sci": 9699, 
  "....": 9700, 
  "Franci@@": 9701, 
  "rema@@": 9702, 
  "icals": 9703, 
  "cur": 9704, 
  "inion": 9705, 
  "jell@@": 9706, 
  "boundar@@": 9707, 
  "instein": 9708, 
  "scho@@": 9709, 
  "Audi": 9710, 
  "anc": 9711, 
  "goti@@": 9712, 
  "esity": 9713, 
  "ggest": 9714, 
  "Tex": 9715, 
  "Hig@@": 9716, 
  "Á@@": 9717, 
  "è": 9718, 
  "²": 9719, 
  "elson": 9720, 
  "osen": 9721, 
  "molec@@": 9722, 
  "su": 9723, 
  "entre@@": 9724, 
  "beau": 9725, 
  "proper@@": 9726, 
  "bec": 9727, 
  "ø@@": 9728, 
  "edi": 9729, 
  "absolu@@": 9730, 
  "ā@@": 9731, 
  "amoun@@": 9732, 
  "victi@@": 9733, 
  "eleph@@": 9734, 
  "mu": 9735, 
  "inton": 9736, 
  "â@@": 9737, 
  "sli": 9738, 
  "compon@@": 9739, 
  "izoph@@": 9740, 
  "soldi@@": 9741, 
  "heim@@": 9742, 
  "Arist@@": 9743, 
  "Ă@@": 9744, 
  "gentle@@": 9745, 
  "orith@@": 9746, 
  "obvi@@": 9747, 
  "Centr@@": 9748, 
  "muse@@": 9749, 
  "devel@@": 9750, 
  "curricul@@": 9751, 
  "pati": 9752, 
  "coho@@": 9753, 
  "stribu@@": 9754, 
  "Bu": 9755, 
  "bene@@": 9756, 
  "Ť": 9757, 
  "sur": 9758, 
  "poli": 9759, 
  "ย@@": 9760, 
  "˚": 9761, 
  "devi": 9762, 
  "ï@@": 9763, 
  "multi": 9764, 
  "cri": 9765, 
  "bloc": 9766, 
  "venti": 9767, 
  "nov": 9768, 
  "ย": 9769, 
  "symb@@": 9770, 
  "archit@@": 9771, 
  "angi": 9772, 
  "wai@@": 9773, 
  "dea@@": 9774, 
  "inclu@@": 9775, 
  "\\": 9776, 
  "sou": 9777, 
  "ē": 9778, 
  "restaur@@": 9779, 
  "Manhatt@@": 9780, 
  "htt@@": 9781, 
  "unpreced@@": 9782, 
  "mou": 9783, 
  "atm@@": 9784, 
  "Franc": 9785, 
  "Afghan@@": 9786, 
  "ć": 9787, 
  "orea": 9788, 
  "gare@@": 9789, 
  "pu": 9790, 
  "grou": 9791, 
  "lege": 9792, 
  "pri": 9793, 
  "inev@@": 9794, 
  "With@@": 9795, 
  "challeng@@": 9796, 
  "zheimer": 9797, 
  "ople": 9798, 
  "Tube": 9799, 
  "arri": 9800, 
  "thri": 9801, 
  "ubiquit@@": 9802, 
  "photograp@@": 9803, 
  "dec": 9804, 
  "chall@@": 9805, 
  "progra@@": 9806, 
  "..": 9807, 
  "ddenly": 9808, 
  "ë@@": 9809, 
  "expl@@": 9810, 
  "Ç@@": 9811, 
  "educ": 9812, 
  "incredi@@": 9813, 
  "tise": 9814, 
  "illi": 9815, 
  "±": 9816, 
  "erci": 9817, 
  "√": 9818, 
  "mosqui@@": 9819, 
  "TEDM@@": 9820, 
  "葱": 9821, 
  "你@@": 9822, 
  "送@@": 9823, 
  "overy": 9824, 
  "sewhere": 9825, 
  "Luc": 9826, 
  "daugh@@": 9827, 
  "sti": 9828, 
  "€": 9829, 
  "pengu@@": 9830, 
  "abs@@": 9831, 
  "urch": 9832, 
  "ô@@": 9833, 
  "audi": 9834, 
  "whel@@": 9835, 
  "enem@@": 9836, 
  "Jap@@": 9837, 
  "glam@@": 9838, 
  "ú@@": 9839, 
  "Stu": 9840, 
  "friger@@": 9841, 
  "wide@@": 9842, 
  "istic@@": 9843
}